[PAD]	0
[UNK]	0
[BOS]	0
[EOS]	0
[SEP]	0
[CLS]	0
[MASK]	0
▁t	-0
he	-1
▁a	-2
▁the	-3
▁w	-4
▁o	-5
in	-6
nd	-7
▁s	-8
ou	-9
re	-10
▁h	-11
▁and	-12
▁b	-13
▁of	-14
▁f	-15
is	-16
er	-17
▁to	-18
▁m	-19
ll	-20
es	-21
it	-22
at	-23
▁y	-24
ed	-25
on	-26
▁you	-27
▁c	-28
▁d	-29
or	-30
en	-31
ing	-32
▁p	-33
▁l	-34
ar	-35
▁th	-36
an	-37
▁in	-38
om	-39
▁he	-40
▁n	-41
▁I	-42
ill	-43
as	-44
▁be	-45
▁g	-46
ve	-47
ot	-48
le	-49
▁will	-50
▁T	-51
se	-52
▁wh	-53
ut	-54
▁ha	-55
▁L	-56
im	-57
▁"	-58
id	-59
ay	-60
ow	-61
▁e	-62
▁The	-63
▁A	-64
gh	-65
od	-66
am	-67
▁on	-68
▁for	-69
▁is	-70
ith	-71
ir	-72
us	-73
▁his	-74
OR	-75
ORD	-76
▁LORD	-77
ac	-78
▁your	-79
▁J	-80
▁re	-81
▁with	-82
el	-83
▁S	-84
▁not	-85
her	-86
ver	-87
ent	-88
ri	-89
▁him	-90
ra	-91
et	-92
▁k	-93
▁it	-94
▁G	-95
▁who	-96
▁that	-97
▁them	-98
rom	-99
ght	-100
il	-101
ad	-102
ur	-103
▁we	-104
▁as	-105
▁they	-106
al	-107
▁from	-108
▁H	-109
▁me	-110
▁li	-111
ce	-112
▁u	-113
▁sa	-114
ro	-115
ah	-116
ke	-117
▁an	-118
▁my	-119
▁was	-120
▁all	-121
and	-122
st	-123
▁have	-124
▁B	-125
▁God	-126
th	-127
ld	-128
▁st	-129
▁are	-130
ion	-131
."	-132
ore	-133
▁M	-134
▁their	-135
▁com	-136
ic	-137
▁se	-138
au	-139
ple	-140
ord	-141
ain	-142
▁said	-143
est	-144
red	-145
▁de	-146
hen	-147
▁go	-148
▁Is	-149
▁son	-150
ly	-151
▁do	-152
▁W	-153
ame	-154
ven	-155
rou	-156
▁king	-157
ess	-158
▁had	-159
▁this	-160
ers	-161
all	-162
▁man	-163
ant	-164
▁E	-165
▁out	-166
▁He	-167
▁pe	-168
rael	-169
▁Israel	-170
▁at	-171
▁were	-172
one	-173
ab	-174
▁up	-175
ong	-176
▁sh	-177
▁has	-178
▁peo	-179
▁or	-180
▁D	-181
▁by	-182
if	-183
▁one	-184
ter	-185
▁off	-186
▁bec	-187
▁al	-188
▁but	-189
▁people	-190
▁what	-191
▁sp	-192
os	-193
▁P	-194
ear	-195
▁day	-196
▁Then	-197
em	-198
▁so	-199
▁am	-200
ose	-201
nt	-202
ake	-203
ather	-204
res	-205
pt	-206
ist	-207
ust	-208
ak	-209
▁br	-210
▁'	-211
ight	-212
▁O	-213
▁ag	-214
ard	-215
▁So	-216
▁N	-217
ok	-218
▁say	-219
ru	-220
▁ch	-221
ath	-222
ive	-223
ace	-224
ch	-225
▁pl	-226
▁men	-227
▁her	-228
ause	-229
fore	-230
own	-231
ites	-232
--	-233
ge	-234
▁again	-235
ud	-236
ous	-237
▁F	-238
ves	-239
ome	-240
ct	-241
You	-242
▁there	-243
▁no	-244
pp	-245
ul	-246
▁But	-247
▁us	-248
ation	-249
▁lo	-250
out	-251
very	-252
▁pro	-253
ast	-254
urn	-255
▁j	-256
▁They	-257
▁land	-258
other	-259
▁hand	-260
▁over	-261
ings	-262
sel	-263
iah	-264
▁C	-265
▁like	-266
▁because	-267
av	-268
to	-269
ell	-270
▁v	-271
▁le	-272
▁when	-273
▁kn	-274
ked	-275
▁con	-276
ig	-277
ould	-278
▁she	-279
▁su	-280
▁And	-281
ep	-282
▁Jes	-283
▁ab	-284
ity	-285
▁father	-286
▁ri	-287
▁did	-288
▁wor	-289
▁When	-290
reat	-291
▁against	-292
li	-293
▁into	-294
wn	-295
ind	-296
▁come	-297
ered	-298
▁bl	-299
ood	-300
▁Jesus	-301
art	-302
▁before	-303
▁ne	-304
▁those	-305
▁down	-306
our	-307
ach	-308
▁went	-309
▁ser	-310
ave	-311
hed	-312
ide	-313
▁our	-314
▁sin	-315
▁comm	-316
▁des	-317
ade	-318
▁came	-319
ry	-320
▁offer	-321
ved	-322
▁ar	-323
ale	-324
▁cl	-325
▁You	-326
ine	-327
ph	-328
ise	-329
▁any	-330
▁made	-331
▁every	-332
ther	-333
ount	-334
ouse	-335
les	-336
▁house	-337
▁know	-338
ness	-339
▁dis	-340
ild	-341
um	-342
▁Je	-343
▁tw	-344
ies	-345
ign	-346
way	-347
his	-348
ho	-349
so	-350
ime	-351
▁Jer	-352
▁ear	-353
▁put	-354
avid	-355
▁right	-356
▁ro	-357
▁may	-358
ate	-359
▁David	-360
ack	-361
ip	-362
▁pri	-363
▁co	-364
▁word	-365
▁R	-366
here	-367
ish	-368
▁r	-369
▁pr	-370
?"	-371
fe	-372
▁its	-373
ile	-374
la	-375
▁if	-376
▁Jud	-377
▁can	-378
▁ho	-379
▁ac	-380
ice	-381
ted	-382
orn	-383
▁priest	-384
▁di	-385
,"	-386
▁As	-387
nder	-388
ol	-389
▁serv	-390
ite	-391
oses	-392
▁For	-393
▁other	-394
▁Z	-395
▁been	-396
rough	-397
ng	-398
▁ex	-399
ound	-400
▁command	-401
ants	-402
self	-403
▁fi	-404
▁sons	-405
▁great	-406
▁year	-407
.'	-408
oth	-409
ck	-410
hes	-411
▁fo	-412
▁Ab	-413
are	-414
ree	-415
round	-416
▁wat	-417
be	-418
qu	-419
▁sw	-420
▁Judah	-421
▁about	-422
▁through	-423
▁rep	-424
▁Moses	-425
▁see	-426
▁way	-427
ance	-428
▁K	-429
▁en	-430
▁un	-431
led	-432
▁set	-433
ations	-434
▁bu	-435
alem	-436
▁then	-437
usalem	-438
▁Jerusalem	-439
▁must	-440
▁these	-441
▁af	-442
▁give	-443
▁among	-444
▁away	-445
▁heart	-446
ts	-447
▁wr	-448
▁let	-449
aught	-450
▁earth	-451
ure	-452
rought	-453
▁dec	-454
▁time	-455
▁make	-456
▁brother	-457
▁brought	-458
▁also	-459
▁Eg	-460
▁Lord	-461
▁call	-462
▁prop	-463
ans	-464
ich	-465
ypt	-466
ment	-467
▁Egypt	-468
▁says	-469
▁place	-470
▁tem	-471
▁ang	-472
ub	-473
▁Ph	-474
▁gi	-475
dom	-476
▁bring	-477
▁own	-478
▁la	-479
ful	-480
az	-481
▁fl	-482
ag	-483
▁take	-484
▁name	-485
▁offering	-486
ving	-487
▁than	-488
▁temple	-489
ty	-490
aven	-491
▁ent	-492
▁took	-493
▁sent	-494
▁In	-495
▁ru	-496
▁city	-497
▁eat	-498
ever	-499
aul	-500
igh	-501
▁which	-502
▁gave	-503
▁under	-504
ob	-505
▁back	-506
▁would	-507
un	-508
read	-509
▁good	-510
▁long	-511
ft	-512
▁live	-513
▁wom	-514
The	-515
▁rem	-516
▁fore	-517
▁turn	-518
irit	-519
▁dest	-520
ue	-521
hat	-522
▁heaven	-523
ink	-524
▁where	-525
row	-526
▁days	-527
▁acc	-528
▁Israelites	-529
itt	-530
irst	-531
▁saw	-532
▁spe	-533
▁ey	-534
▁child	-535
als	-536
▁life	-537
▁some	-538
▁things	-539
▁two	-540
thing	-541
▁more	-542
mb	-543
▁app	-544
▁even	-545
sw	-546
▁heard	-547
▁Ch	-548
▁now	-549
▁On	-550
▁ke	-551
▁fe	-552
oh	-553
▁answ	-554
▁fa	-555
sh	-556
▁left	-557
rist	-558
ighty	-559
▁nations	-560
▁ev	-561
▁This	-562
▁There	-563
eous	-564
ren	-565
▁each	-566
▁asked	-567
ried	-568
▁Am	-569
▁done	-570
ie	-571
▁tr	-572
▁Christ	-573
▁If	-574
▁She	-575
▁gl	-576
▁hands	-577
att	-578
▁does	-579
▁law	-580
▁work	-581
▁Now	-582
▁Le	-583
▁love	-584
▁righteous	-585
▁head	-586
ough	-587
▁servant	-588
hing	-589
▁how	-590
▁Do	-591
ress	-592
ze	-593
▁eyes	-594
rif	-595
▁tell	-596
▁first	-597
ps	-598
▁ra	-599
▁sac	-600
▁just	-601
roy	-602
icked	-603
▁years	-604
▁sc	-605
illed	-606
▁destroy	-607
▁pre	-608
▁prophe	-609
▁look	-610
ors	-611
tar	-612
ass	-613
▁called	-614
get	-615
▁end	-616
▁per	-617
▁rest	-618
!"	-619
selves	-620
▁gra	-621
te	-622
ect	-623
ds	-624
▁water	-625
▁arm	-626
▁Al	-627
▁gold	-628
less	-629
▁stre	-630
▁town	-631
ull	-632
rink	-633
▁nor	-634
▁wicked	-635
ised	-636
ied	-637
ory	-638
▁given	-639
ble	-640
▁stand	-641
▁Sh	-642
oin	-643
ward	-644
ence	-645
▁disc	-646
▁fire	-647
▁many	-648
▁daught	-649
▁pres	-650
▁decla	-651
ort	-652
▁gu	-653
▁ad	-654
outh	-655
ron	-656
ert	-657
▁evil	-658
cend	-659
lied	-660
▁told	-661
▁count	-662
sp	-663
▁only	-664
mon	-665
▁It	-666
▁after	-667
▁death	-668
▁sword	-669
oy	-670
able	-671
llow	-672
▁speak	-673
▁children	-674
▁altar	-675
isten	-676
▁car	-677
▁blood	-678
amp	-679
▁Be	-680
▁faith	-681
ions	-682
ated	-683
▁sil	-684
und	-685
ber	-686
▁shall	-687
This	-688
▁tri	-689
▁himself	-690
ai	-691
uth	-692
▁ret	-693
▁te	-694
▁descend	-695
▁found	-696
▁unt	-697
leas	-698
▁words	-699
▁priests	-700
▁god	-701
▁sl	-702
ower	-703
ning	-704
ock	-705
ost	-706
▁replied	-707
▁whole	-708
ary	-709
gether	-710
▁hear	-711
▁char	-712
▁follow	-713
▁fam	-714
its	-715
▁brothers	-716
▁around	-717
▁Saul	-718
▁until	-719
▁become	-720
▁return	-721
▁bet	-722
▁answered	-723
ship	-724
hy	-725
lon	-726
eth	-727
iel	-728
▁bur	-729
▁together	-730
ap	-731
lean	-732
▁tak	-733
▁fell	-734
▁All	-735
acob	-736
▁burn	-737
▁enem	-738
▁should	-739
uch	-740
▁whom	-741
▁holy	-742
▁keep	-743
▁Lev	-744
▁sacrif	-745
aby	-746
▁jud	-747
▁mar	-748
▁Jacob	-749
▁offerings	-750
ash	-751
▁qu	-752
▁inc	-753
▁drink	-754
vere	-755
ond	-756
▁offic	-757
▁declares	-758
age	-759
ws	-760
▁seven	-761
▁gr	-762
▁ord	-763
▁lead	-764
oice	-765
▁old	-766
pen	-767
ains	-768
▁three	-769
aron	-770
▁Phar	-771
▁kingdom	-772
▁without	-773
ines	-774
hu	-775
▁high	-776
▁descendants	-777
abylon	-778
▁cont	-779
ilt	-780
ife	-781
ished	-782
▁Babylon	-783
iz	-784
▁tre	-785
▁woman	-786
▁ca	-787
▁pray	-788
▁another	-789
▁beg	-790
▁mount	-791
▁everything	-792
oab	-793
▁accord	-794
▁Ah	-795
▁upon	-796
▁Aaron	-797
▁Alm	-798
aster	-799
▁reb	-800
▁fall	-801
▁silver	-802
▁Almighty	-803
els	-804
▁Sp	-805
▁del	-806
▁wife	-807
▁bless	-808
eb	-809
raise	-810
▁power	-811
▁anyone	-812
▁listen	-813
▁young	-814
▁mother	-815
oke	-816
▁sec	-817
▁(	-818
▁po	-819
▁four	-820
ove	-821
▁bod	-822
▁war	-823
▁Phil	-824
▁night	-825
▁dead	-826
▁became	-827
ious	-828
▁thir	-829
▁Spirit	-830
ia	-831
▁att	-832
enty	-833
ousand	-834
▁well	-835
▁never	-836
▁thousand	-837
oss	-838
▁mouth	-839
ham	-840
▁har	-841
▁living	-842
ff	-843
alk	-844
▁bo	-845
fter	-846
▁near	-847
▁kings	-848
ces	-849
▁King	-850
▁fiel	-851
▁food	-852
▁ever	-853
▁discip	-854
▁im	-855
undred	-856
ix	-857
ared	-858
enth	-859
▁Sam	-860
stand	-861
▁face	-862
▁here	-863
▁ground	-864
▁hundred	-865
ged	-866
▁Man	-867
▁nothing	-868
ched	-869
▁fathers	-870
▁pleas	-871
▁Eli	-872
▁cons	-873
▁along	-874
▁bel	-875
▁open	-876
▁while	-877
ned	-878
vereign	-879
ne	-880
▁Ar	-881
aph	-882
▁towns	-883
▁die	-884
▁going	-885
attle	-886
▁send	-887
lom	-888
venant	-889
▁light	-890
▁spirit	-891
▁forever	-892
▁Re	-893
pe	-894
ches	-895
ives	-896
▁hel	-897
▁rej	-898
Do	-899
▁cut	-900
▁After	-901
cept	-902
▁side	-903
▁covenant	-904
▁Sovereign	-905
▁sins	-906
▁inher	-907
ick	-908
▁num	-909
▁dist	-910
▁country	-911
▁reg	-912
▁unc	-913
▁inherit	-914
00	-915
▁Jos	-916
▁comes	-917
▁famil	-918
▁We	-919
▁bir	-920
▁pur	-921
▁str	-922
ss	-923
we	-924
▁Th	-925
▁Ben	-926
▁bre	-927
▁mon	-928
lomon	-929
▁show	-930
▁saying	-931
▁Solomon	-932
▁according	-933
▁beli	-934
▁Philist	-935
▁glory	-936
▁Levites	-937
▁Therefore	-938
ates	-939
▁cur	-940
▁ref	-941
ices	-942
▁feet	-943
▁could	-944
▁still	-945
not	-946
▁bow	-947
▁wa	-948
▁ter	-949
▁fear	-950
▁find	-951
▁kind	-952
▁thr	-953
▁very	-954
If	-955
▁Se	-956
▁get	-957
ction	-958
ought	-959
▁help	-960
▁burnt	-961
▁month	-962
ire	-963
▁world	-964
▁enemies	-965
▁rece	-966
rie	-967
▁Father	-968
What	-969
▁wall	-970
▁commanded	-971
aoh	-972
▁At	-973
▁cub	-974
▁camp	-975
▁grain	-976
▁taken	-977
aiah	-978
▁comp	-979
▁same	-980
▁reign	-981
▁whose	-982
▁disciples	-983
▁servants	-984
ons	-985
▁desert	-986
rew	-987
ally	-988
▁sea	-989
▁sure	-990
▁Pharaoh	-991
ars	-992
ely	-993
▁These	-994
the	-995
▁gods	-996
▁turned	-997
ens	-998
▁His	-999
▁Let	-1000
itten	-1001
oseph	-1002
▁anger	-1003
ark	-1004
▁div	-1005
▁res	-1006
▁sk	-1007
▁bread	-1008
▁Joseph	-1009
▁don	-1010
▁sur	-1011
▁too	-1012
▁body	-1013
▁both	-1014
▁prom	-1015
▁written	-1016
▁far	-1017
▁died	-1018
▁full	-1019
▁belie	-1020
ures	-1021
▁cour	-1022
ase	-1023
▁opp	-1024
raham	-1025
▁prov	-1026
hua	-1027
semb	-1028
kiah	-1029
▁cro	-1030
▁army	-1031
▁offici	-1032
bey	-1033
▁tru	-1034
▁test	-1035
▁cannot	-1036
▁prophet	-1037
▁bro	-1038
▁worship	-1039
▁lived	-1040
▁daughter	-1041
▁El	-1042
▁id	-1043
side	-1044
▁Who	-1045
▁hill	-1046
▁Abraham	-1047
▁praise	-1048
▁understand	-1049
▁dev	-1050
▁joy	-1051
▁nam	-1052
▁peace	-1053
ossess	-1054
▁coming	-1055
▁though	-1056
bs	-1057
med	-1058
▁Jews	-1059
ointed	-1060
▁assemb	-1061
aces	-1062
▁want	-1063
▁inheritance	-1064
▁hon	-1065
▁gate	-1066
▁themselves	-1067
▁clot	-1068
▁My	-1069
ones	-1070
▁lam	-1071
▁build	-1072
eter	-1073
▁truth	-1074
▁belong	-1075
▁An	-1076
▁san	-1077
▁wine	-1078
▁streng	-1079
▁Me	-1080
▁idol	-1081
▁prophets	-1082
▁righteousness	-1083
ks	-1084
▁anim	-1085
▁capt	-1086
abb	-1087
den	-1088
▁mess	-1089
▁ways	-1090
▁toward	-1091
▁women	-1092
▁No	-1093
cause	-1094
jah	-1095
ween	-1096
▁happ	-1097
▁officials	-1098
,'	-1099
ib	-1100
▁wis	-1101
▁yet	-1102
▁stay	-1103
▁twenty	-1104
▁How	-1105
▁pass	-1106
Go	-1107
ern	-1108
ents	-1109
vest	-1110
ring	-1111
▁rec	-1112
▁kill	-1113
▁Ho	-1114
ened	-1115
raid	-1116
▁obey	-1117
orning	-1118
▁cubits	-1119
▁Son	-1120
▁ark	-1121
ments	-1122
▁between	-1123
▁Your	-1124
▁dark	-1125
▁seen	-1126
▁Joshua	-1127
▁possess	-1128
▁gen	-1129
▁From	-1130
▁morning	-1131
▁destroyed	-1132
hel	-1133
▁stood	-1134
ced	-1135
hem	-1136
ians	-1137
▁care	-1138
▁part	-1139
▁daughters	-1140
▁Eph	-1141
▁battle	-1142
▁unclean	-1143
▁yourselves	-1144
▁cr	-1145
▁Can	-1146
▁oil	-1147
ister	-1148
▁field	-1149
▁serve	-1150
ots	-1151
▁pal	-1152
▁Beth	-1153
▁judg	-1154
▁afraid	-1155
▁killed	-1156
ruit	-1157
▁cit	-1158
ached	-1159
ner	-1160
▁ten	-1161
▁Philistines	-1162
day	-1163
oud	-1164
▁exp	-1165
▁Paul	-1166
▁inst	-1167
▁looked	-1168
ense	-1169
ived	-1170
▁One	-1171
▁angel	-1172
▁hearts	-1173
og	-1174
uel	-1175
▁six	-1176
▁tribe	-1177
▁spread	-1178
▁present	-1179
ush	-1180
▁fruit	-1181
ook	-1182
▁mo	-1183
pped	-1184
▁gone	-1185
▁sheep	-1186
▁teach	-1187
▁wisdom	-1188
esh	-1189
ows	-1190
▁mer	-1191
▁tim	-1192
▁Why	-1193
▁since	-1194
▁surely	-1195
for	-1196
ief	-1197
▁hold	-1198
He	-1199
eds	-1200
imon	-1201
▁built	-1202
gr	-1203
aled	-1204
▁five	-1205
▁flock	-1206
▁sev	-1207
▁Holy	-1208
▁voice	-1209
de	-1210
ured	-1211
▁anything	-1212
ordan	-1213
▁sanct	-1214
▁Jordan	-1215
▁longer	-1216
▁dri	-1217
▁eld	-1218
▁Jeho	-1219
▁What	-1220
▁forg	-1221
▁wrath	-1222
iv	-1223
xt	-1224
ither	-1225
▁fellow	-1226
▁remain	-1227
▁strong	-1228
ang	-1229
oney	-1230
▁Moab	-1231
▁much	-1232
▁might	-1233
ued	-1234
▁sm	-1235
aced	-1236
▁lives	-1237
▁presence	-1238
▁wind	-1239
▁yourself	-1240
men	-1241
ute	-1242
▁Ba	-1243
▁tra	-1244
▁conc	-1245
▁enter	-1246
▁fight	-1247
▁Y	-1248
raim	-1249
▁mak	-1250
athan	-1251
▁conf	-1252
▁terr	-1253
jam	-1254
hold	-1255
▁such	-1256
▁stone	-1257
▁elders	-1258
ams	-1259
▁entr	-1260
iver	-1261
▁cry	-1262
▁lay	-1263
▁home	-1264
▁sign	-1265
▁trou	-1266
▁gener	-1267
▁contin	-1268
ins	-1269
▁dw	-1270
born	-1271
▁east	-1272
▁vine	-1273
▁wise	-1274
▁master	-1275
ail	-1276
▁ask	-1277
▁rel	-1278
▁male	-1279
▁read	-1280
▁spoke	-1281
▁returned	-1282
▁fif	-1283
▁doing	-1284
▁times	-1285
▁Benjam	-1286
▁filled	-1287
▁commands	-1288
ew	-1289
rem	-1290
ified	-1291
▁crow	-1292
▁walk	-1293
▁Peter	-1294
▁guard	-1295
zz	-1296
oun	-1297
arge	-1298
ling	-1299
▁whe	-1300
▁sett	-1301
▁third	-1302
▁today	-1303
▁sanctu	-1304
▁fool	-1305
▁tree	-1306
We	-1307
▁carry	-1308
▁creat	-1309
▁honor	-1310
▁Ephraim	-1311
▁strength	-1312
ized	-1313
ront	-1314
▁leave	-1315
aan	-1316
ets	-1317
▁sat	-1318
ledge	-1319
▁kept	-1320
▁chari	-1321
▁sanctuary	-1322
ci	-1323
act	-1324
ying	-1325
▁Joh	-1326
▁why	-1327
▁poor	-1328
▁stri	-1329
▁cross	-1330
▁dwell	-1331
▁family	-1332
ages	-1333
alle	-1334
▁rebu	-1335
▁began	-1336
▁everyone	-1337
bes	-1338
ince	-1339
▁save	-1340
▁heads	-1341
cla	-1342
athe	-1343
ined	-1344
▁sun	-1345
riend	-1346
▁heavens	-1347
cr	-1348
bed	-1349
alley	-1350
atter	-1351
eting	-1352
ittle	-1353
▁goat	-1354
▁prep	-1355
▁sing	-1356
▁idols	-1357
▁remem	-1358
ict	-1359
▁gif	-1360
acher	-1361
uring	-1362
▁bull	-1363
▁mighty	-1364
aac	-1365
▁pun	-1366
▁rul	-1367
ision	-1368
▁clan	-1369
▁stru	-1370
sy	-1371
oam	-1372
▁little	-1373
▁number	-1374
▁throne	-1375
▁clothes	-1376
op	-1377
▁new	-1378
▁def	-1379
▁defe	-1380
Why	-1381
ken	-1382
acle	-1383
▁May	-1384
▁fin	-1385
▁chief	-1386
▁sound	-1387
▁trust	-1388
ples	-1389
▁led	-1390
▁pay	-1391
claim	-1392
▁born	-1393
asting	-1394
▁being	-1395
▁Wh	-1396
iles	-1397
▁Zion	-1398
▁hope	-1399
▁lord	-1400
▁friend	-1401
▁spok	-1402
▁front	-1403
▁waters	-1404
▁det	-1405
▁hid	-1406
▁hum	-1407
▁next	-1408
▁others	-1409
▁mountains	-1410
▁sold	-1411
▁named	-1412
▁second	-1413
seh	-1414
iled	-1415
onze	-1416
▁Tent	-1417
▁mind	-1418
▁decre	-1419
▁Canaan	-1420
▁bronze	-1421
▁charge	-1422
▁palace	-1423
▁spoken	-1424
▁assembly	-1425
▁ap	-1426
▁got	-1427
▁cover	-1428
fl	-1429
irc	-1430
band	-1431
▁nation	-1432
▁mountain	-1433
▁sacrifice	-1434
tend	-1435
▁sal	-1436
▁believe	-1437
▁blessed	-1438
cy	-1439
ided	-1440
ison	-1441
▁carried	-1442
▁peoples	-1443
▁darkness	-1444
▁sn	-1445
▁beh	-1446
▁need	-1447
▁suff	-1448
▁Jeh	-1449
▁pers	-1450
But	-1451
ret	-1452
ult	-1453
▁Jon	-1454
▁fort	-1455
▁Jerem	-1456
▁answer	-1457
▁myself	-1458
key	-1459
alth	-1460
▁Yet	-1461
▁past	-1462
▁birth	-1463
▁donkey	-1464
gs	-1465
▁Neb	-1466
▁act	-1467
abbath	-1468
▁large	-1469
▁shout	-1470
ian	-1471
▁To	-1472
▁ce	-1473
ways	-1474
▁hal	-1475
asseh	-1476
▁John	-1477
▁order	-1478
▁burned	-1479
▁cities	-1480
▁incense	-1481
▁standing	-1482
ulf	-1483
▁Dan	-1484
▁fav	-1485
▁Joab	-1486
▁dece	-1487
▁port	-1488
▁Their	-1489
▁neigh	-1490
▁Sabbath	-1491
▁appointed	-1492
?'	-1493
asts	-1494
▁bes	-1495
▁resp	-1496
▁sight	-1497
▁thing	-1498
▁comple	-1499
mp	-1500
▁tou	-1501
▁laid	-1502
▁known	-1503
▁shame	-1504
▁Jeremiah	-1505
sed	-1506
yal	-1507
▁meet	-1508
▁shek	-1509
▁Manasseh	-1510
▁whatever	-1511
eng	-1512
elve	-1513
ject	-1514
▁suc	-1515
▁refu	-1516
▁wood	-1517
▁neighb	-1518
▁struck	-1519
▁animals	-1520
▁hus	-1521
right	-1522
ressed	-1523
▁crowd	-1524
▁Because	-1525
▁Meeting	-1526
▁entrance	-1527
aid	-1528
▁Ham	-1529
under	-1530
▁clean	-1531
oul	-1532
▁Ad	-1533
ilead	-1534
▁mour	-1535
▁seek	-1536
▁judge	-1537
▁north	-1538
▁Gilead	-1539
▁commit	-1540
▁detest	-1541
▁places	-1542
▁thought	-1543
▁proclaim	-1544
▁received	-1545
syri	-1546
▁imp	-1547
▁sle	-1548
▁Assyri	-1549
▁Samuel	-1550
▁accept	-1551
▁evening	-1552
▁sacrifices	-1553
eph	-1554
head	-1555
▁bas	-1556
▁dep	-1557
▁wit	-1558
▁bear	-1559
▁half	-1560
▁tong	-1561
▁husband	-1562
ired	-1563
▁sub	-1564
▁hard	-1565
▁soul	-1566
▁gives	-1567
aughter	-1568
▁rebell	-1569
▁prophes	-1570
▁faithful	-1571
▁est	-1572
There	-1573
▁With	-1574
▁break	-1575
▁watch	-1576
Come	-1577
▁lie	-1578
▁clans	-1579
▁favor	-1580
▁royal	-1581
▁wrong	-1582
athered	-1583
▁Benjamin	-1584
Who	-1585
air	-1586
ray	-1587
▁pie	-1588
▁meas	-1589
▁oath	-1590
▁above	-1591
▁trees	-1592
▁gather	-1593
pher	-1594
ting	-1595
▁ali	-1596
ariah	-1597
▁able	-1598
▁once	-1599
▁supp	-1600
▁till	-1601
▁Isaac	-1602
▁Mount	-1603
▁gathered	-1604
Let	-1605
When	-1606
▁purs	-1607
▁broken	-1608
▁instru	-1609
▁trouble	-1610
▁followed	-1611
ead	-1612
▁es	-1613
lesh	-1614
▁adv	-1615
ircum	-1616
▁Heze	-1617
▁Hezekiah	-1618
▁promised	-1619
eal	-1620
▁tab	-1621
▁free	-1622
▁rock	-1623
▁room	-1624
▁Samar	-1625
▁bound	-1626
▁always	-1627
▁decrees	-1628
▁firstborn	-1629
▁punish	-1630
▁sacred	-1631
▁knowledge	-1632
ls	-1633
ides	-1634
ries	-1635
▁gar	-1636
▁justice	-1637
▁judgment	-1638
used	-1639
▁dra	-1640
ected	-1641
erning	-1642
▁flesh	-1643
ael	-1644
ored	-1645
orses	-1646
▁reve	-1647
▁stones	-1648
Be	-1649
aim	-1650
▁Jo	-1651
ited	-1652
oured	-1653
▁tent	-1654
▁mercy	-1655
▁table	-1656
▁prison	-1657
▁raised	-1658
hon	-1659
osen	-1660
▁add	-1661
▁That	-1662
▁prost	-1663
▁think	-1664
▁horses	-1665
▁inv	-1666
▁fulf	-1667
▁lips	-1668
▁west	-1669
vation	-1670
▁Ammon	-1671
▁attack	-1672
▁leaders	-1673
▁throughout	-1674
It	-1675
My	-1676
▁fle	-1677
▁deep	-1678
ircumc	-1679
▁trump	-1680
▁chosen	-1681
▁outside	-1682
▁Ne	-1683
yard	-1684
▁cle	-1685
▁sum	-1686
▁alone	-1687
▁money	-1688
▁wealth	-1689
▁vineyard	-1690
▁household	-1691
lud	-1692
ram	-1693
ues	-1694
ceed	-1695
omet	-1696
▁Her	-1697
▁fine	-1698
As	-1699
▁Heb	-1700
▁ass	-1701
▁fal	-1702
▁road	-1703
▁thirty	-1704
▁Assyria	-1705
ual	-1706
▁hu	-1707
east	-1708
▁Jehoi	-1709
▁While	-1710
▁harvest	-1711
abl	-1712
ater	-1713
lech	-1714
▁Bar	-1715
▁cal	-1716
▁esc	-1717
▁cond	-1718
▁grow	-1719
▁laws	-1720
▁regul	-1721
▁Samaria	-1722
ention	-1723
isions	-1724
▁angry	-1725
▁makes	-1726
▁treas	-1727
▁establ	-1728
▁message	-1729
ider	-1730
oura	-1731
▁Baal	-1732
▁resc	-1733
▁south	-1734
▁suffer	-1735
up	-1736
cri	-1737
▁Pe	-1738
▁unf	-1739
ition	-1740
▁Edom	-1741
father	-1742
▁Elish	-1743
▁plant	-1744
▁giving	-1745
▁rejoice	-1746
▁seventh	-1747
▁salvation	-1748
iced	-1749
▁fled	-1750
▁true	-1751
▁used	-1752
▁treat	-1753
▁someone	-1754
How	-1755
mer	-1756
osh	-1757
erve	-1758
orns	-1759
▁dre	-1760
▁wid	-1761
▁chur	-1762
▁cove	-1763
▁door	-1764
attered	-1765
ernacle	-1766
▁appear	-1767
▁better	-1768
▁witness	-1769
▁tabernacle	-1770
▁understanding	-1771
.)	-1772
man	-1773
▁min	-1774
▁tor	-1775
imony	-1776
▁escap	-1777
▁person	-1778
▁prostit	-1779
▁Jonathan	-1780
▁disaster	-1781
mor	-1782
▁mir	-1783
uthor	-1784
▁arri	-1785
▁sleep	-1786
▁buried	-1787
▁twelve	-1788
▁forefather	-1789
ery	-1790
ibe	-1791
▁el	-1792
ully	-1793
urely	-1794
▁requ	-1795
▁gates	-1796
▁grace	-1797
▁wives	-1798
▁sister	-1799
▁messeng	-1800
▁neighbor	-1801
▁detestable	-1802
sal	-1803
▁desp	-1804
▁foot	-1805
▁glad	-1806
▁deeds	-1807
▁enemy	-1808
▁forty	-1809
▁worth	-1810
▁Elijah	-1811
omething	-1812
▁wickedness	-1813
abor	-1814
ible	-1815
fully	-1816
▁dust	-1817
▁pure	-1818
▁rich	-1819
▁vill	-1820
▁wait	-1821
▁guilt	-1822
▁saved	-1823
▁opened	-1824
▁tribes	-1825
▁delight	-1826
▁families	-1827
▁happened	-1828
ede	-1829
azar	-1830
▁gre	-1831
aniah	-1832
▁author	-1833
▁deliver	-1834
aw	-1835
ize	-1836
▁Es	-1837
▁aw	-1838
ijah	-1839
secr	-1840
vers	-1841
▁ate	-1842
▁ins	-1843
▁sit	-1844
▁soon	-1845
▁Every	-1846
▁entered	-1847
▁however	-1848
▁shepher	-1849
▁surround	-1850
▁commander	-1851
oe	-1852
ify	-1853
▁hor	-1854
▁lin	-1855
ouses	-1856
▁Some	-1857
▁appe	-1858
▁lies	-1859
▁weep	-1860
▁fields	-1861
▁foreign	-1862
▁something	-1863
ba	-1864
oc	-1865
aam	-1866
aut	-1867
▁By	-1868
▁ob	-1869
▁last	-1870
▁sake	-1871
▁wide	-1872
▁begin	-1873
▁linen	-1874
▁relat	-1875
onement	-1876
▁shekels	-1877
▁whoever	-1878
Now	-1879
iol	-1880
Take	-1881
▁boy	-1882
▁enc	-1883
▁run	-1884
unity	-1885
▁Shem	-1886
▁else	-1887
▁hair	-1888
▁lear	-1889
▁appro	-1890
▁within	-1891
erv	-1892
tic	-1893
▁Az	-1894
▁ir	-1895
ield	-1896
▁lif	-1897
▁pit	-1898
▁sto	-1899
▁Gent	-1900
▁rise	-1901
▁wild	-1902
▁thanks	-1903
▁plunder	-1904
No	-1905
iful	-1906
ises	-1907
▁Bal	-1908
▁top	-1909
▁Gibe	-1910
▁path	-1911
▁share	-1912
▁famine	-1913
▁territ	-1914
▁reached	-1915
▁speaking	-1916
land	-1917
▁par	-1918
▁ram	-1919
oboam	-1920
salom	-1921
▁Esau	-1922
▁Even	-1923
▁book	-1924
▁tear	-1925
▁viol	-1926
▁false	-1927
▁perish	-1928
▁prayer	-1929
▁Absalom	-1930
▁covered	-1931
▁receive	-1932
▁succeed	-1933
▁chariots	-1934
▁atonement	-1935
irm	-1936
ote	-1937
ason	-1938
vern	-1939
▁Will	-1940
▁flow	-1941
▁lion	-1942
▁plag	-1943
▁beaut	-1944
ruction	-1945
▁teacher	-1946
▁remember	-1947
▁concerning	-1948
aff	-1949
cted	-1950
▁fat	-1951
▁mid	-1952
▁bran	-1953
▁rain	-1954
▁cloud	-1955
▁disgr	-1956
▁mirac	-1957
▁flocks	-1958
▁fellowship	-1959
▁ox	-1960
nant	-1961
oint	-1962
▁bar	-1963
aphat	-1964
▁most	-1965
▁desol	-1966
▁during	-1967
▁Pharise	-1968
▁Jeroboam	-1969
▁forefathers	-1970
law	-1971
▁See	-1972
▁ban	-1973
▁exal	-1974
▁fast	-1975
▁pour	-1976
▁Those	-1977
▁ahead	-1978
▁walls	-1979
▁pieces	-1980
▁territory	-1981
▁possession	-1982
ban	-1983
bles	-1984
deem	-1985
spel	-1986
▁Bet	-1987
▁Gad	-1988
▁Han	-1989
▁eph	-1990
▁swe	-1991
orted	-1992
▁curt	-1993
▁goes	-1994
ertain	-1995
▁eight	-1996
▁angels	-1997
▁behind	-1998
▁gospel	-1999
▁redeem	-2000
▁consecr	-2001
▁appeared	-2002
▁Israelite	-2003
,00	-2004
apt	-2005
▁Go	-2006
,000	-2007
▁sla	-2008
inces	-2009
▁Aram	-2010
▁flee	-2011
▁iron	-2012
▁birds	-2013
▁incre	-2014
▁govern	-2015
▁proper	-2016
▁refuge	-2017
ech	-2018
iss	-2019
zer	-2020
▁sy	-2021
roll	-2022
▁Zeb	-2023
▁cra	-2024
▁cher	-2025
▁gain	-2026
▁mean	-2027
▁blind	-2028
▁cried	-2029
▁labor	-2030
▁loved	-2031
▁pract	-2032
▁ready	-2033
▁poured	-2034
▁stayed	-2035
▁ordered	-2036
▁reigned	-2037
▁cor	-2038
▁rid	-2039
▁tal	-2040
▁use	-2041
aziah	-2042
▁none	-2043
▁pill	-2044
▁talk	-2045
▁Elisha	-2046
▁entire	-2047
▁summon	-2048
▁tongue	-2049
▁compass	-2050
▁whether	-2051
▁Gentiles	-2052
Se	-2053
ec	-2054
osed	-2055
tern	-2056
▁ast	-2057
▁gir	-2058
▁Ahab	-2059
▁bapt	-2060
▁lambs	-2061
▁soldi	-2062
▁enough	-2063
▁houses	-2064
▁account	-2065
▁complet	-2066
▁pasture	-2067
br	-2068
odu	-2069
ilee	-2070
▁Sea	-2071
▁disp	-2072
▁meat	-2073
▁artic	-2074
▁knows	-2075
▁consum	-2076
▁Egyptians	-2077
▁compassion	-2078
In	-2079
▁Ag	-2080
▁wo	-2081
adne	-2082
zzar	-2083
▁Ish	-2084
▁cho	-2085
▁val	-2086
bered	-2087
▁fors	-2088
▁hung	-2089
▁weak	-2090
itting	-2091
▁bones	-2092
▁court	-2093
uchadne	-2094
▁includ	-2095
▁friends	-2096
▁offered	-2097
▁finished	-2098
uchadnezzar	-2099
!'	-2100
ial	-2101
ike	-2102
▁Gal	-2103
▁bit	-2104
▁ran	-2105
ready	-2106
▁ruler	-2107
▁cherub	-2108
▁except	-2109
▁sinned	-2110
▁arrived	-2111
ircumcised	-2112
▁therefore	-2113
of	-2114
hob	-2115
Your	-2116
omes	-2117
uben	-2118
▁Zer	-2119
▁adul	-2120
▁sear	-2121
▁tremb	-2122
vestock	-2123
▁sprink	-2124
▁officers	-2125
▁teaching	-2126
▁Ammonites	-2127
▁authority	-2128
▁committed	-2129
▁livestock	-2130
▁commanders	-2131
▁completely	-2132
▁Nebuchadnezzar	-2133
old	-2134
elah	-2135
▁bed	-2136
▁Most	-2137
▁glor	-2138
▁grie	-2139
▁cause	-2140
▁flour	-2141
▁gifts	-2142
▁prosp	-2143
▁quick	-2144
oshaphat	-2145
▁already	-2146
▁villages	-2147
▁beginning	-2148
▁community	-2149
They	-2150
aken	-2151
▁Ele	-2152
▁Amor	-2153
▁apost	-2154
▁demon	-2155
▁drive	-2156
▁grave	-2157
▁inner	-2158
▁slave	-2159
imelech	-2160
▁Reuben	-2161
▁beside	-2162
▁placed	-2163
▁neither	-2164
▁distress	-2165
▁Jehoshaphat	-2166
▁destruction	-2167
arm	-2168
▁ann	-2169
▁dire	-2170
▁real	-2171
▁tomb	-2172
othing	-2173
▁alive	-2174
▁etern	-2175
▁animal	-2176
▁brings	-2177
▁cattle	-2178
▁scattered	-2179
wo	-2180
but	-2181
now	-2182
ops	-2183
lebr	-2184
▁Rem	-2185
▁hur	-2186
aring	-2187
▁best	-2188
▁cast	-2189
▁ones	-2190
▁rule	-2191
▁close	-2192
▁dream	-2193
▁fifty	-2194
▁yours	-2195
▁Pharisees	-2196
▁generation	-2197
ug	-2198
fect	-2199
ilty	-2200
owed	-2201
▁Law	-2202
▁mur	-2203
▁nat	-2204
isted	-2205
▁Like	-2206
▁ears	-2207
▁gift	-2208
▁held	-2209
▁knew	-2210
▁lamp	-2211
▁ruin	-2212
▁seed	-2213
▁Asher	-2214
▁goats	-2215
▁bitter	-2216
▁guilty	-2217
▁St	-2218
Then	-2219
aves	-2220
that	-2221
▁Ram	-2222
▁harm	-2223
▁curse	-2224
▁lying	-2225
▁small	-2226
▁delive	-2227
▁hidden	-2228
▁plague	-2229
▁desolate	-2230
▁creatures	-2231
▁relatives	-2232
Is	-2233
pes	-2234
ran	-2235
acked	-2236
plend	-2237
▁broke	-2238
▁rulers	-2239
▁certain	-2240
▁oppress	-2241
Son	-2242
rer	-2243
tal	-2244
▁Pas	-2245
▁inn	-2246
▁low	-2247
▁pra	-2248
▁stra	-2249
▁hills	-2250
▁thres	-2251
▁leader	-2252
▁eternal	-2253
ten	-2254
bers	-2255
lessed	-2256
▁names	-2257
▁produ	-2258
▁camped	-2259
▁church	-2260
▁compan	-2261
▁record	-2262
▁regard	-2263
▁greater	-2264
▁anointed	-2265
▁branches	-2266
▁soldiers	-2267
ior	-2268
isf	-2269
let	-2270
ney	-2271
aked	-2272
▁Ara	-2273
▁Asa	-2274
▁den	-2275
iness	-2276
▁Jehu	-2277
▁Name	-2278
▁bord	-2279
▁hate	-2280
▁surv	-2281
▁alien	-2282
▁exile	-2283
▁perse	-2284
▁Hebron	-2285
▁condem	-2286
▁inside	-2287
▁passed	-2288
▁valley	-2289
▁careful	-2290
▁pleased	-2291
▁stopped	-2292
▁rejected	-2293
▁attention	-2294
▁generations	-2295
▁;	-2296
Look	-2297
▁cup	-2298
▁dry	-2299
▁few	-2300
▁red	-2301
sover	-2302
tyard	-2303
▁Shec	-2304
▁affl	-2305
▁coll	-2306
▁fail	-2307
▁stum	-2308
▁wash	-2309
▁kinds	-2310
▁handed	-2311
▁splend	-2312
▁married	-2313
▁upright	-2314
▁Passover	-2315
▁articles	-2316
▁prepared	-2317
▁continued	-2318
▁courtyard	-2319
ax	-2320
teen	-2321
utes	-2322
▁Mic	-2323
▁ced	-2324
▁fig	-2325
ately	-2326
▁firm	-2327
▁mine	-2328
▁innoc	-2329
▁inter	-2330
▁loves	-2331
▁moved	-2332
▁throw	-2333
▁reward	-2334
▁thrown	-2335
▁burning	-2336
▁service	-2337
▁Amorites	-2338
▁consider	-2339
For	-2340
iath	-2341
▁Mer	-2342
▁obs	-2343
▁loud	-2344
▁news	-2345
▁skin	-2346
rified	-2347
▁signs	-2348
▁Praise	-2349
▁rescue	-2350
▁Eleazar	-2351
▁quickly	-2352
Therefore	-2353
▁captured	-2354
▁established	-2355
amel	-2356
cess	-2357
▁dro	-2358
▁join	-2359
▁maid	-2360
▁Selah	-2361
▁staff	-2362
▁wings	-2363
▁Daniel	-2364
▁preach	-2365
▁splendor	-2366
▁testimony	-2367
ges	-2368
agog	-2369
aith	-2370
serv	-2371
▁sky	-2372
▁stret	-2373
▁waste	-2374
▁healed	-2375
▁greatly	-2376
▁sitting	-2377
▁cherubim	-2378
▁garments	-2379
▁teachers	-2380
▁succeeded	-2381
yre	-2382
oned	-2383
oved	-2384
▁Ash	-2385
▁grew	-2386
▁aside	-2387
▁crown	-2388
▁takes	-2389
▁wound	-2390
▁write	-2391
▁Bethel	-2392
▁fallen	-2393
▁fourth	-2394
▁please	-2395
▁donkeys	-2396
▁prosper	-2397
▁settled	-2398
▁disgrace	-2399
▁dwelling	-2400
▁messengers	-2401
cc	-2402
asp	-2403
elf	-2404
ene	-2405
hab	-2406
run	-2407
ury	-2408
ints	-2409
lace	-2410
▁Mid	-2411
▁eye	-2412
ushed	-2413
▁Give	-2414
▁lamb	-2415
▁Leban	-2416
▁Simon	-2417
▁warri	-2418
lasting	-2419
▁lifted	-2420
▁portion	-2421
▁trumpet	-2422
),	-2423
▁:	-2424
omp	-2425
arly	-2426
ging	-2427
ires	-2428
▁Har	-2429
▁age	-2430
▁ple	-2431
▁sor	-2432
▁tro	-2433
Where	-2434
aliah	-2435
ember	-2436
lease	-2437
▁chan	-2438
▁expl	-2439
▁fill	-2440
▁hide	-2441
▁rams	-2442
▁sick	-2443
▁boast	-2444
▁horse	-2445
▁spear	-2446
▁threw	-2447
▁white	-2448
▁bodies	-2449
▁celebr	-2450
▁making	-2451
▁served	-2452
▁settle	-2453
▁Galilee	-2454
▁defiled	-2455
▁princes	-2456
▁innocent	-2457
▁delivered	-2458
aps	-2459
▁ut	-2460
edge	-2461
yone	-2462
▁che	-2463
▁cru	-2464
▁flo	-2465
▁met	-2466
arted	-2467
lands	-2468
▁beat	-2469
▁exam	-2470
▁heal	-2471
▁sack	-2472
though	-2473
▁Rehob	-2474
▁Where	-2475
▁abund	-2476
▁mourn	-2477
▁devour	-2478
▁matter	-2479
▁perfor	-2480
▁saints	-2481
▁scroll	-2482
▁strike	-2483
▁terror	-2484
▁Lebanon	-2485
▁prepare	-2486
▁seventy	-2487
▁everlasting	-2488
add	-2489
▁pu	-2490
then	-2491
▁bad	-2492
ander	-2493
ilate	-2494
nagog	-2495
▁girl	-2496
▁plan	-2497
▁vict	-2498
▁bowed	-2499
▁tenth	-2500
▁Midian	-2501
▁deceit	-2502
▁prayed	-2503
▁troops	-2504
▁vision	-2505
▁sacrificed	-2506
ari	-2507
lah	-2508
empt	-2509
ouds	-2510
ained	-2511
cript	-2512
icted	-2513
▁sand	-2514
▁conce	-2515
▁works	-2516
aithful	-2517
▁happen	-2518
▁reason	-2519
▁slaves	-2520
▁Whoever	-2521
▁counted	-2522
▁synagog	-2523
▁kindness	-2524
▁Philistine	-2525
ms	-2526
na	-2527
wh	-2528
ased	-2529
bled	-2530
oted	-2531
▁Job	-2532
▁rod	-2533
▁ends	-2534
▁neck	-2535
▁deser	-2536
▁eaten	-2537
▁forgi	-2538
▁horns	-2539
▁means	-2540
▁pride	-2541
▁trave	-2542
▁widow	-2543
▁clouds	-2544
▁satisf	-2545
▁Shechem	-2546
▁promise	-2547
▁believed	-2548
▁bringing	-2549
▁fighting	-2550
▁beautiful	-2551
▁including	-2552
ek	-2553
ada	-2554
nah	-2555
par	-2556
▁En	-2557
adab	-2558
aint	-2559
heth	-2560
oram	-2561
rest	-2562
▁Zede	-2563
▁coun	-2564
▁fish	-2565
▁wond	-2566
▁Abram	-2567
▁Arame	-2568
▁escape	-2569
▁chariot	-2570
▁forgive	-2571
▁fulfill	-2572
▁remnant	-2573
▁removed	-2574
▁Zedekiah	-2575
▁blessing	-2576
▁property	-2577
▁summoned	-2578
▁worshiped	-2579
atch	-2580
reed	-2581
rows	-2582
yond	-2583
▁Are	-2584
▁Per	-2585
▁dem	-2586
▁eag	-2587
▁mil	-2588
▁win	-2589
otted	-2590
▁Levi	-2591
▁corn	-2592
▁deal	-2593
▁dise	-2594
▁drun	-2595
▁lack	-2596
▁Again	-2597
▁bulls	-2598
▁forth	-2599
▁grant	-2600
▁grass	-2601
▁honey	-2602
▁river	-2603
▁swear	-2604
▁Though	-2605
▁exalted	-2606
▁looking	-2607
▁respons	-2608
▁streets	-2609
▁willing	-2610
▁following	-2611
▁unfaithful	-2612
der	-2613
irg	-2614
joy	-2615
ket	-2616
Lord	-2617
▁Dam	-2618
▁Mak	-2619
▁cam	-2620
▁dif	-2621
▁try	-2622
ility	-2623
ution	-2624
▁Each	-2625
▁Gate	-2626
▁apart	-2627
▁later	-2628
▁store	-2629
▁Balaam	-2630
▁border	-2631
▁breath	-2632
▁adulter	-2633
▁continue	-2634
▁minister	-2635
▁remained	-2636
▁fortified	-2637
asc	-2638
dle	-2639
ety	-2640
kah	-2641
orm	-2642
▁Ke	-2643
▁ol	-2644
icho	-2645
▁Nah	-2646
▁pot	-2647
alked	-2648
ulous	-2649
▁Have	-2650
▁Take	-2651
▁bore	-2652
▁gard	-2653
▁hour	-2654
▁rose	-2655
▁sell	-2656
▁ship	-2657
▁yoke	-2658
spring	-2659
▁Feast	-2660
▁inhab	-2661
▁olive	-2662
▁Pilate	-2663
▁having	-2664
▁spring	-2665
▁Jericho	-2666
▁curtain	-2667
▁wonders	-2668
▁apostles	-2669
▁revealed	-2670
▁Abimelech	-2671
▁miraculous	-2672
cl	-2673
Don	-2674
elt	-2675
per	-2676
▁em	-2677
▁ur	-2678
akim	-2679
cked	-2680
ient	-2681
orah	-2682
over	-2683
▁Des	-2684
▁Jew	-2685
▁gro	-2686
▁mix	-2687
venge	-2688
▁Hitt	-2689
▁inqu	-2690
▁quar	-2691
▁robe	-2692
▁shut	-2693
▁step	-2694
ourage	-2695
▁faces	-2696
▁slain	-2697
Because	-2698
▁Josiah	-2699
▁altars	-2700
▁beyond	-2701
▁forget	-2702
▁region	-2703
▁meaning	-2704
▁attacked	-2705
▁fortress	-2706
▁kingdoms	-2707
▁slaughter	-2708
See	-2709
ier	-2710
oak	-2711
rah	-2712
aded	-2713
iege	-2714
oked	-2715
▁Mah	-2716
▁Sar	-2717
▁air	-2718
▁bri	-2719
▁ele	-2720
▁lot	-2721
ashan	-2722
usted	-2723
▁Look	-2724
▁Naph	-2725
▁Tyre	-2726
▁jour	-2727
▁cloak	-2728
▁swore	-2729
▁youth	-2730
▁Bashan	-2731
▁accomp	-2732
▁assign	-2733
▁nobles	-2734
▁secret	-2735
▁thirst	-2736
▁walked	-2737
▁endures	-2738
▁journey	-2739
▁Remember	-2740
▁shepherd	-2741
▁fulfilled	-2742
▁offspring	-2743
pah	-2744
two	-2745
ames	-2746
edic	-2747
ascus	-2748
ities	-2749
where	-2750
▁lift	-2751
▁scar	-2752
▁Shime	-2753
▁doors	-2754
▁wrote	-2755
rection	-2756
▁Surely	-2757
▁betray	-2758
▁defect	-2759
▁persec	-2760
▁showed	-2761
▁silent	-2762
▁taught	-2763
▁streams	-2764
▁touched	-2765
▁boundary	-2766
▁forgiven	-2767
▁accordance	-2768
rog	-2769
xes	-2770
ecai	-2771
▁buy	-2772
▁mis	-2773
aving	-2774
▁High	-2775
▁Make	-2776
▁Mary	-2777
▁Mord	-2778
▁case	-2779
▁furn	-2780
▁purp	-2781
▁rejo	-2782
▁seem	-2783
▁shed	-2784
▁stir	-2785
▁Herod	-2786
▁Since	-2787
▁beast	-2788
▁floor	-2789
▁herds	-2790
▁tents	-2791
▁value	-2792
▁weigh	-2793
▁yeast	-2794
ameless	-2795
▁beasts	-2796
▁rebuke	-2797
▁repent	-2798
▁belongs	-2799
▁crossed	-2800
▁divided	-2801
▁refused	-2802
▁Damascus	-2803
▁Mordecai	-2804
▁prophesy	-2805
▁faithfulness	-2806
And	-2807
Here	-2808
know	-2809
▁Haz	-2810
▁dut	-2811
▁sex	-2812
avior	-2813
▁Noah	-2814
▁Zech	-2815
▁heav	-2816
▁host	-2817
acious	-2818
▁Abner	-2819
▁arrog	-2820
▁cedar	-2821
▁dedic	-2822
▁enjoy	-2823
▁ordin	-2824
▁ruins	-2825
▁separ	-2826
▁caught	-2827
▁choose	-2828
▁shield	-2829
▁restore	-2830
▁subject	-2831
▁pleasing	-2832
▁reported	-2833
▁Zechariah	-2834
▁Canaanites	-2835
▁consecrated	-2836
aj	-2837
Yes	-2838
wor	-2839
Tell	-2840
atan	-2841
medi	-2842
ross	-2843
ught	-2844
▁int	-2845
▁mus	-2846
udden	-2847
▁Come	-2848
▁Cush	-2849
▁Ishm	-2850
▁post	-2851
▁torn	-2852
▁womb	-2853
teenth	-2854
▁oppos	-2855
▁poles	-2856
▁shown	-2857
▁desire	-2858
▁eating	-2859
▁events	-2860
▁foolish	-2861
▁weeping	-2862
▁powerful	-2863
▁blameless	-2864
▁presented	-2865
▁punishment	-2866
▁remembered	-2867
▁surrounding	-2868
On	-2869
fts	-2870
uish	-2871
▁Hag	-2872
acing	-2873
▁area	-2874
▁fier	-2875
▁line	-2876
▁prot	-2877
▁fifth	-2878
▁needy	-2879
▁stars	-2880
▁acknow	-2881
▁height	-2882
▁object	-2883
▁sinful	-2884
▁forward	-2885
▁regular	-2886
mediately	-2887
gal	-2888
ger	-2889
non	-2890
nts	-2891
aban	-2892
adok	-2893
fort	-2894
▁Had	-2895
▁pat	-2896
ising	-2897
ounce	-2898
remon	-2899
ually	-2900
▁Inst	-2901
▁fest	-2902
▁mock	-2903
▁Laban	-2904
▁Satan	-2905
▁Zadok	-2906
▁Zebul	-2907
▁quest	-2908
▁repay	-2909
▁confid	-2910
▁rested	-2911
▁search	-2912
▁ceremon	-2913
▁Daughter	-2914
▁wherever	-2915
▁vineyards	-2916
▁Babylonians	-2917
▁?	-2918
May	-2919
alf	-2920
bel	-2921
lly	-2922
min	-2923
ths	-2924
uph	-2925
akes	-2926
amar	-2927
lies	-2928
ners	-2929
tali	-2930
▁Ged	-2931
▁Gil	-2932
▁Miz	-2933
▁Woe	-2934
ajest	-2935
hamed	-2936
ideon	-2937
▁City	-2938
▁jeal	-2939
▁stat	-2940
▁wail	-2941
▁wear	-2942
▁wept	-2943
▁Place	-2944
▁drunk	-2945
▁marry	-2946
▁mixed	-2947
▁raise	-2948
▁Listen	-2949
▁itself	-2950
▁judges	-2951
▁months	-2952
▁rather	-2953
▁wanted	-2954
▁Instead	-2955
▁Ishmael	-2956
▁ashamed	-2957
▁jealous	-2958
▁measure	-2959
▁shouted	-2960
▁slaught	-2961
▁Jehoiada	-2962
▁Rehoboam	-2963
▁defeated	-2964
▁trumpets	-2965
▁practices	-2966
▁suffering	-2967
▁prostitute	-2968
▁strengthen	-2969
Sh	-2970
bus	-2971
een	-2972
iet	-2973
▁Im	-2974
ares	-2975
ters	-2976
▁Kir	-2977
▁Sid	-2978
▁ill	-2979
▁mal	-2980
▁saf	-2981
These	-2982
ating	-2983
ields	-2984
imeon	-2985
lehem	-2986
rings	-2987
▁Many	-2988
▁boat	-2989
▁empt	-2990
▁foes	-2991
▁pain	-2992
▁prof	-2993
▁pron	-2994
▁sees	-2995
▁stop	-2996
▁bride	-2997
▁hears	-2998
▁Gideon	-2999
▁Isaiah	-3000
▁Savior	-3001
▁across	-3002
▁extend	-3003
▁hungry	-3004
▁mouths	-3005
▁seized	-3006
▁stands	-3007
▁Blessed	-3008
▁comfort	-3009
▁hearing	-3010
▁clothing	-3011
▁listened	-3012
▁rebelled	-3013
▁Bethlehem	-3014
▁thousands	-3015
▁slaughtered	-3016
do	-3017
amb	-3018
roud	-3019
▁Jez	-3020
▁nin	-3021
ience	-3022
▁Jude	-3023
▁paid	-3024
▁shad	-3025
▁human	-3026
▁music	-3027
▁Gibeon	-3028
▁breast	-3029
▁courts	-3030
▁forgot	-3031
▁garden	-3032
▁prince	-3033
▁purple	-3034
▁riches	-3035
▁speaks	-3036
▁planted	-3037
▁belonged	-3038
▁increase	-3039
▁divisions	-3040
▁circumcised	-3041
So	-3042
ik	-3043
mit	-3044
alek	-3045
heba	-3046
keep	-3047
room	-3048
rupt	-3049
▁Hor	-3050
▁net	-3051
▁tow	-3052
cious	-3053
cloth	-3054
ghold	-3055
iving	-3056
▁Hear	-3057
▁curs	-3058
▁lang	-3059
▁roof	-3060
▁lands	-3061
▁parts	-3062
▁sides	-3063
▁siege	-3064
▁stron	-3065
▁Simeon	-3066
▁astray	-3067
▁camels	-3068
▁chains	-3069
▁orders	-3070
▁refuse	-3071
▁discipl	-3072
▁provide	-3073
▁Naphtali	-3074
▁baptized	-3075
▁building	-3076
▁declared	-3077
▁distance	-3078
▁governor	-3079
▁instruct	-3080
▁violence	-3081
▁terrified	-3082
▁threshing	-3083
▁stronghold	-3084
Get	-3085
bon	-3086
iram	-3087
▁squ	-3088
ality	-3089
ohath	-3090
rates	-3091
▁Tell	-3092
▁arms	-3093
▁blue	-3094
▁song	-3095
morrow	-3096
▁Sidon	-3097
▁aband	-3098
▁ephod	-3099
▁greet	-3100
▁outer	-3101
▁quiet	-3102
▁rooms	-3103
▁trans	-3104
▁Amalek	-3105
▁Desert	-3106
▁attend	-3107
▁demons	-3108
▁driven	-3109
▁fierce	-3110
▁letter	-3111
▁majest	-3112
▁counsel	-3113
▁desires	-3114
▁instead	-3115
▁learned	-3116
▁scarlet	-3117
▁talents	-3118
▁carrying	-3119
▁glorious	-3120
▁maidserv	-3121
▁tomorrow	-3122
▁sackcloth	-3123
aes	-3124
och	-3125
son	-3126
▁Ai	-3127
come	-3128
reel	-3129
▁Don	-3130
▁Est	-3131
▁Rac	-3132
▁Sod	-3133
▁ago	-3134
▁dou	-3135
▁emb	-3136
▁equ	-3137
▁loc	-3138
▁amaz	-3139
▁milk	-3140
▁writ	-3141
▁Haman	-3142
▁River	-3143
▁armed	-3144
▁flood	-3145
▁heavy	-3146
▁langu	-3147
▁thick	-3148
▁Anyone	-3149
▁Gibeah	-3150
▁Kohath	-3151
▁Nathan	-3152
▁caused	-3153
▁facing	-3154
▁middle	-3155
▁obeyed	-3156
▁report	-3157
▁unless	-3158
▁worthy	-3159
▁Azariah	-3160
▁Jezreel	-3161
▁Zebulun	-3162
▁corrupt	-3163
▁Arameans	-3164
▁measured	-3165
▁mourning	-3166
▁assembled	-3167
▁lampstand	-3168
▁witnesses	-3169
Are	-3170
ico	-3171
lic	-3172
▁Mo	-3173
airs	-3174
ayed	-3175
five	-3176
▁Ken	-3177
▁Not	-3178
▁Tim	-3179
▁fra	-3180
▁rob	-3181
▁Mesh	-3182
▁cent	-3183
▁cust	-3184
▁draw	-3185
▁infl	-3186
▁move	-3187
▁upro	-3188
▁Jesse	-3189
▁Sodom	-3190
▁ephah	-3191
▁image	-3192
▁naked	-3193
▁steps	-3194
▁Esther	-3195
▁Rachel	-3196
▁Script	-3197
▁bought	-3198
▁cleans	-3199
▁dishon	-3200
▁pursue	-3201
▁sexual	-3202
▁sudden	-3203
▁taking	-3204
▁created	-3205
▁garment	-3206
▁talking	-3207
▁touches	-3208
▁adultery	-3209
▁assigned	-3210
▁opposite	-3211
▁preached	-3212
▁precious	-3213
▁thoughts	-3214
▁oppressed	-3215
▁shepherds	-3216
An	-3217
ils	-3218
ogn	-3219
▁Or	-3220
▁hy	-3221
ding	-3222
uted	-3223
will	-3224
▁Has	-3225
▁env	-3226
▁wel	-3227
Bring	-3228
erous	-3229
▁bene	-3230
▁plot	-3231
▁sets	-3232
▁trib	-3233
Listen	-3234
▁claim	-3235
▁overt	-3236
▁wheat	-3237
▁behalf	-3238
▁recogn	-3239
▁remove	-3240
▁surviv	-3241
▁clothed	-3242
▁inhabit	-3243
▁spirits	-3244
▁gracious	-3245
▁straight	-3246
▁warriors	-3247
▁lightning	-3248
af	-3249
oot	-3250
uri	-3251
▁Ez	-3252
Give	-3253
anan	-3254
uses	-3255
▁Sin	-3256
▁kne	-3257
▁rou	-3258
▁tax	-3259
erxes	-3260
irgin	-3261
riage	-3262
▁Caes	-3263
▁Just	-3264
▁band	-3265
▁fing	-3266
▁lost	-3267
▁moon	-3268
▁weap	-3269
cified	-3270
▁Jebus	-3271
▁Shall	-3272
▁chose	-3273
▁deter	-3274
▁finds	-3275
▁fully	-3276
▁merch	-3277
▁proud	-3278
▁scorn	-3279
▁spare	-3280
▁spend	-3281
▁tears	-3282
▁Shimei	-3283
▁arrows	-3284
▁crafts	-3285
▁distri	-3286
▁forest	-3287
▁fought	-3288
▁interp	-3289
▁Benaiah	-3290
▁crushed	-3291
▁flowing	-3292
▁herself	-3293
▁marched	-3294
▁pillars	-3295
▁portico	-3296
▁praised	-3297
▁remains	-3298
▁testify	-3299
▁numerous	-3300
▁ourselves	-3301
▁approached	-3302
▁regulations	-3303
▁responsible	-3304
ani	-3305
app	-3306
end	-3307
ror	-3308
▁Ge	-3309
Have	-3310
arer	-3311
▁pos	-3312
ially	-3313
▁Ahaz	-3314
▁Arab	-3315
▁Does	-3316
▁Gers	-3317
▁oxen	-3318
▁pity	-3319
▁self	-3320
▁tore	-3321
▁Never	-3322
▁empty	-3323
▁keeps	-3324
▁learn	-3325
▁sixth	-3326
▁smoke	-3327
▁tried	-3328
▁withd	-3329
▁Mizpah	-3330
▁burden	-3331
▁determ	-3332
▁locust	-3333
▁pillar	-3334
▁quarre	-3335
▁really	-3336
▁ruined	-3337
▁severe	-3338
▁swords	-3339
▁worked	-3340
▁Ahaziah	-3341
▁forsake	-3342
▁request	-3343
▁tongues	-3344
▁Although	-3345
▁redeemed	-3346
▁afflicted	-3347
▁synagogue	-3348
▁treasures	-3349
).	-3350
St	-3351
lem	-3352
you	-3353
▁Ma	-3354
aleb	-3355
aved	-3356
rank	-3357
▁Ach	-3358
▁Lot	-3359
▁eng	-3360
▁fut	-3361
▁mag	-3362
achar	-3363
▁Also	-3364
▁Matt	-3365
▁Shil	-3366
▁Test	-3367
▁dear	-3368
▁dies	-3369
▁horn	-3370
▁inte	-3371
▁reap	-3372
▁Caleb	-3373
▁Judea	-3374
▁crops	-3375
▁dread	-3376
▁early	-3377
▁lions	-3378
▁pursu	-3379
▁secre	-3380
keepers	-3381
▁basket	-3382
▁festiv	-3383
▁formed	-3384
▁grapes	-3385
▁captive	-3386
▁collect	-3387
▁numbers	-3388
▁purpose	-3389
▁scatter	-3390
▁sending	-3391
▁shields	-3392
▁springs	-3393
▁stumble	-3394
urrection	-3395
▁division	-3396
▁countries	-3397
▁worthless	-3398
▁proclaimed	-3399
▁pasturelands	-3400
'?	-3401
00.	-3402
awn	-3403
int	-3404
rus	-3405
▁Bo	-3406
soci	-3407
wise	-3408
▁Naz	-3409
▁Put	-3410
▁med	-3411
▁occ	-3412
▁vow	-3413
alled	-3414
▁Gath	-3415
▁arom	-3416
▁dawn	-3417
▁mist	-3418
▁James	-3419
▁Joash	-3420
▁drove	-3421
▁falls	-3422
▁force	-3423
▁fragr	-3424
▁posts	-3425
▁rings	-3426
▁teeth	-3427
▁thank	-3428
▁associ	-3429
▁demand	-3430
▁oracle	-3431
▁reject	-3432
▁strang	-3433
▁wonder	-3434
▁Amaziah	-3435
▁Kiriath	-3436
▁protect	-3437
▁rebuilt	-3438
▁success	-3439
▁marriage	-3440
▁weighing	-3441
▁certainly	-3442
▁rebellion	-3443
▁satisfied	-3444
▁rebellious	-3445
God	-3446
alt	-3447
zar	-3448
▁Cy	-3449
cial	-3450
ihon	-3451
▁Iss	-3452
▁hig	-3453
▁Seir	-3454
▁bowl	-3455
▁eats	-3456
▁form	-3457
▁star	-3458
Surely	-3459
idered	-3460
▁Sarah	-3461
▁aroma	-3462
▁bases	-3463
▁least	-3464
▁paths	-3465
▁purif	-3466
▁robes	-3467
▁touch	-3468
▁Before	-3469
▁decree	-3470
▁shekel	-3471
▁thorns	-3472
▁trying	-3473
▁perfect	-3474
▁Issachar	-3475
▁addition	-3476
▁language	-3477
▁province	-3478
▁spreading	-3479
▁survivors	-3480
▁inhabitants	-3481
arn	-3482
ift	-3483
phe	-3484
rol	-3485
laid	-3486
▁Did	-3487
▁Nab	-3488
▁vis	-3489
aches	-3490
ashed	-3491
ement	-3492
ently	-3493
icing	-3494
ursed	-3495
▁Jeph	-3496
▁Once	-3497
▁bird	-3498
▁clay	-3499
▁pull	-3500
eacher	-3501
ounced	-3502
▁Abish	-3503
▁Judas	-3504
▁below	-3505
▁calls	-3506
▁clear	-3507
▁drank	-3508
▁faced	-3509
▁leads	-3510
▁ought	-3511
▁turns	-3512
▁Gilgal	-3513
▁annals	-3514
▁custom	-3515
▁former	-3516
▁guards	-3517
▁secure	-3518
▁shadow	-3519
▁Asherah	-3520
▁dressed	-3521
▁heights	-3522
▁leaving	-3523
▁pleases	-3524
▁produce	-3525
▁victory	-3526
▁arrogant	-3527
▁carefully	-3528
▁celebrate	-3529
▁ceremonially	-3530
▁resurrection	-3531
po	-3532
aal	-3533
gev	-3534
thy	-3535
uct	-3536
vel	-3537
anah	-3538
most	-3539
▁Ith	-3540
▁inj	-3541
▁rav	-3542
owing	-3543
▁Hesh	-3544
▁mult	-3545
▁tast	-3546
liness	-3547
▁Negev	-3548
▁Other	-3549
▁Sinai	-3550
▁added	-3551
▁armor	-3552
▁blasp	-3553
▁calam	-3554
▁consp	-3555
▁fools	-3556
▁piece	-3557
▁plans	-3558
▁swall	-3559
▁depths	-3560
▁nature	-3561
▁anguish	-3562
▁calling	-3563
▁consume	-3564
▁disease	-3565
▁contempt	-3566
▁drinking	-3567
▁forsaken	-3568
▁provided	-3569
▁restored	-3570
▁statutes	-3571
▁Testimony	-3572
▁forgotten	-3573
▁interpret	-3574
▁messenger	-3575
▁fatherless	-3576
▁acknowledge	-3577
amm	-3578
ily	-3579
four	-3580
more	-3581
omed	-3582
rent	-3583
▁Jab	-3584
▁Our	-3585
▁fem	-3586
▁ign	-3587
▁ste	-3588
ivity	-3589
▁Adon	-3590
▁Carm	-3591
▁Pers	-3592
▁cens	-3593
▁drag	-3594
▁lake	-3595
▁roar	-3596
▁soil	-3597
ailing	-3598
ission	-3599
▁hired	-3600
▁owner	-3601
▁plain	-3602
▁utter	-3603
▁Hamath	-3604
▁amazed	-3605
▁concub	-3606
▁either	-3607
▁endure	-3608
▁exiles	-3609
▁humble	-3610
▁sorrow	-3611
▁Heshbon	-3612
▁condemn	-3613
▁declare	-3614
▁encoura	-3615
▁escaped	-3616
▁leading	-3617
▁treated	-3618
▁Shemaiah	-3619
▁covering	-3620
▁whenever	-3621
▁establish	-3622
▁relations	-3623
▁stretched	-3624
▁foundation	-3625
▁foundations	-3626
▁possessions	-3627
Th	-3628
Wh	-3629
fum	-3630
ism	-3631
▁ve	-3632
ahaz	-3633
ards	-3634
ases	-3635
aths	-3636
ists	-3637
kind	-3638
▁Kad	-3639
▁jar	-3640
▁pub	-3641
Every	-3642
gress	-3643
iding	-3644
urity	-3645
▁drew	-3646
▁heap	-3647
▁inde	-3648
▁palm	-3649
▁wave	-3650
overed	-3651
▁cubit	-3652
▁grand	-3653
▁storm	-3654
▁tramp	-3655
▁advice	-3656
▁cursed	-3657
▁feared	-3658
▁female	-3659
▁overth	-3660
uphrates	-3661
▁Gershon	-3662
▁invited	-3663
▁keeping	-3664
▁observe	-3665
▁visions	-3666
▁Egyptian	-3667
▁accompan	-3668
▁creature	-3669
▁despised	-3670
▁miracles	-3671
▁Jehoiakim	-3672
▁uncircumcised	-3673
ih	-3674
Say	-3675
ats	-3676
iph	-3677
ley	-3678
ody	-3679
haps	-3680
reet	-3681
resh	-3682
riah	-3683
ribe	-3684
rive	-3685
▁Men	-3686
▁Say	-3687
▁arg	-3688
▁bra	-3689
▁dew	-3690
▁inf	-3691
▁sim	-3692
adiah	-3693
aphan	-3694
aries	-3695
ullam	-3696
▁More	-3697
▁Such	-3698
▁calf	-3699
▁fact	-3700
▁hail	-3701
▁harp	-3702
▁lose	-3703
atever	-3704
▁Balak	-3705
▁devil	-3706
▁eager	-3707
▁feast	-3708
▁reach	-3709
▁shine	-3710
▁short	-3711
▁wants	-3712
ointing	-3713
▁Philip	-3714
▁barley	-3715
▁consci	-3716
▁forces	-3717
▁leaves	-3718
▁minist	-3719
▁perfum	-3720
▁sought	-3721
▁speech	-3722
▁warned	-3723
▁washed	-3724
▁weight	-3725
▁company	-3726
▁corners	-3727
▁distant	-3728
▁majesty	-3729
▁mankind	-3730
▁praying	-3731
▁rescued	-3732
▁tablets	-3733
▁telling	-3734
▁tremble	-3735
▁walking	-3736
▁Hittites	-3737
▁abundant	-3738
▁heavenly	-3739
▁question	-3740
▁secretar	-3741
▁suddenly	-3742
▁traveled	-3743
▁abandoned	-3744
▁crucified	-3745
▁confidence	-3746
▁prophesied	-3747
by	-3748
Woe	-3749
eed	-3750
kes	-3751
use	-3752
▁ze	-3753
abas	-3754
ilah	-3755
▁Its	-3756
▁amb	-3757
▁gru	-3758
▁ind	-3759
▁Gree	-3760
▁Maac	-3761
▁acts	-3762
▁bare	-3763
▁edge	-3764
▁feed	-3765
▁seal	-3766
▁seas	-3767
▁shar	-3768
▁stub	-3769
▁subd	-3770
▁zeal	-3771
▁Korah	-3772
▁ashes	-3773
▁banqu	-3774
▁bowls	-3775
▁citiz	-3776
▁const	-3777
▁diffe	-3778
▁groan	-3779
▁minds	-3780
▁snare	-3781
▁songs	-3782
▁wages	-3783
▁Abijah	-3784
▁eighth	-3785
▁images	-3786
▁listed	-3787
▁murder	-3788
▁becomes	-3789
▁confess	-3790
▁courage	-3791
▁devoted	-3792
▁gateway	-3793
▁lasting	-3794
▁locusts	-3795
▁records	-3796
▁respect	-3797
▁skilled	-3798
▁writing	-3799
▁churches	-3800
▁belonging	-3801
▁condemned	-3802
▁entrusted	-3803
▁performed	-3804
▁unfailing	-3805
▁foreigners	-3806
▁prostitution	-3807
go	-3808
alm	-3809
con	-3810
▁--	-3811
▁ow	-3812
▁Jed	-3813
▁Ked	-3814
▁lim	-3815
▁tit	-3816
esome	-3817
ining	-3818
nabas	-3819
oment	-3820
ruits	-3821
while	-3822
▁Book	-3823
▁Leah	-3824
▁Naam	-3825
▁Neth	-3826
▁cord	-3827
▁cows	-3828
▁leng	-3829
▁preg	-3830
▁tend	-3831
▁yarn	-3832
cribed	-3833
▁Asaph	-3834
▁Beers	-3835
▁Sheba	-3836
▁Sihon	-3837
▁Three	-3838
▁divor	-3839
▁folly	-3840
▁grief	-3841
▁point	-3842
theless	-3843
▁Samson	-3844
▁choice	-3845
▁direct	-3846
▁double	-3847
▁public	-3848
▁safety	-3849
▁virgin	-3850
▁awesome	-3851
▁charges	-3852
▁despise	-3853
▁examine	-3854
▁inquire	-3855
▁officer	-3856
▁thunder	-3857
▁Barnabas	-3858
▁Everyone	-3859
▁accepted	-3860
▁curtains	-3861
▁pleasure	-3862
▁punished	-3863
▁Beersheba	-3864
▁neighbors	-3865
▁preaching	-3866
▁Amalekites	-3867
▁discipline	-3868
▁gatekeepers	-3869
▁meaningless	-3870
To	-3871
ecr	-3872
adad	-3873
hest	-3874
pent	-3875
whel	-3876
▁Ner	-3877
▁cap	-3878
▁deb	-3879
▁lau	-3880
▁rev	-3881
▁tur	-3882
ances	-3883
cient	-3884
ighed	-3885
rames	-3886
welve	-3887
▁Here	-3888
▁Lamb	-3889
▁Mean	-3890
▁Mich	-3891
▁asks	-3892
▁aven	-3893
▁blaz	-3894
▁bury	-3895
▁cave	-3896
▁grou	-3897
▁heat	-3898
▁memb	-3899
▁pier	-3900
▁reli	-3901
▁vain	-3902
osheth	-3903
▁Ramah	-3904
▁Zerah	-3905
▁aloud	-3906
▁divin	-3907
▁freed	-3908
▁immor	-3909
▁lamps	-3910
▁looks	-3911
▁rises	-3912
▁spent	-3913
▁venge	-3914
▁Shiloh	-3915
▁beauty	-3916
▁course	-3917
▁future	-3918
▁indeed	-3919
▁moment	-3920
▁shaken	-3921
▁widows	-3922
▁However	-3923
▁afflict	-3924
▁humbled	-3925
▁rebuild	-3926
▁slander	-3927
▁special	-3928
▁thirsty	-3929
▁consumed	-3930
▁numbered	-3931
▁overlaid	-3932
▁pregnant	-3933
▁stripped	-3934
▁Jebusites	-3935
▁abundance	-3936
▁secretary	-3937
▁vengeance	-3938
▁Benjamites	-3939
▁consecrate	-3940
▁determined	-3941
▁instruction	-3942
era	-3943
lay	-3944
sol	-3945
▁fr	-3946
abel	-3947
chan	-3948
erah	-3949
ildo	-3950
oday	-3951
omor	-3952
▁Lib	-3953
▁cre	-3954
▁dug	-3955
▁pen	-3956
▁shr	-3957
▁unp	-3958
▁wip	-3959
arius	-3960
bekah	-3961
eland	-3962
enced	-3963
issed	-3964
▁Amen	-3965
▁Nile	-3966
▁Obed	-3967
▁Only	-3968
▁acqu	-3969
▁duty	-3970
▁less	-3971
▁prev	-3972
▁puts	-3973
▁salt	-3974
bearer	-3975
ilkiah	-3976
itions	-3977
▁accus	-3978
▁compl	-3979
▁older	-3980
▁plead	-3981
▁sixty	-3982
▁swept	-3983
▁waist	-3984
ossible	-3985
undered	-3986
▁Arabah	-3987
▁During	-3988
▁amount	-3989
▁arrest	-3990
▁change	-3991
▁curses	-3992
▁defend	-3993
▁defile	-3994
▁desecr	-3995
▁evildo	-3996
▁joined	-3997
▁loaves	-3998
▁pledge	-3999
▁spices	-4000
▁square	-4001
▁wheels	-4002
▁Jehoram	-4003
▁Rebekah	-4004
▁changed	-4005
▁conduct	-4006
▁deceive	-4007
▁honored	-4008
▁parable	-4009
▁prayers	-4010
▁realize	-4011
▁rebuked	-4012
▁require	-4013
▁support	-4014
▁Gedaliah	-4015
▁Whenever	-4016
▁allotted	-4017
▁deserted	-4018
▁fruitful	-4019
▁overwhel	-4020
▁trampled	-4021
▁captivity	-4022
▁increased	-4023
▁prisoners	-4024
▁instructed	-4025
▁sprinkling	-4026
▁prophesying	-4027
▁-	-4028
All	-4029
Spe	-4030
has	-4031
inn	-4032
rep	-4033
▁Na	-4034
Make	-4035
race	-4036
▁Bel	-4037
▁Hez	-4038
▁San	-4039
▁iss	-4040
otham	-4041
▁Kish	-4042
▁Reph	-4043
▁conv	-4044
▁dism	-4045
▁roll	-4046
▁root	-4047
▁safe	-4048
▁scor	-4049
▁shel	-4050
worthy	-4051
▁Great	-4052
▁Greet	-4053
▁Micah	-4054
▁price	-4055
▁rocks	-4056
▁ruled	-4057
▁sweep	-4058
▁sworn	-4059
▁trium	-4060
▁winds	-4061
▁yield	-4062
▁aliens	-4063
▁causes	-4064
▁finger	-4065
▁helped	-4066
▁lament	-4067
▁overfl	-4068
▁perver	-4069
▁treaty	-4070
▁wither	-4071
▁banquet	-4072
▁besides	-4073
▁furnace	-4074
▁singers	-4075
▁sinners	-4076
▁watched	-4077
▁wearing	-4078
▁weighed	-4079
▁younger	-4080
▁approach	-4081
▁festival	-4082
▁greatest	-4083
▁thinking	-4084
▁Meanwhile	-4085
▁conscience	-4086
▁considered	-4087
▁prosperity	-4088
▁Nevertheless	-4089
▁instructions	-4090
iff	-4091
lit	-4092
aily	-4093
ests	-4094
hish	-4095
rers	-4096
shed	-4097
▁Con	-4098
▁Fin	-4099
▁Ind	-4100
▁Nun	-4101
▁gaz	-4102
▁ham	-4103
▁hot	-4104
▁pan	-4105
Speak	-4106
ables	-4107
aking	-4108
areth	-4109
ildew	-4110
zziah	-4111
▁clim	-4112
▁didn	-4113
▁myst	-4114
▁prey	-4115
▁vows	-4116
▁wast	-4117
▁welc	-4118
arents	-4119
athite	-4120
avened	-4121
iathar	-4122
rother	-4123
seless	-4124
urther	-4125
▁backs	-4126
▁cloth	-4127
▁daily	-4128
▁faint	-4129
▁lover	-4130
▁ninth	-4131
▁sends	-4132
▁shake	-4133
▁stick	-4134
▁upper	-4135
hearted	-4136
▁Levite	-4137
▁Maacah	-4138
▁bright	-4139
▁design	-4140
▁feasts	-4141
▁mildew	-4142
▁plants	-4143
▁Hilkiah	-4144
▁Shaphan	-4145
▁ancient	-4146
▁deserve	-4147
▁granted	-4148
▁pursued	-4149
▁respond	-4150
▁running	-4151
▁turning	-4152
▁weapons	-4153
▁workers	-4154
▁Abiathar	-4155
▁blasphem	-4156
▁cleansed	-4157
▁practice	-4158
▁stronger	-4159
▁withdrew	-4160
▁anointing	-4161
▁deceitful	-4162
▁dedicated	-4163
▁pronounce	-4164
▁spiritual	-4165
▁Reubenites	-4166
▁appearance	-4167
▁transgress	-4168
bo	-4169
iod	-4170
ped	-4171
▁De	-4172
▁Ep	-4173
aned	-4174
arch	-4175
gran	-4176
iple	-4177
pter	-4178
▁glo	-4179
▁lep	-4180
▁rub	-4181
▁sow	-4182
▁tot	-4183
Hadad	-4184
enses	-4185
evers	-4186
ifies	-4187
venth	-4188
▁Boaz	-4189
▁Elam	-4190
▁acac	-4191
▁play	-4192
▁pome	-4193
fruits	-4194
▁Amnon	-4195
▁Jonah	-4196
▁Tamar	-4197
▁acted	-4198
▁contr	-4199
▁grumb	-4200
▁hated	-4201
▁homes	-4202
▁insul	-4203
▁march	-4204
▁obser	-4205
▁weary	-4206
▁Carmel	-4207
▁Jotham	-4208
▁Persia	-4209
▁Twelve	-4210
▁barren	-4211
▁frames	-4212
▁intend	-4213
▁period	-4214
▁releas	-4215
▁rivers	-4216
▁talked	-4217
▁tested	-4218
leavened	-4219
▁Gadites	-4220
▁breastp	-4221
▁decided	-4222
▁letters	-4223
▁parents	-4224
▁perform	-4225
▁deceived	-4226
▁devoured	-4227
▁disciple	-4228
▁horsemen	-4229
▁pomegran	-4230
▁realized	-4231
▁suffered	-4232
▁watching	-4233
▁bloodshed	-4234
▁evildoers	-4235
▁ordinance	-4236
▁firstfruits	-4237
▁settlements	-4238
At	-4239
ns	-4240
ral	-4241
▁Ob	-4242
▁Tr	-4243
▁ed	-4244
From	-4245
Hear	-4246
adan	-4247
asha	-4248
itud	-4249
leep	-4250
omin	-4251
orts	-4252
pper	-4253
reak	-4254
ueen	-4255
▁Esh	-4256
▁Med	-4257
▁Tem	-4258
▁ble	-4259
▁bus	-4260
▁col	-4261
▁sup	-4262
▁tun	-4263
achin	-4264
asing	-4265
night	-4266
otion	-4267
▁bind	-4268
▁cred	-4269
▁diff	-4270
▁gall	-4271
▁hook	-4272
▁legs	-4273
▁pick	-4274
▁trad	-4275
giving	-4276
▁About	-4277
▁Joram	-4278
▁knees	-4279
▁ropes	-4280
▁ships	-4281
▁steal	-4282
▁sweet	-4283
▁visit	-4284
▁waves	-4285
▁Baruch	-4286
▁Kadesh	-4287
▁Ramoth	-4288
▁acacia	-4289
▁corner	-4290
▁hiding	-4291
▁length	-4292
▁native	-4293
▁oppose	-4294
▁result	-4295
▁seated	-4296
▁Finally	-4297
▁Jehoash	-4298
▁healing	-4299
▁patient	-4300
▁sandals	-4301
▁serving	-4302
▁stretch	-4303
▁Hananiah	-4304
▁Moreover	-4305
▁complete	-4306
▁fragrant	-4307
▁released	-4308
▁sprinkle	-4309
▁merchants	-4310
▁Jehoiachin	-4311
▁associates	-4312
▁immediately	-4313
▁maidservant	-4314
di	-4315
oz	-4316
fty	-4317
har	-4318
igs	-4319
iqu	-4320
izz	-4321
omi	-4322
zab	-4323
▁Of	-4324
▁Su	-4325
▁Zo	-4326
Will	-4327
ople	-4328
ripp	-4329
▁Deb	-4330
▁Gaz	-4331
▁New	-4332
▁Pro	-4333
▁aff	-4334
▁fly	-4335
▁fro	-4336
▁rim	-4337
▁sce	-4338
▁won	-4339
▁wra	-4340
aired	-4341
cepts	-4342
ishes	-4343
▁Ezra	-4344
▁Hagg	-4345
▁Hash	-4346
▁Keep	-4347
▁Zeru	-4348
▁mere	-4349
▁obed	-4350
▁rans	-4351
▁scal	-4352
▁sits	-4353
▁sore	-4354
acedon	-4355
hether	-4356
▁bears	-4357
▁black	-4358
▁crush	-4359
▁dried	-4360
▁hates	-4361
▁queen	-4362
▁reply	-4363
▁revel	-4364
▁schem	-4365
▁seize	-4366
▁skill	-4367
▁urged	-4368
Blessed	-4369
▁Baasha	-4370
▁Jewish	-4371
▁asleep	-4372
▁expect	-4373
▁purify	-4374
▁wander	-4375
▁Macedon	-4376
▁circumc	-4377
▁knowing	-4378
▁project	-4379
▁release	-4380
▁scepter	-4381
▁tribute	-4382
▁triumph	-4383
▁trusted	-4384
▁calamity	-4385
▁forehead	-4386
▁overtake	-4387
▁precepts	-4388
▁provoked	-4389
▁shouting	-4390
▁stubborn	-4391
▁different	-4392
▁plundered	-4393
▁companions	-4394
▁countrymen	-4395
▁surrounded	-4396
Ah	-4397
eba	-4398
ium	-4399
ool	-4400
ubb	-4401
unt	-4402
▁Ac	-4403
▁Oh	-4404
▁vo	-4405
body	-4406
cing	-4407
just	-4408
omer	-4409
othy	-4410
pend	-4411
rosy	-4412
▁Hel	-4413
▁Red	-4414
▁Ser	-4415
▁Sil	-4416
▁Sus	-4417
▁Was	-4418
▁ens	-4419
▁jew	-4420
▁mat	-4421
▁ris	-4422
▁var	-4423
ealog	-4424
groom	-4425
ribut	-4426
▁Malk	-4427
▁Rock	-4428
▁Turn	-4429
▁blow	-4430
▁earn	-4431
▁forb	-4432
▁sail	-4433
▁seat	-4434
▁vile	-4435
▁warn	-4436
atters	-4437
repare	-4438
resent	-4439
▁Bring	-4440
▁Early	-4441
▁Maker	-4442
▁admin	-4443
▁alike	-4444
▁aston	-4445
▁bathe	-4446
▁coast	-4447
▁exalt	-4448
▁goods	-4449
▁harsh	-4450
▁murde	-4451
▁plate	-4452
▁relie	-4453
▁unbel	-4454
uthless	-4455
▁Caesar	-4456
▁Hezron	-4457
▁Indeed	-4458
▁Jeshua	-4459
▁Should	-4460
▁asking	-4461
▁carved	-4462
▁cister	-4463
▁common	-4464
▁crowds	-4465
▁dreams	-4466
▁exchan	-4467
▁potter	-4468
▁spared	-4469
▁voices	-4470
▁wounds	-4471
▁Abishai	-4472
▁Micaiah	-4473
▁Shallum	-4474
▁Timothy	-4475
▁Zeruiah	-4476
▁appoint	-4477
▁leprosy	-4478
▁putting	-4479
▁twisted	-4480
▁valleys	-4481
▁waiting	-4482
▁western	-4483
▁genealog	-4484
▁jealousy	-4485
▁Scripture	-4486
▁completed	-4487
▁measuring	-4488
▁sprinkled	-4489
▁attendants	-4490
▁fortresses	-4491
▁Immediately	-4492
▁continually	-4493
gg	-4494
Did	-4495
oah	-4496
zah	-4497
▁Ek	-4498
Amen	-4499
cest	-4500
cher	-4501
hand	-4502
lect	-4503
pocr	-4504
▁Day	-4505
▁Hiv	-4506
▁Hur	-4507
▁Tir	-4508
▁bud	-4509
▁exc	-4510
▁ext	-4511
▁mel	-4512
ering	-4513
hered	-4514
itate	-4515
lives	-4516
ously	-4517
rence	-4518
▁belt	-4519
▁cost	-4520
▁hang	-4521
▁hord	-4522
▁lame	-4523
▁meal	-4524
▁merc	-4525
▁plea	-4526
▁rage	-4527
▁ring	-4528
▁surp	-4529
▁tied	-4530
▁trap	-4531
▁vast	-4532
inehas	-4533
▁Anath	-4534
▁Arnon	-4535
▁Naomi	-4536
▁Nebat	-4537
▁cries	-4538
▁greed	-4539
▁group	-4540
▁harps	-4541
▁iniqu	-4542
▁laugh	-4543
▁needs	-4544
▁tempt	-4545
retched	-4546
rothers	-4547
ubbabel	-4548
▁Darius	-4549
▁advers	-4550
▁ambush	-4551
▁calves	-4552
▁comfor	-4553
▁duties	-4554
▁enters	-4555
▁forbid	-4556
▁judged	-4557
▁lovers	-4558
▁multip	-4559
▁scales	-4560
▁street	-4561
▁Hittite	-4562
▁Shemesh	-4563
▁Through	-4564
▁allowed	-4565
▁breasts	-4566
▁highest	-4567
▁hurried	-4568
▁members	-4569
▁mourned	-4570
▁perfume	-4571
▁seeking	-4572
▁totally	-4573
▁various	-4574
▁warrior	-4575
▁Adonijah	-4576
▁Nazareth	-4577
▁Sabbaths	-4578
▁assemble	-4579
▁creation	-4580
▁directed	-4581
▁district	-4582
▁overcome	-4583
▁required	-4584
▁ruthless	-4585
▁shoulder	-4586
▁Meshullam	-4587
▁wasteland	-4588
▁Zerubbabel	-4589
▁bridegroom	-4590
▁descendant	-4591
▁trustworthy	-4592
▁thanksgiving	-4593
co	-4594
.'"	-4595
ule	-4596
who	-4597
arts	-4598
cass	-4599
emer	-4600
fall	-4601
ical	-4602
rise	-4603
thah	-4604
when	-4605
▁Amm	-4606
▁Mar	-4607
▁fre	-4608
▁myr	-4609
▁pru	-4610
After	-4611
ahath	-4612
ashes	-4613
eturn	-4614
roach	-4615
tenth	-4616
tribe	-4617
▁Abel	-4618
▁Adam	-4619
▁Amas	-4620
▁Rede	-4621
▁Sing	-4622
▁enth	-4623
▁exec	-4624
▁fury	-4625
▁gent	-4626
▁heir	-4627
▁kiss	-4628
▁lots	-4629
Cursed	-4630
Please	-4631
achish	-4632
aseiah	-4633
▁Ekron	-4634
▁Hiram	-4635
▁Makir	-4636
▁advis	-4637
▁benef	-4638
▁bloss	-4639
▁citad	-4640
▁drawn	-4641
▁girls	-4642
▁green	-4643
▁happy	-4644
▁hooks	-4645
▁often	-4646
▁shoot	-4647
▁snake	-4648
▁split	-4649
▁thigh	-4650
▁total	-4651
▁woven	-4652
Teacher	-4653
izzites	-4654
onsider	-4655
▁Hazael	-4656
▁Hebrew	-4657
▁adulte	-4658
▁agreed	-4659
▁ancest	-4660
▁anoint	-4661
▁depend	-4662
▁failed	-4663
▁forced	-4664
▁fortun	-4665
▁hypocr	-4666
▁misery	-4667
▁seeing	-4668
▁single	-4669
▁trusts	-4670
▁Johanan	-4671
▁actions	-4672
▁appears	-4673
▁carcass	-4674
▁centuri	-4675
▁commend	-4676
▁concern	-4677
▁decreed	-4678
▁driving	-4679
▁exposed	-4680
▁holding	-4681
▁mystery	-4682
▁shelter	-4683
▁slavery	-4684
▁staying	-4685
▁wailing	-4686
▁wounded	-4687
▁Jephthah	-4688
▁Phinehas	-4689
▁believes	-4690
▁captives	-4691
▁citizens	-4692
▁entering	-4693
▁holiness	-4694
▁ministry	-4695
▁repaired	-4696
▁treasure	-4697
▁troubled	-4698
▁descended	-4699
▁direction	-4700
▁disgraced	-4701
▁followers	-4702
▁rejoicing	-4703
▁shattered	-4704
▁shoulders	-4705
▁fourteenth	-4706
▁recognized	-4707
▁pomegranates	-4708
Ab	-4709
me	-4710
ni	-4711
Yet	-4712
gar	-4713
ias	-4714
ler	-4715
rez	-4716
▁cy	-4717
▁gn	-4718
With	-4719
aged	-4720
iece	-4721
ific	-4722
ikam	-4723
obed	-4724
reth	-4725
▁Ant	-4726
▁Del	-4727
▁Oho	-4728
▁Par	-4729
▁Tob	-4730
▁Zim	-4731
▁tas	-4732
▁ung	-4733
▁vie	-4734
anced	-4735
azzar	-4736
elfth	-4737
erned	-4738
eroth	-4739
immon	-4740
light	-4741
seven	-4742
three	-4743
usion	-4744
▁Gaza	-4745
▁Next	-4746
▁Nine	-4747
▁Tars	-4748
▁Thus	-4749
▁bars	-4750
▁dove	-4751
▁feel	-4752
▁figs	-4753
▁jars	-4754
▁shap	-4755
▁sown	-4756
▁urge	-4757
▁wish	-4758
▁Cyrus	-4759
▁Gomor	-4760
▁Grace	-4761
▁Perez	-4762
▁Shamm	-4763
▁Would	-4764
▁disch	-4765
▁doves	-4766
▁exper	-4767
▁grows	-4768
▁magic	-4769
▁midst	-4770
▁occup	-4771
▁seems	-4772
▁shore	-4773
▁thief	-4774
▁tower	-4775
▁tunic	-4776
▁vines	-4777
emption	-4778
ishings	-4779
▁Jabesh	-4780
▁Naaman	-4781
▁People	-4782
▁begged	-4783
▁breaks	-4784
▁covers	-4785
▁diffic	-4786
▁disapp	-4787
▁eighty	-4788
▁gained	-4789
▁highly	-4790
▁horror	-4791
▁hurled	-4792
▁kissed	-4793
▁picked	-4794
▁sealed	-4795
▁supply	-4796
▁threat	-4797
▁Hivites	-4798
▁Lachish	-4799
▁Nothing	-4800
▁control	-4801
▁disobed	-4802
▁resting	-4803
▁setting	-4804
▁sounded	-4805
▁started	-4806
▁torment	-4807
▁twelfth	-4808
▁violent	-4809
▁Gomorrah	-4810
▁Maaseiah	-4811
▁Whatever	-4812
▁breaking	-4813
▁contrary	-4814
▁fourteen	-4815
▁hardship	-4816
▁official	-4817
▁portions	-4818
▁promises	-4819
▁separate	-4820
▁Macedonia	-4821
▁blessings	-4822
▁conceived	-4823
▁governors	-4824
▁greetings	-4825
▁positions	-4826
▁provinces	-4827
▁trembling	-4828
▁wonderful	-4829
▁Perizzites	-4830
▁astonished	-4831
▁distressed	-4832
▁everywhere	-4833
▁immorality	-4834
▁prescribed	-4835
▁redemption	-4836
▁synagogues	-4837
▁accompanied	-4838
▁breastpiece	-4839
▁furnishings	-4840
▁ministering	-4841
bb	-4842
▁,	-4843
His	-4844
azi	-4845
hah	-4846
ius	-4847
lig	-4848
new	-4849
six	-4850
tem	-4851
uce	-4852
veh	-4853
▁Ly	-4854
▁Og	-4855
Send	-4856
each	-4857
ilig	-4858
nown	-4859
orge	-4860
rach	-4861
riel	-4862
they	-4863
work	-4864
▁Mag	-4865
▁Oph	-4866
▁Sen	-4867
▁Yes	-4868
▁abh	-4869
▁eas	-4870
▁eff	-4871
▁hin	-4872
▁oak	-4873
▁owl	-4874
▁sco	-4875
ample	-4876
grity	-4877
itude	-4878
omach	-4879
ortal	-4880
stone	-4881
which	-4882
zebel	-4883
▁Hore	-4884
▁Hush	-4885
▁Jesh	-4886
▁Susa	-4887
▁base	-4888
▁dish	-4889
▁dogs	-4890
▁herd	-4891
▁loss	-4892
▁murd	-4893
▁sang	-4894
▁seer	-4895
▁snow	-4896
▁stag	-4897
▁sust	-4898
▁worn	-4899
asters	-4900
▁Ephes	-4901
▁Horon	-4902
▁conqu	-4903
▁demol	-4904
▁eagle	-4905
▁guide	-4906
▁holds	-4907
▁moves	-4908
▁noble	-4909
▁persu	-4910
▁ridic	-4911
▁sharp	-4912
because	-4913
▁Ahijah	-4914
▁Rimmon	-4915
▁chiefs	-4916
▁divide	-4917
▁drinks	-4918
▁encamp	-4919
▁finely	-4920
▁firmly	-4921
▁honest	-4922
▁hunger	-4923
▁simple	-4924
▁superv	-4925
together	-4926
▁Jezebel	-4927
▁Perhaps	-4928
▁accompl	-4929
▁beneath	-4930
▁blazing	-4931
▁captain	-4932
▁freedom	-4933
▁grieved	-4934
▁inflict	-4935
▁planned	-4936
▁repairs	-4937
▁stirred	-4938
▁stomach	-4939
▁Jehoahaz	-4940
▁appalled	-4941
▁betrayed	-4942
▁freewill	-4943
▁merciful	-4944
▁mistreat	-4945
▁preserve	-4946
▁purified	-4947
▁pursuing	-4948
▁recorded	-4949
▁relative	-4950
▁searched	-4951
▁severely	-4952
▁sleeping	-4953
▁troubles	-4954
▁youngest	-4955
▁centurion	-4956
▁encourage	-4957
▁integrity	-4958
▁justified	-4959
▁swallowed	-4960
ua	-4961
'?"	-4962
Jes	-4963
Men	-4964
Sir	-4965
aaz	-4966
ane	-4967
cil	-4968
dod	-4969
ipp	-4970
isc	-4971
set	-4972
Edom	-4973
That	-4974
alon	-4975
enai	-4976
ench	-4977
form	-4978
ills	-4979
ioch	-4980
rate	-4981
rite	-4982
▁Any	-4983
▁Ath	-4984
▁Elk	-4985
▁Rec	-4986
▁Sis	-4987
▁kid	-4988
▁mad	-4989
▁mud	-4990
▁nur	-4991
▁pet	-4992
▁sli	-4993
▁van	-4994
aming	-4995
eenth	-4996
ophel	-4997
roned	-4998
stood	-4999
unuch	-5000
uries	-5001
▁Amon	-5002
▁Cain	-5003
▁Joel	-5004
▁Ruth	-5005
▁arou	-5006
▁bent	-5007
▁bold	-5008
▁envy	-5009
▁faul	-5010
▁flog	-5011
▁lust	-5012
▁view	-5013
▁wand	-5014
▁wool	-5015
Anyone	-5016
Praise	-5017
epress	-5018
ubilee	-5019
▁Haran	-5020
▁Nadab	-5021
▁Silas	-5022
▁borne	-5023
▁coals	-5024
▁grown	-5025
▁kills	-5026
▁lower	-5027
▁memor	-5028
▁roots	-5029
▁skies	-5030
▁slept	-5031
▁straw	-5032
▁ungod	-5033
▁worse	-5034
▁Ashdod	-5035
▁Merari	-5036
▁Sisera	-5037
▁freely	-5038
▁golden	-5039
▁hordes	-5040
▁infect	-5041
▁malice	-5042
▁plenty	-5043
▁ransom	-5044
▁shouts	-5045
▁spears	-5046
▁submit	-5047
▁uphold	-5048
▁Antioch	-5049
▁Ithamar	-5050
▁Nineveh	-5051
▁Obadiah	-5052
▁apostle	-5053
▁blossom	-5054
▁explain	-5055
▁fasting	-5056
▁insults	-5057
▁killing	-5058
▁serpent	-5059
▁trample	-5060
▁village	-5061
▁Ammonite	-5062
▁delights	-5063
▁gladness	-5064
▁hundreds	-5065
▁inquired	-5066
▁interest	-5067
▁overflow	-5068
▁position	-5069
▁prisoner	-5070
▁receives	-5071
▁reproach	-5072
▁believers	-5073
▁concerned	-5074
▁concubine	-5075
▁craftsmen	-5076
▁discharge	-5077
▁winepress	-5078
▁Scriptures	-5079
▁affliction	-5080
▁infectious	-5081
▁repentance	-5082
▁maidservants	-5083
pl	-5084
uz	-5085
vo	-5086
Put	-5087
aly	-5088
how	-5089
mar	-5090
neh	-5091
ung	-5092
ails	-5093
amed	-5094
area	-5095
hazi	-5096
icri	-5097
ieve	-5098
oman	-5099
stri	-5100
void	-5101
▁Bil	-5102
▁Jok	-5103
▁Zib	-5104
▁due	-5105
▁und	-5106
bling	-5107
break	-5108
earim	-5109
oking	-5110
verty	-5111
▁Ahim	-5112
▁Eden	-5113
▁Jair	-5114
▁Rabb	-5115
▁crim	-5116
▁dang	-5117
▁deny	-5118
▁hoof	-5119
▁mark	-5120
▁nest	-5121
▁ours	-5122
▁pole	-5123
▁sist	-5124
▁slow	-5125
▁spot	-5126
▁tall	-5127
▁wing	-5128
astern	-5129
rolled	-5130
ushing	-5131
▁Among	-5132
▁Eliab	-5133
▁Nabal	-5134
▁abhor	-5135
▁burns	-5136
▁burst	-5137
▁footh	-5138
▁fresh	-5139
▁maint	-5140
▁manna	-5141
▁mater	-5142
▁noise	-5143
▁rules	-5144
▁saves	-5145
▁swarm	-5146
▁swift	-5147
▁tombs	-5148
▁twice	-5149
▁Ahikam	-5150
▁Gehazi	-5151
▁Jearim	-5152
▁Naboth	-5153
▁branch	-5154
▁center	-5155
▁clothe	-5156
▁crying	-5157
▁eunuch	-5158
▁guests	-5159
▁import	-5160
▁nights	-5161
▁plains	-5162
▁pulled	-5163
▁relief	-5164
▁revere	-5165
▁season	-5166
▁sinner	-5167
▁unjust	-5168
ithophel	-5169
▁Elkanah	-5170
▁Neither	-5171
▁baptism	-5172
▁cistern	-5173
▁citadel	-5174
▁commits	-5175
▁compare	-5176
▁consult	-5177
▁earthqu	-5178
▁eastern	-5179
▁marries	-5180
▁passing	-5181
▁poverty	-5182
▁schemes	-5183
▁section	-5184
▁singing	-5185
▁sinning	-5186
▁warning	-5187
▁wrapped	-5188
▁Anathoth	-5189
▁advisers	-5190
▁bitterly	-5191
▁eleventh	-5192
▁facedown	-5193
▁goodness	-5194
▁murderer	-5195
▁pleasant	-5196
▁prophecy	-5197
▁security	-5198
▁Euphrates	-5199
▁Nethaniah	-5200
▁Otherwise	-5201
▁contribut	-5202
▁craftsman	-5203
▁enthroned	-5204
▁foothills	-5205
▁foreigner	-5206
▁threshold	-5207
▁destroying	-5208
▁encouraged	-5209
▁oppression	-5210
▁pronounced	-5211
▁treasuries	-5212
▁wholehearted	-5213
Am	-5214
kk	-5215
oa	-5216
rh	-5217
Can	-5218
cah	-5219
iam	-5220
mah	-5221
rin	-5222
top	-5223
cont	-5224
held	-5225
istr	-5226
lude	-5227
obah	-5228
post	-5229
rain	-5230
▁Ber	-5231
▁Eth	-5232
▁Get	-5233
▁Mes	-5234
▁Nor	-5235
▁ach	-5236
▁bag	-5237
▁cop	-5238
▁pow	-5239
0,000	-5240
Shall	-5241
Today	-5242
atiah	-5243
ccoth	-5244
edged	-5245
izing	-5246
ollow	-5247
ories	-5248
rible	-5249
▁Asia	-5250
▁Love	-5251
▁Meph	-5252
▁Zeph	-5253
▁bows	-5254
▁lend	-5255
▁mill	-5256
▁perm	-5257
▁pots	-5258
▁slay	-5259
adezer	-5260
hedrin	-5261
necked	-5262
tenths	-5263
▁Hazor	-5264
▁Merar	-5265
▁Nahor	-5266
▁Oholi	-5267
▁Teman	-5268
▁allow	-5269
▁arise	-5270
▁besie	-5271
▁blast	-5272
▁block	-5273
▁breat	-5274
▁capit	-5275
▁crime	-5276
▁imper	-5277
▁lofty	-5278
▁oblig	-5279
▁outst	-5280
▁overp	-5281
▁press	-5282
▁renew	-5283
▁shade	-5284
▁stiff	-5285
▁tread	-5286
▁trial	-5287
▁unpun	-5288
Whoever	-5289
▁Achish	-5290
▁Asahel	-5291
▁Better	-5292
▁Shelah	-5293
▁cedars	-5294
▁devast	-5295
▁disown	-5296
▁finest	-5297
▁fright	-5298
▁health	-5299
▁insult	-5300
▁issued	-5301
▁market	-5302
▁mortal	-5303
▁opport	-5304
▁remind	-5305
▁rising	-5306
▁sailed	-5307
▁stoned	-5308
▁stored	-5309
▁summer	-5310
▁theirs	-5311
▁towers	-5312
▁Seraiah	-5313
▁Succoth	-5314
▁advance	-5315
▁capture	-5316
▁cleanse	-5317
▁earnest	-5318
▁example	-5319
▁praises	-5320
▁sisters	-5321
▁station	-5322
▁subdued	-5323
▁working	-5324
▁Caesarea	-5325
▁constant	-5326
▁diseases	-5327
▁fastened	-5328
▁fortunes	-5329
▁hardened	-5330
▁memorial	-5331
▁parables	-5332
▁possible	-5333
▁regarded	-5334
▁stranger	-5335
▁treasury	-5336
▁welcomed	-5337
▁withered	-5338
entionally	-5339
▁Afterward	-5340
▁Canaanite	-5341
▁Hadadezer	-5342
▁Sanhedrin	-5343
▁confusion	-5344
▁conspired	-5345
▁important	-5346
▁separated	-5347
▁bitterness	-5348
▁discerning	-5349
▁provisions	-5350
▁understood	-5351
▁unpunished	-5352
▁worshiping	-5353
▁deliverance	-5354
▁proclaiming	-5355
▁prostitutes	-5356
▁strongholds	-5357
▁circumcision	-5358
▁outstretched	-5359
▁requirements	-5360
gu	-5361
ha	-5362
sm	-5363
Man	-5364
ama	-5365
lag	-5366
raw	-5367
tle	-5368
uah	-5369
val	-5370
▁Iz	-5371
▁Pr	-5372
Baal	-5373
anel	-5374
ezer	-5375
gard	-5376
iant	-5377
kins	-5378
lier	-5379
neys	-5380
rews	-5381
rial	-5382
rown	-5383
unah	-5384
▁Ger	-5385
▁Hos	-5386
▁pag	-5387
▁tau	-5388
▁tum	-5389
▁vig	-5390
▁wed	-5391
Jesus	-5392
ading	-5393
error	-5394
etime	-5395
rones	-5396
thern	-5397
zziel	-5398
▁Both	-5399
▁Mish	-5400
▁Send	-5401
▁Shob	-5402
▁deaf	-5403
▁gets	-5404
▁hall	-5405
▁jack	-5406
▁miss	-5407
▁pine	-5408
▁pool	-5409
▁warm	-5410
ancing	-5411
azarus	-5412
handed	-5413
▁Amasa	-5414
▁Baals	-5415
▁Hadad	-5416
▁Pekah	-5417
▁Sheph	-5418
▁Zimri	-5419
▁arrow	-5420
▁beams	-5421
▁brave	-5422
▁cakes	-5423
▁catch	-5424
▁chaff	-5425
▁chest	-5426
▁decor	-5427
▁embro	-5428
▁equal	-5429
▁hides	-5430
▁ignor	-5431
▁myrrh	-5432
▁prove	-5433
▁rebel	-5434
▁scoff	-5435
▁shave	-5436
▁shook	-5437
▁stead	-5438
▁surre	-5439
▁unint	-5440
ominion	-5441
ounding	-5442
▁Greeks	-5443
▁Hashab	-5444
▁Keilah	-5445
▁Michal	-5446
▁Prophe	-5447
▁Tirzah	-5448
▁accuse	-5449
▁ascend	-5450
▁beaten	-5451
▁burial	-5452
▁closed	-5453
▁decept	-5454
▁distur	-5455
▁finish	-5456
▁footst	-5457
▁gentle	-5458
▁proved	-5459
▁prover	-5460
▁reigns	-5461
▁repair	-5462
▁rights	-5463
▁safely	-5464
▁tables	-5465
▁tribal	-5466
▁Ephesus	-5467
▁Hebrews	-5468
▁Jubilee	-5469
▁accused	-5470
▁bearing	-5471
▁clearly	-5472
▁closely	-5473
▁cursing	-5474
▁dispute	-5475
▁divorce	-5476
▁fifteen	-5477
▁further	-5478
▁gathers	-5479
▁godless	-5480
▁kidneys	-5481
▁mothers	-5482
▁mounted	-5483
▁opening	-5484
▁parched	-5485
▁pressed	-5486
▁reaches	-5487
▁ungodly	-5488
▁wedding	-5489
▁Tarshish	-5490
▁advanced	-5491
▁demanded	-5492
▁dismayed	-5493
▁material	-5494
▁murdered	-5495
▁northern	-5496
▁offenses	-5497
▁petition	-5498
▁rejoices	-5499
▁supplies	-5500
▁Ahimelech	-5501
▁administr	-5502
▁dishonest	-5503
▁fifteenth	-5504
▁judgments	-5505
▁listening	-5506
▁persecute	-5507
▁questions	-5508
▁strangers	-5509
▁faithfully	-5510
▁persecuted	-5511
▁uncleanness	-5512
ti	-5513
▁.	-5514
Our	-5515
ads	-5516
bor	-5517
hur	-5518
ili	-5519
mri	-5520
nam	-5521
omm	-5522
oph	-5523
upp	-5524
▁Id	-5525
▁TH	-5526
▁Ze	-5527
Even	-5528
ahab	-5529
alel	-5530
esth	-5531
inth	-5532
itus	-5533
mers	-5534
obey	-5535
roer	-5536
▁Dib	-5537
▁Sal	-5538
▁Tab	-5539
▁Tah	-5540
▁Two	-5541
▁cou	-5542
▁lar	-5543
aioth	-5544
ented	-5545
every	-5546
iders	-5547
igail	-5548
indic	-5549
joice	-5550
mered	-5551
tered	-5552
those	-5553
zabad	-5554
▁Anak	-5555
▁Bere	-5556
▁Dear	-5557
▁Elah	-5558
▁Omri	-5559
▁Pele	-5560
▁Shim	-5561
▁Ziba	-5562
▁baby	-5563
▁crop	-5564
▁cymb	-5565
▁fatt	-5566
▁fert	-5567
▁furi	-5568
▁pair	-5569
▁pigs	-5570
▁pred	-5571
▁prud	-5572
▁rear	-5573
▁repe	-5574
▁tamb	-5575
▁toil	-5576
▁trim	-5577
earing	-5578
formed	-5579
ortion	-5580
urance	-5581
▁Aroer	-5582
▁Bread	-5583
▁Horeb	-5584
▁Later	-5585
▁Recab	-5586
▁Trans	-5587
▁adorn	-5588
▁allot	-5589
▁avoid	-5590
▁awake	-5591
▁bands	-5592
▁cease	-5593
▁cords	-5594
▁cruel	-5595
▁edict	-5596
▁engra	-5597
▁exact	-5598
▁fails	-5599
▁fault	-5600
▁grasp	-5601
▁jewel	-5602
▁liken	-5603
▁ornam	-5604
▁recon	-5605
▁roads	-5606
▁spies	-5607
▁sprou	-5608
▁strip	-5609
▁tells	-5610
▁wines	-5611
esthood	-5612
possess	-5613
▁Libnah	-5614
▁appeal	-5615
▁census	-5616
▁danger	-5617
▁denied	-5618
▁depart	-5619
▁discus	-5620
▁grieve	-5621
▁idolat	-5622
▁seemed	-5623
▁shrine	-5624
▁storeh	-5625
▁tender	-5626
▁Abigail	-5627
▁Aramean	-5628
▁Araunah	-5629
▁Cushite	-5630
▁Eliakim	-5631
▁anymore	-5632
▁climbed	-5633
▁defense	-5634
▁disobey	-5635
▁earlier	-5636
▁glorify	-5637
▁happens	-5638
▁insight	-5639
▁jackals	-5640
▁leather	-5641
▁listens	-5642
▁plotted	-5643
▁ravines	-5644
▁satisfy	-5645
▁tambour	-5646
▁useless	-5647
▁utterly	-5648
Euphrates	-5649
nleavened	-5650
▁Athaliah	-5651
▁Moabites	-5652
▁Redeemer	-5653
▁boasting	-5654
▁business	-5655
▁daylight	-5656
▁discoura	-5657
▁dominion	-5658
▁flourish	-5659
▁husbands	-5660
▁included	-5661
▁lifetime	-5662
▁patience	-5663
▁perverse	-5664
▁uprooted	-5665
▁afterward	-5666
▁arrogance	-5667
▁comforted	-5668
▁glorified	-5669
▁nakedness	-5670
▁obedience	-5671
▁responsib	-5672
▁testifies	-5673
▁Ahithophel	-5674
▁Midianites	-5675
▁acceptable	-5676
▁celebrated	-5677
▁concubines	-5678
▁desecrated	-5679
▁earthquake	-5680
▁priesthood	-5681
▁projecting	-5682
▁opportunity	-5683
▁overwhelmed	-5684
▁commandments	-5685
▁strengthened	-5686
▁unintentionally	-5687
"?	-5688
Al	-5689
By	-5690
Pe	-5691
Not	-5692
She	-5693
aum	-5694
cel	-5695
cks	-5696
don	-5697
eks	-5698
lee	-5699
tha	-5700
▁Aw	-5701
▁Bl	-5702
▁Gl	-5703
cify	-5704
elon	-5705
even	-5706
foot	-5707
ifer	-5708
itub	-5709
like	-5710
mory	-5711
nine	-5712
pens	-5713
rect	-5714
ruct	-5715
ugit	-5716
uing	-5717
ural	-5718
uzar	-5719
▁Bes	-5720
▁Cap	-5721
▁Out	-5722
▁Rez	-5723
▁Tek	-5724
▁awe	-5725
▁big	-5726
▁fit	-5727
▁smo	-5728
▁uns	-5729
ashib	-5730
inced	-5731
itary	-5732
pping	-5733
unneh	-5734
▁Eber	-5735
▁Moon	-5736
▁Senn	-5737
▁Sheb	-5738
▁afar	-5739
▁agre	-5740
▁bond	-5741
▁fame	-5742
▁kins	-5743
▁mold	-5744
▁noon	-5745
▁task	-5746
▁veil	-5747
▁whir	-5748
altiel	-5749
ashing	-5750
ernaum	-5751
icious	-5752
inated	-5753
lected	-5754
stones	-5755
strils	-5756
▁Ammin	-5757
▁Amram	-5758
▁Barak	-5759
▁Heman	-5760
▁Meshe	-5761
▁Right	-5762
▁arran	-5763
▁aware	-5764
▁blows	-5765
▁bribe	-5766
▁cripp	-5767
▁ended	-5768
▁fears	-5769
▁fiery	-5770
▁flame	-5771
▁fugit	-5772
▁lacks	-5773
▁overc	-5774
▁purge	-5775
▁quant	-5776
▁risen	-5777
▁shows	-5778
▁speck	-5779
▁taste	-5780
▁using	-5781
▁worry	-5782
acherib	-5783
fection	-5784
itution	-5785
▁Jehiel	-5786
▁Mighty	-5787
▁Molech	-5788
▁Please	-5789
▁armies	-5790
▁avenge	-5791
▁briers	-5792
▁deadly	-5793
▁decide	-5794
▁eleven	-5795
▁flames	-5796
▁gazell	-5797
▁heifer	-5798
▁higher	-5799
▁humili	-5800
▁impure	-5801
▁joyful	-5802
▁memory	-5803
▁mocked	-5804
▁needed	-5805
▁paraly	-5806
▁rubble	-5807
▁shaved	-5808
▁stream	-5809
▁thrust	-5810
▁tithes	-5811
▁waited	-5812
▁window	-5813
▁winter	-5814
ibosheth	-5815
servants	-5816
uzaradan	-5817
▁Lazarus	-5818
▁Teacher	-5819
▁benefit	-5820
▁confirm	-5821
▁cymbals	-5822
▁exclaim	-5823
▁falsely	-5824
▁fertile	-5825
▁follows	-5826
▁injured	-5827
▁masters	-5828
▁mention	-5829
▁network	-5830
▁partial	-5831
▁pierced	-5832
▁plagues	-5833
▁silence	-5834
▁sixteen	-5835
▁strikes	-5836
▁survive	-5837
▁tenants	-5838
▁thrones	-5839
▁washing	-5840
▁watches	-5841
possessed	-5842
▁Eliashib	-5843
▁Elishama	-5844
▁Malkijah	-5845
▁banished	-5846
▁credited	-5847
▁crossing	-5848
▁dishonor	-5849
▁downfall	-5850
▁extended	-5851
▁fattened	-5852
▁hammered	-5853
▁impurity	-5854
▁maintain	-5855
▁military	-5856
▁mustered	-5857
▁nostrils	-5858
▁praising	-5859
▁produced	-5860
▁produces	-5861
▁rejoiced	-5862
▁secretly	-5863
▁standard	-5864
▁trembled	-5865
▁Amminadab	-5866
▁Capernaum	-5867
▁Jephunneh	-5868
▁Kohathite	-5869
▁Mattaniah	-5870
▁acknowled	-5871
▁childless	-5872
▁cleansing	-5873
▁difficult	-5874
▁greatness	-5875
▁inflicted	-5876
▁inhabited	-5877
▁recognize	-5878
▁stationed	-5879
▁Altogether	-5880
▁collectors	-5881
▁correction	-5882
▁divination	-5883
▁revelation	-5884
▁Nebuzaradan	-5885
▁Sennacherib	-5886
▁instruments	-5887
▁menservants	-5888
▁wholeheartedly	-5889
";	-5890
ae	-5891
no	-5892
rs	-5893
wd	-5894
aic	-5895
dal	-5896
ded	-5897
tax	-5898
▁La	-5899
▁Sy	-5900
▁ly	-5901
▁pi	-5902
Call	-5903
ably	-5904
ange	-5905
hesh	-5906
king	-5907
olen	-5908
peci	-5909
phaz	-5910
raps	-5911
rath	-5912
wind	-5913
▁Abi	-5914
▁Ask	-5915
▁Gos	-5916
▁Hod	-5917
▁Inc	-5918
▁Jah	-5919
▁Jet	-5920
▁THE	-5921
▁Zik	-5922
▁fil	-5923
▁neg	-5924
▁row	-5925
Since	-5926
armed	-5927
arrow	-5928
clean	-5929
iance	-5930
ident	-5931
smith	-5932
ulfur	-5933
▁Abin	-5934
▁Bela	-5935
▁Dest	-5936
▁Fest	-5937
▁Geba	-5938
▁Gesh	-5939
▁None	-5940
▁Peor	-5941
▁Stay	-5942
▁cart	-5943
▁cold	-5944
▁colt	-5945
▁debt	-5946
▁exha	-5947
▁fair	-5948
▁jail	-5949
▁lewd	-5950
▁loot	-5951
▁plow	-5952
▁priv	-5953
▁scri	-5954
▁size	-5955
▁slug	-5956
▁spit	-5957
▁tail	-5958
▁whis	-5959
Father	-5960
Should	-5961
Though	-5962
idence	-5963
ienced	-5964
velous	-5965
▁Artax	-5966
▁First	-5967
▁Hagar	-5968
▁Leave	-5969
▁Sarai	-5970
▁South	-5971
▁Teach	-5972
▁agree	-5973
▁argum	-5974
▁basis	-5975
▁delay	-5976
▁dilig	-5977
▁dying	-5978
▁explo	-5979
▁flies	-5980
▁flute	-5981
▁glean	-5982
▁level	-5983
▁lyres	-5984
▁meant	-5985
▁pains	-5986
▁pours	-5987
▁spite	-5988
▁stray	-5989
▁tithe	-5990
▁vigor	-5991
▁walks	-5992
▁wiped	-5993
ountain	-5994
▁Ahitub	-5995
▁Goshen	-5996
▁Hermon	-5997
▁Olives	-5998
▁Others	-5999
▁Rabbah	-6000
▁Rather	-6001
▁Tobiah	-6002
▁Ziklag	-6003
▁almost	-6004
▁dishes	-6005
▁disple	-6006
▁effort	-6007
▁fasted	-6008
▁flight	-6009
▁haught	-6010
▁island	-6011
▁larger	-6012
▁nearby	-6013
▁ninety	-6014
▁notice	-6015
▁poison	-6016
▁profit	-6017
▁renown	-6018
▁restra	-6019
▁riding	-6020
▁robbed	-6021
▁rolled	-6022
▁rushed	-6023
▁sleeps	-6024
▁smooth	-6025
▁starry	-6026
▁stolen	-6027
▁sulfur	-6028
▁swears	-6029
▁turban	-6030
▁uproar	-6031
▁weapon	-6032
attering	-6033
pecially	-6034
▁Ahimaaz	-6035
▁Amariah	-6036
▁Eliezer	-6037
▁Michael	-6038
▁Prepare	-6039
▁accepts	-6040
▁achieve	-6041
▁aroused	-6042
▁contain	-6043
▁despair	-6044
▁display	-6045
▁earthly	-6046
▁furious	-6047
▁infants	-6048
▁invaded	-6049
▁islands	-6050
▁longing	-6051
▁matters	-6052
▁natural	-6053
▁offense	-6054
▁payment	-6055
▁pitched	-6056
▁quarrel	-6057
▁selling	-6058
▁showers	-6059
▁shrines	-6060
▁Brothers	-6061
▁Consider	-6062
▁anywhere	-6063
▁attached	-6064
▁confront	-6065
▁crippled	-6066
▁decision	-6067
▁delivers	-6068
▁groaning	-6069
▁quarrels	-6070
▁rewarded	-6071
▁shameful	-6072
▁withhold	-6073
▁Hashabiah	-6074
▁Righteous	-6075
▁Sidonians	-6076
▁carcasses	-6077
▁collected	-6078
▁convinced	-6079
▁delighted	-6080
▁distribut	-6081
▁forbidden	-6082
▁hostility	-6083
▁marvelous	-6084
▁overthrow	-6085
▁regularly	-6086
▁remaining	-6087
▁reverence	-6088
▁Artaxerxes	-6089
▁hypocrites	-6090
▁partiality	-6091
▁administrat	-6092
▁commandment	-6093
▁countryside	-6094
▁discouraged	-6095
▁Mephibosheth	-6096
▁transgressions	-6097
';	-6098
):	-6099
Le	-6100
Re	-6101
my	-6102
"--	-6103
ait	-6104
any	-6105
col	-6106
fer	-6107
gah	-6108
hip	-6109
ods	-6110
ony	-6111
ppa	-6112
sin	-6113
sop	-6114
tol	-6115
▁Bu	-6116
Rabb	-6117
aeus	-6118
edne	-6119
from	-6120
hood	-6121
ibah	-6122
icin	-6123
thir	-6124
took	-6125
unge	-6126
with	-6127
▁Eat	-6128
▁Hak	-6129
▁Jaz	-6130
▁Joi	-6131
▁Net	-6132
▁Nim	-6133
▁Ped	-6134
▁Res	-6135
▁Zab	-6136
▁Zac	-6137
▁Zur	-6138
▁bol	-6139
▁dog	-6140
▁fer	-6141
▁sho	-6142
▁vip	-6143
▁vom	-6144
Which	-6145
abbas	-6146
acles	-6147
anaim	-6148
anias	-6149
areah	-6150
eight	-6151
ences	-6152
hanan	-6153
isdom	-6154
lwind	-6155
oster	-6156
ptist	-6157
ucees	-6158
urned	-6159
▁Bani	-6160
▁Iddo	-6161
▁Nebo	-6162
▁Sadd	-6163
▁Salt	-6164
▁Show	-6165
▁Shun	-6166
▁Year	-6167
▁ages	-6168
▁bank	-6169
▁blot	-6170
▁boys	-6171
▁clos	-6172
▁club	-6173
▁copy	-6174
▁deed	-6175
▁deer	-6176
▁diss	-6177
▁doub	-6178
▁hell	-6179
▁liar	-6180
▁main	-6181
▁melt	-6182
▁nine	-6183
▁radi	-6184
▁rash	-6185
▁reck	-6186
▁rely	-6187
▁sabb	-6188
▁sadd	-6189
▁snat	-6190
▁sour	-6191
▁sout	-6192
▁stor	-6193
▁surf	-6194
▁temp	-6195
▁thor	-6196
▁tops	-6197
▁toss	-6198
▁twil	-6199
▁wipe	-6200
adrach	-6201
ednego	-6202
lemiah	-6203
▁Gezer	-6204
▁Hazar	-6205
▁Jerub	-6206
▁Joppa	-6207
▁Rahab	-6208
▁Seven	-6209
▁Titus	-6210
▁Zobah	-6211
▁baked	-6212
▁basin	-6213
▁cured	-6214
▁envoy	-6215
▁frame	-6216
▁frogs	-6217
▁gloom	-6218
▁godly	-6219
▁grape	-6220
▁haven	-6221
▁liver	-6222
▁nurse	-6223
▁raven	-6224
▁seeks	-6225
▁sland	-6226
▁terms	-6227
▁vicin	-6228
Bosheth	-6229
whether	-6230
▁Andrew	-6231
▁Festus	-6232
▁Geshur	-6233
▁Kareah	-6234
▁Manoah	-6235
▁Oholib	-6236
▁Return	-6237
▁banner	-6238
▁crossb	-6239
▁crowns	-6240
▁dragon	-6241
▁graves	-6242
▁ignore	-6243
▁invade	-6244
▁lights	-6245
▁medium	-6246
▁offers	-6247
▁prepar	-6248
▁strugg	-6249
▁talent	-6250
▁uproot	-6251
▁vindic	-6252
▁worker	-6253
▁Baptist	-6254
▁Eliphaz	-6255
▁Meshach	-6256
▁ability	-6257
▁answers	-6258
▁article	-6259
▁attacks	-6260
▁avenger	-6261
▁borders	-6262
▁contend	-6263
▁discern	-6264
▁disting	-6265
▁dragged	-6266
▁express	-6267
▁fingers	-6268
▁flowers	-6269
▁haughty	-6270
▁illness	-6271
▁meeting	-6272
▁objects	-6273
▁provoke	-6274
▁resound	-6275
▁roaring	-6276
▁smashed	-6277
▁stagger	-6278
▁stepped	-6279
▁swallow	-6280
▁teaches	-6281
▁welcome	-6282
▁withers	-6283
▁wrongdo	-6284
▁zealous	-6285
▁Abednego	-6286
▁Edomites	-6287
▁Mahanaim	-6288
▁Nethanel	-6289
▁Pharisee	-6290
▁Prophets	-6291
▁arrested	-6292
▁builders	-6293
▁daybreak	-6294
▁deserves	-6295
▁eighteen	-6296
▁encamped	-6297
▁iniquity	-6298
▁intended	-6299
▁likeness	-6300
▁meditate	-6301
▁observed	-6302
▁ordained	-6303
▁perished	-6304
▁persecut	-6305
▁ridicule	-6306
▁sluggard	-6307
▁supplied	-6308
▁thorough	-6309
▁twilight	-6310
▁vicinity	-6311
▁wandered	-6312
▁watchman	-6313
▁weakness	-6314
▁withheld	-6315
▁Midianite	-6316
▁Sadducees	-6317
▁confident	-6318
▁disappear	-6319
▁disturbed	-6320
▁fragrance	-6321
▁fugitives	-6322
▁malicious	-6323
▁oppressor	-6324
▁represent	-6325
▁stumbling	-6326
▁surrender	-6327
▁testified	-6328
▁whirlwind	-6329
▁Everything	-6330
▁designated	-6331
▁desolation	-6332
▁especially	-6333
▁sufferings	-6334
▁adversaries	-6335
▁disobedient	-6336
▁forgiveness	-6337
▁restitution	-6338
▁compassionate	-6339
▁unfaithfulness	-6340
'-	-6341
Me	-6342
Oh	-6343
ex	-6344
ald	-6345
gid	-6346
hum	-6347
hys	-6348
isy	-6349
lif	-6350
oil	-6351
pph	-6352
rig	-6353
rim	-6354
umb	-6355
une	-6356
xed	-6357
zad	-6358
▁?"	-6359
▁Eb	-6360
▁Er	-6361
▁iv	-6362
Stay	-6363
anse	-6364
atha	-6365
cent	-6366
fuls	-6367
icia	-6368
ieth	-6369
ihud	-6370
laze	-6371
look	-6372
niel	-6373
shon	-6374
this	-6375
your	-6376
zill	-6377
▁Apo	-6378
▁Cor	-6379
▁Gog	-6380
▁Jap	-6381
▁Ker	-6382
▁Mir	-6383
▁Rib	-6384
▁anx	-6385
▁fla	-6386
▁hat	-6387
▁hom	-6388
▁lab	-6389
▁obt	-6390
▁sen	-6391
▁tie	-6392
▁woe	-6393
▁wol	-6394
▁yes	-6395
Leave	-6396
Moses	-6397
Peace	-6398
Rabbi	-6399
chers	-6400
cribe	-6401
elebr	-6402
elled	-6403
ffect	-6404
imoth	-6405
innom	-6406
irmed	-6407
kelon	-6408
nless	-6409
riers	-6410
umber	-6411
uthun	-6412
zadak	-6413
▁Amoz	-6414
▁Anah	-6415
▁Corn	-6416
▁Dish	-6417
▁Hatt	-6418
▁Micm	-6419
▁Pash	-6420
▁Save	-6421
▁Ziph	-6422
▁blew	-6423
▁boil	-6424
▁cake	-6425
▁circ	-6426
▁cook	-6427
▁dren	-6428
▁ensl	-6429
▁fate	-6430
▁felt	-6431
▁fold	-6432
▁fuel	-6433
▁hind	-6434
▁hunt	-6435
▁mute	-6436
▁nose	-6437
▁note	-6438
▁redu	-6439
▁ride	-6440
▁ripe	-6441
▁site	-6442
▁situ	-6443
▁sorc	-6444
▁week	-6445
antage	-6446
ashore	-6447
ensils	-6448
lifted	-6449
ommand	-6450
orious	-6451
unders	-6452
zillai	-6453
▁Eglon	-6454
▁Enoch	-6455
▁Hamor	-6456
▁Hanun	-6457
▁Izhar	-6458
▁Jahaz	-6459
▁Jazer	-6460
▁Jeiel	-6461
▁Jerah	-6462
▁Nazir	-6463
▁Roman	-6464
▁Tekoa	-6465
▁Terah	-6466
▁camps	-6467
▁ivory	-6468
▁knelt	-6469
▁lines	-6470
▁loose	-6471
▁loses	-6472
▁males	-6473
▁metal	-6474
▁ranks	-6475
▁rider	-6476
▁roast	-6477
▁sores	-6478
▁stirs	-6479
▁thorn	-6480
▁uncle	-6481
▁units	-6482
cession	-6483
sinners	-6484
verance	-6485
▁Hannah	-6486
▁Hinnom	-6487
▁Miriam	-6488
▁Netoph	-6489
▁allies	-6490
▁assass	-6491
▁assist	-6492
▁builds	-6493
▁flying	-6494
▁greedy	-6495
▁harden	-6496
▁invite	-6497
▁loaded	-6498
▁longed	-6499
▁narrow	-6500
▁rebels	-6501
▁refres	-6502
▁routed	-6503
▁sevent	-6504
▁snares	-6505
▁terrif	-6506
▁travel	-6507
▁unbeli	-6508
▁vanish	-6509
▁wooden	-6510
elebrate	-6511
▁Aramaic	-6512
▁Danites	-6513
▁Japheth	-6514
▁Jedaiah	-6515
▁Nahshon	-6516
▁Pashhur	-6517
▁Samarit	-6518
▁censers	-6519
▁chooses	-6520
▁content	-6521
▁crooked	-6522
▁customs	-6523
▁dancing	-6524
▁deprive	-6525
▁desired	-6526
▁detests	-6527
▁doorway	-6528
▁expanse	-6529
▁fleeing	-6530
▁greeted	-6531
▁growing	-6532
▁harshly	-6533
▁hostile	-6534
▁jewelry	-6535
▁missing	-6536
▁pleaded	-6537
▁pledged	-6538
▁pursuit	-6539
▁recover	-6540
▁rooster	-6541
▁satraps	-6542
▁shatter	-6543
▁showing	-6544
▁sincere	-6545
▁soldier	-6546
▁sunrise	-6547
▁tempted	-6548
▁trained	-6549
▁whisper	-6550
▁windows	-6551
▁Ashkelon	-6552
▁Jeduthun	-6553
▁Remaliah	-6554
▁acquired	-6555
▁breathed	-6556
▁darkened	-6557
▁destined	-6558
▁destroys	-6559
▁devotion	-6560
▁exchange	-6561
▁feasting	-6562
▁humility	-6563
▁majestic	-6564
▁profaned	-6565
▁seashore	-6566
▁sickness	-6567
▁silenced	-6568
▁thunders	-6569
▁trembles	-6570
▁uplifted	-6571
▁utensils	-6572
▁watchmen	-6573
▁Barzillai	-6574
▁Benjamite	-6575
▁Shealtiel	-6576
▁advantage	-6577
▁allotment	-6578
▁announced	-6579
▁attacking	-6580
▁concealed	-6581
▁confirmed	-6582
▁earnestly	-6583
▁exchanged	-6584
▁exhausted	-6585
▁footstool	-6586
▁magicians	-6587
▁overwhelm	-6588
▁possessed	-6589
▁senseless	-6590
▁storeroom	-6591
▁Babylonian	-6592
▁Shephatiah	-6593
▁accomplish	-6594
▁dedication	-6595
▁impossible	-6596
▁ordination	-6597
▁prophesies	-6598
▁authorities	-6599
▁experienced	-6600
▁measurements	-6601
▁responsibility	-6602
0.	-6603
Ag	-6604
eg	-6605
oi	-6606
uh	-6607
Isn	-6608
Sit	-6609
hea	-6610
hud	-6611
ria	-6612
uls	-6613
wat	-6614
zzi	-6615
▁Ex	-6616
▁Ja	-6617
▁ax	-6618
agon	-6619
alde	-6620
ambs	-6621
both	-6622
cast	-6623
cell	-6624
edan	-6625
edee	-6626
hern	-6627
lemn	-6628
opes	-6629
oths	-6630
rike	-6631
sequ	-6632
ssop	-6633
ties	-6634
told	-6635
word	-6636
▁Car	-6637
▁Isn	-6638
▁Kid	-6639
▁Mel	-6640
▁Mem	-6641
▁Pen	-6642
▁Rep	-6643
▁alm	-6644
▁din	-6645
▁enl	-6646
▁mul	-6647
▁ony	-6648
Stand	-6649
addai	-6650
allen	-6651
amech	-6652
eries	-6653
gered	-6654
giddo	-6655
icest	-6656
iezer	-6657
itute	-6658
ively	-6659
oming	-6660
orest	-6661
pered	-6662
▁Agag	-6663
▁Ebed	-6664
▁Lebo	-6665
▁Lift	-6666
▁Over	-6667
▁Pray	-6668
▁Pres	-6669
▁Zacc	-6670
▁beds	-6671
▁dare	-6672
▁doct	-6673
▁ensn	-6674
▁gray	-6675
▁helm	-6676
▁huge	-6677
▁lean	-6678
▁lyre	-6679
▁phys	-6680
▁pige	-6681
▁ramp	-6682
▁reed	-6683
▁sank	-6684
▁symp	-6685
ackles	-6686
andise	-6687
dalene	-6688
gement	-6689
ifying	-6690
ildren	-6691
taroth	-6692
▁Abihu	-6693
▁Apoll	-6694
▁Baths	-6695
▁Creat	-6696
▁Dagon	-6697
▁Debir	-6698
▁Hanan	-6699
▁Heber	-6700
▁Judge	-6701
▁Kedar	-6702
▁Mahli	-6703
▁Ophir	-6704
▁Shesh	-6705
▁Tabor	-6706
▁Today	-6707
▁Zicri	-6708
▁beard	-6709
▁bolts	-6710
▁cares	-6711
▁decay	-6712
▁depos	-6713
▁dress	-6714
▁error	-6715
▁fever	-6716
▁frust	-6717
▁gloat	-6718
▁hurry	-6719
▁jambs	-6720
▁obeys	-6721
▁owned	-6722
▁pitch	-6723
▁plots	-6724
▁prays	-6725
▁purch	-6726
▁revol	-6727
▁round	-6728
▁sapph	-6729
▁scour	-6730
▁shape	-6731
▁start	-6732
▁swell	-6733
▁taunt	-6734
▁taxes	-6735
▁veget	-6736
▁weeds	-6737
unclean	-6738
▁Chalde	-6739
▁Ephron	-6740
▁Hepher	-6741
▁Hoshea	-6742
▁Hushai	-6743
▁Lamech	-6744
▁Martha	-6745
▁Shelom	-6746
▁Taking	-6747
▁Wisdom	-6748
▁ablaze	-6749
▁boasts	-6750
▁cancel	-6751
▁consul	-6752
▁drives	-6753
▁dwells	-6754
▁effect	-6755
▁encirc	-6756
▁fasten	-6757
▁hyssop	-6758
▁inform	-6759
▁lawful	-6760
▁loving	-6761
▁powers	-6762
▁scribe	-6763
▁script	-6764
▁shared	-6765
▁shoots	-6766
▁sickle	-6767
▁slopes	-6768
▁solemn	-6769
▁strife	-6770
▁throng	-6771
▁timber	-6772
▁unable	-6773
▁united	-6774
▁victim	-6775
cription	-6776
▁Bethany	-6777
▁Ephrath	-6778
▁Include	-6779
▁Megiddo	-6780
▁Moabite	-6781
▁Whether	-6782
▁Zebedee	-6783
▁abandon	-6784
▁affairs	-6785
▁alarmed	-6786
▁baptize	-6787
▁chasing	-6788
▁correct	-6789
▁council	-6790
▁devours	-6791
▁gazelle	-6792
▁getting	-6793
▁lowered	-6794
▁perhaps	-6795
▁profane	-6796
▁prudent	-6797
▁quarter	-6798
▁robbers	-6799
▁shining	-6800
▁spreads	-6801
▁strange	-6802
▁surface	-6803
▁tonight	-6804
▁Berekiah	-6805
▁Shadrach	-6806
▁Wherever	-6807
▁although	-6808
▁arranged	-6809
▁blossoms	-6810
▁capitals	-6811
▁choicest	-6812
▁dreadful	-6813
▁foretold	-6814
▁fountain	-6815
▁imperial	-6816
▁multiply	-6817
▁occupied	-6818
▁provides	-6819
▁selected	-6820
▁sentence	-6821
▁settings	-6822
▁shackles	-6823
▁shedding	-6824
▁southern	-6825
▁thirteen	-6826
▁treacher	-6827
▁violated	-6828
Everything	-6829
▁Bathsheba	-6830
▁Magdalene	-6831
▁agreement	-6832
▁buildings	-6833
▁crossbars	-6834
▁cupbearer	-6835
▁destroyer	-6836
▁dwellings	-6837
▁endurance	-6838
▁exclaimed	-6839
▁explained	-6840
▁faithless	-6841
▁festivals	-6842
▁gathering	-6843
▁godliness	-6844
▁observing	-6845
▁recovered	-6846
▁responded	-6847
▁standards	-6848
▁uncovered	-6849
▁wineskins	-6850
▁Kohathites	-6851
▁adulteress	-6852
▁courageous	-6853
▁discovered	-6854
▁mistreated	-6855
▁permission	-6856
▁unleavened	-6857
▁wrongdoing	-6858
▁Gershonites	-6859
▁merchandise	-6860
▁sacrificing	-6861
▁storehouses	-6862
▁tambourines	-6863
▁perseverance	-6864
"-	-6865
ta	-6866
Ask	-6867
acy	-6868
fig	-6869
ips	-6870
mas	-6871
ope	-6872
ott	-6873
ris	-6874
tai	-6875
zed	-6876
zur	-6877
Long	-6878
adah	-6879
aker	-6880
alty	-6881
amin	-6882
cari	-6883
dens	-6884
fast	-6885
give	-6886
lath	-6887
long	-6888
mave	-6889
meel	-6890
ocks	-6891
oham	-6892
oils	-6893
omas	-6894
prus	-6895
resp	-6896
rose	-6897
sons	-6898
swer	-6899
ubal	-6900
zzah	-6901
▁Aij	-6902
▁Bez	-6903
▁Din	-6904
▁Hav	-6905
▁Mig	-6906
▁Mil	-6907
▁Oth	-6908
▁Pal	-6909
▁Pel	-6910
▁Pis	-6911
▁bor	-6912
▁cud	-6913
▁dar	-6914
▁dig	-6915
▁gri	-6916
▁han	-6917
▁hem	-6918
▁ide	-6919
▁imm	-6920
▁sad	-6921
,000,	-6922
Their	-6923
Watch	-6924
addan	-6925
allat	-6926
araim	-6927
athed	-6928
ching	-6929
eless	-6930
ellig	-6931
emuel	-6932
eness	-6933
ephen	-6934
erved	-6935
ethro	-6936
ieves	-6937
inate	-6938
inent	-6939
itted	-6940
luded	-6941
onite	-6942
pened	-6943
rippa	-6944
rison	-6945
▁Beor	-6946
▁East	-6947
▁Ehud	-6948
▁Gitt	-6949
▁Joah	-6950
▁Stop	-6951
▁Stre	-6952
▁Zipp	-6953
▁aged	-6954
▁beer	-6955
▁bott	-6956
▁bush	-6957
▁cubs	-6958
▁drop	-6959
▁fart	-6960
▁gaze	-6961
▁idle	-6962
▁leaf	-6963
▁leap	-6964
▁list	-6965
▁load	-6966
▁nets	-6967
▁obst	-6968
▁onyx	-6969
▁recl	-6970
▁rode	-6971
▁rows	-6972
▁subm	-6973
▁sway	-6974
▁unse	-6975
▁virg	-6976
▁wake	-6977
▁wars	-6978
▁wick	-6979
▁wore	-6980
Follow	-6981
cariot	-6982
ceeded	-6983
enched	-6984
maveth	-6985
oteers	-6986
tering	-6987
vestig	-6988
▁Above	-6989
▁Dibon	-6990
▁Gorge	-6991
▁Greek	-6992
▁Harim	-6993
▁Kenaz	-6994
▁Paran	-6995
▁Rezin	-6996
▁Shaul	-6997
▁agony	-6998
▁arose	-6999
▁broad	-7000
▁camel	-7001
▁cared	-7002
▁cling	-7003
▁conso	-7004
▁dough	-7005
▁elect	-7006
▁equip	-7007
▁gorge	-7008
▁grind	-7009
▁heirs	-7010
▁hosts	-7011
▁invol	-7012
▁loops	-7013
▁lowly	-7014
▁misle	-7015
▁mules	-7016
▁occas	-7017
▁panic	-7018
▁rains	-7019
▁realm	-7020
▁scorp	-7021
▁shove	-7022
▁skins	-7023
▁smell	-7024
▁stall	-7025
▁tooth	-7026
▁trade	-7027
▁unmar	-7028
▁vomit	-7029
▁width	-7030
Prepare	-7031
avement	-7032
olished	-7033
▁Abiram	-7034
▁Beriah	-7035
▁Cyprus	-7036
▁Haggai	-7037
▁Hanani	-7038
▁Having	-7039
▁Jethro	-7040
▁Kedesh	-7041
▁Kereth	-7042
▁Kidron	-7043
▁Paddan	-7044
▁Riblah	-7045
▁Thomas	-7046
▁Timnah	-7047
▁afford	-7048
▁banish	-7049
▁boldly	-7050
▁bribes	-7051
▁credit	-7052
▁deeply	-7053
▁dinner	-7054
▁envoys	-7055
▁excell	-7056
▁gladly	-7057
▁hanged	-7058
▁helper	-7059
▁indign	-7060
▁landed	-7061
▁locked	-7062
▁lovely	-7063
▁melted	-7064
▁mocker	-7065
▁reconc	-7066
▁relent	-7067
▁resist	-7068
▁reveal	-7069
▁serves	-7070
▁snakes	-7071
▁tasted	-7072
▁thinks	-7073
▁thrive	-7074
▁upward	-7075
▁Adullam	-7076
▁Agrippa	-7077
▁Ananias	-7078
▁Apollos	-7079
▁Creator	-7080
▁Deborah	-7081
▁Further	-7082
▁Jozabad	-7083
▁Meribah	-7084
▁Micmash	-7085
▁Rejoice	-7086
▁Shepher	-7087
▁Stephen	-7088
▁avenged	-7089
▁carpent	-7090
▁citizen	-7091
▁collaps	-7092
▁drunken	-7093
▁eagerly	-7094
▁eunuchs	-7095
▁execute	-7096
▁explore	-7097
▁flaming	-7098
▁flogged	-7099
▁founded	-7100
▁gardens	-7101
▁highway	-7102
▁instant	-7103
▁maidens	-7104
▁monthly	-7105
▁opposed	-7106
▁overlay	-7107
▁penalty	-7108
▁playing	-7109
▁pursues	-7110
▁raising	-7111
▁reduced	-7112
▁related	-7113
▁returns	-7114
▁revenge	-7115
▁rushing	-7116
▁shadows	-7117
▁surpass	-7118
▁sympath	-7119
▁tending	-7120
▁thieves	-7121
▁uttered	-7122
▁valiant	-7123
▁virgins	-7124
▁wronged	-7125
▁Abinadab	-7126
▁Iscariot	-7127
▁Nazirite	-7128
▁besieged	-7129
▁demolish	-7130
▁departed	-7131
▁deported	-7132
▁despises	-7133
▁downcast	-7134
▁handsome	-7135
▁ignorant	-7136
▁intellig	-7137
▁investig	-7138
▁joyfully	-7139
▁learning	-7140
▁lewdness	-7141
▁publicly	-7142
▁scorched	-7143
▁searches	-7144
▁spacious	-7145
▁terrible	-7146
▁thickets	-7147
▁welcomes	-7148
controlled	-7149
▁Assyrians	-7150
▁Jerahmeel	-7151
▁Shecaniah	-7152
▁Zephaniah	-7153
▁complaint	-7154
▁conquered	-7155
▁consuming	-7156
▁deliverer	-7157
▁extending	-7158
▁grumbling	-7159
▁hardships	-7160
▁perishing	-7161
▁persuaded	-7162
▁prostrate	-7163
▁remembers	-7164
▁returning	-7165
▁supported	-7166
▁treasured	-7167
▁underfoot	-7168
▁boundaries	-7169
▁demolished	-7170
▁devastated	-7171
▁eighteenth	-7172
▁iniquities	-7173
▁lampstands	-7174
▁procession	-7175
▁prosperous	-7176
▁questioned	-7177
▁storerooms	-7178
▁thirteenth	-7179
▁thoroughly	-7180
▁charioteers	-7181
▁disgraceful	-7182
▁genealogical	-7183
▁preparations	-7184
▁transgression	-7185
▁interpretation	-7186
0,	-7187
Bu	-7188
Ne	-7189
io	-7190
ux	-7191
Has	-7192
Set	-7193
adi	-7194
aia	-7195
cut	-7196
had	-7197
inc	-7198
ira	-7199
irs	-7200
lin	-7201
mim	-7202
nea	-7203
uff	-7204
umn	-7205
ura	-7206
urs	-7207
usk	-7208
usp	-7209
▁OF	-7210
▁dy	-7211
Just	-7212
Saul	-7213
ades	-7214
allu	-7215
amah	-7216
amre	-7217
arib	-7218
axad	-7219
cond	-7220
elix	-7221
ilar	-7222
rodu	-7223
roth	-7224
rous	-7225
time	-7226
unna	-7227
urim	-7228
what	-7229
▁Boz	-7230
▁Dor	-7231
▁Lyd	-7232
▁Sib	-7233
▁Top	-7234
▁Zel	-7235
▁Zin	-7236
▁aid	-7237
▁fed	-7238
▁fee	-7239
▁foe	-7240
▁key	-7241
▁lil	-7242
▁raw	-7243
▁sol	-7244
▁ver	-7245
▁wea	-7246
Never	-7247
aites	-7248
almon	-7249
ashti	-7250
chant	-7251
elius	-7252
ephar	-7253
erred	-7254
erted	-7255
ocked	-7256
oning	-7257
oughs	-7258
ounds	-7259
retch	-7260
rites	-7261
rolog	-7262
ushes	-7263
using	-7264
▁Aphe	-7265
▁Arba	-7266
▁Arph	-7267
▁Conc	-7268
▁Coun	-7269
▁Ezer	-7270
▁Fear	-7271
▁Mark	-7272
▁Mush	-7273
▁Neco	-7274
▁Raph	-7275
▁Rise	-7276
▁Rome	-7277
▁Sanb	-7278
▁Seth	-7279
▁Shan	-7280
▁Wail	-7281
▁Were	-7282
▁Zalm	-7283
▁Zoar	-7284
▁calm	-7285
▁conn	-7286
▁dusk	-7287
▁embr	-7288
▁game	-7289
▁goss	-7290
▁heed	-7291
▁hurt	-7292
▁lays	-7293
▁lest	-7294
▁limp	-7295
▁logs	-7296
▁null	-7297
▁pale	-7298
▁pile	-7299
▁rank	-7300
▁seiz	-7301
▁sens	-7302
▁sows	-7303
▁stud	-7304
▁tens	-7305
▁tool	-7306
▁valu	-7307
▁vent	-7308
▁vult	-7309
▁woke	-7310
▁worm	-7311
Return	-7312
ammite	-7313
chized	-7314
eltesh	-7315
isfort	-7316
mented	-7317
rected	-7318
sehood	-7319
ustice	-7320
zabeth	-7321
▁Awake	-7322
▁Dedan	-7323
▁Eliel	-7324
▁Elihu	-7325
▁Felix	-7326
▁Gerar	-7327
▁Going	-7328
▁Immer	-7329
▁Mahal	-7330
▁Mamre	-7331
▁Medes	-7332
▁North	-7333
▁Peace	-7334
▁Reuel	-7335
▁Stand	-7336
▁Tubal	-7337
▁Which	-7338
▁Zebah	-7339
▁Zorah	-7340
▁argue	-7341
▁baths	-7342
▁caves	-7343
▁covet	-7344
▁disgu	-7345
▁extol	-7346
▁feeds	-7347
▁filth	-7348
▁griev	-7349
▁heaps	-7350
▁homer	-7351
▁indul	-7352
▁issue	-7353
▁kneel	-7354
▁ledge	-7355
▁marks	-7356
▁opens	-7357
▁perce	-7358
▁reeds	-7359
▁relig	-7360
▁rocky	-7361
▁rouse	-7362
▁sacks	-7363
▁sells	-7364
▁souls	-7365
▁space	-7366
▁spark	-7367
▁waved	-7368
▁wheel	-7369
amation	-7370
athites	-7371
ication	-7372
ructive	-7373
secrate	-7374
through	-7375
▁Achaia	-7376
▁Barnea	-7377
▁Bilhah	-7378
▁Eliphe	-7379
▁Jether	-7380
▁Milcah	-7381
▁Neriah	-7382
▁Tabern	-7383
▁Zaccur	-7384
▁abomin	-7385
▁access	-7386
▁borrow	-7387
▁boughs	-7388
▁chased	-7389
▁create	-7390
▁devote	-7391
▁easily	-7392
▁estate	-7393
▁expose	-7394
▁famous	-7395
▁flowed	-7396
▁handle	-7397
▁harbor	-7398
▁hatred	-7399
▁inmost	-7400
▁lilies	-7401
▁limits	-7402
▁marked	-7403
▁olives	-7404
▁pagans	-7405
▁richly	-7406
▁signet	-7407
▁sounds	-7408
▁spoils	-7409
▁stench	-7410
▁subdue	-7411
▁sunset	-7412
▁weaned	-7413
▁weighs	-7414
▁wrongs	-7415
Brothers	-7416
chizedek	-7417
ishaddai	-7418
tempered	-7419
▁Aijalon	-7420
▁Ammihud	-7421
▁Amorite	-7422
▁Bethuel	-7423
▁Gentile	-7424
▁Jeroham	-7425
▁Jonadab	-7426
▁Othniel	-7427
▁Topheth	-7428
▁Without	-7429
▁besiege	-7430
▁burdens	-7431
▁charged	-7432
▁conspir	-7433
▁cutting	-7434
▁deposit	-7435
▁enchant	-7436
▁falling	-7437
▁flashes	-7438
▁grassho	-7439
▁hanging	-7440
▁immoral	-7441
▁judging	-7442
▁kinsman	-7443
▁lawless	-7444
▁mediums	-7445
▁molding	-7446
▁neglect	-7447
▁outpost	-7448
▁painful	-7449
▁palaces	-7450
▁plateau	-7451
▁pouring	-7452
▁pretend	-7453
▁prevail	-7454
▁raiding	-7455
▁refined	-7456
▁regions	-7457
▁reports	-7458
▁roasted	-7459
▁saddled	-7460
▁sayings	-7461
▁slumber	-7462
▁sorcery	-7463
▁steward	-7464
▁suppose	-7465
▁sustain	-7466
▁terrors	-7467
▁victims	-7468
▁watered	-7469
▁wayward	-7470
▁wealthy	-7471
▁worldly	-7472
isfortune	-7473
▁Anakites	-7474
▁Arphaxad	-7475
▁Barabbas	-7476
▁Merarite	-7477
▁Presence	-7478
▁Zalmunna	-7479
▁accusers	-7480
▁astrolog	-7481
▁complain	-7482
▁disputes	-7483
▁engraved	-7484
▁executed	-7485
▁fullness	-7486
▁obedient	-7487
▁overlook	-7488
▁overtook	-7489
▁pastures	-7490
▁purposes	-7491
▁quenched	-7492
▁reaching	-7493
▁repeated	-7494
▁snatched	-7495
▁speckled	-7496
▁throwing	-7497
▁Babylonia	-7498
▁Elizabeth	-7499
▁Rephaites	-7500
▁Sanballat	-7501
▁Shelemiah	-7502
▁abounding	-7503
▁accompany	-7504
▁ancestral	-7505
▁arguments	-7506
▁associate	-7507
▁collector	-7508
▁consulted	-7509
▁continues	-7510
▁decisions	-7511
▁desecrate	-7512
▁equipment	-7513
▁falsehood	-7514
▁fermented	-7515
▁foreheads	-7516
▁genealogy	-7517
▁happening	-7518
▁injustice	-7519
▁multitude	-7520
▁ornaments	-7521
▁overcomes	-7522
▁overpower	-7523
▁paralytic	-7524
▁practiced	-7525
▁privately	-7526
▁prominent	-7527
▁refreshed	-7528
▁respected	-7529
▁steadfast	-7530
▁unmarried	-7531
▁wandering	-7532
elteshazzar	-7533
▁Concerning	-7534
▁Gershonite	-7535
▁Gibeonites	-7536
▁Kerethites	-7537
▁generously	-7538
▁humiliated	-7539
▁sanctified	-7540
▁separation	-7541
▁victorious	-7542
▁Destruction	-7543
▁Furthermore	-7544
▁Melchizedek	-7545
▁Tabernacles	-7546
▁approaching	-7547
▁disciplined	-7548
▁distinguish	-7549
▁distributed	-7550
▁embroidered	-7551
▁fulfillment	-7552
▁neighboring	-7553
▁understands	-7554
▁achievements	-7555
▁purification	-7556
▁contributions	-7557
▁encouragement	-7558
Ke	-7559
Or	-7560
bl	-7561
hi	-7562
Jud	-7563
One	-7564
Pro	-7565
Rem	-7566
aft	-7567
aws	-7568
bai	-7569
bit	-7570
cts	-7571
cue	-7572
dge	-7573
eem	-7574
hew	-7575
ida	-7576
kam	-7577
ker	-7578
lex	-7579
may	-7580
oda	-7581
pan	-7582
reb	-7583
she	-7584
tan	-7585
utt	-7586
vah	-7587
yss	-7588
zeb	-7589
▁Cl	-7590
▁Ib	-7591
▁Lo	-7592
▁cu	-7593
Keep	-7594
Love	-7595
Supp	-7596
akin	-7597
anna	-7598
asps	-7599
avan	-7600
biah	-7601
eled	-7602
gods	-7603
illa	-7604
irts	-7605
irty	-7606
ophe	-7607
sels	-7608
sing	-7609
tore	-7610
uard	-7611
wood	-7612
▁Akk	-7613
▁App	-7614
▁Ass	-7615
▁Big	-7616
▁Cai	-7617
▁Cal	-7618
▁End	-7619
▁Gam	-7620
▁Mat	-7621
▁Nic	-7622
▁Nob	-7623
▁Sac	-7624
▁Set	-7625
▁Tro	-7626
▁art	-7627
▁bru	-7628
▁dip	-7629
▁hit	-7630
▁lux	-7631
▁mas	-7632
▁mob	-7633
▁mor	-7634
▁mut	-7635
▁rot	-7636
▁spy	-7637
▁swo	-7638
▁tet	-7639
▁ven	-7640
▁wre	-7641
Again	-7642
David	-7643
Those	-7644
Write	-7645
acter	-7646
aliel	-7647
allel	-7648
aphas	-7649
asper	-7650
aware	-7651
coves	-7652
cture	-7653
eding	-7654
hemed	-7655
hoose	-7656
isher	-7657
istri	-7658
itism	-7659
ittim	-7660
kedah	-7661
losed	-7662
oping	-7663
ormah	-7664
osing	-7665
rents	-7666
these	-7667
vable	-7668
▁Adar	-7669
▁Alex	-7670
▁Beer	-7671
▁Call	-7672
▁Elon	-7673
▁Enan	-7674
▁Fire	-7675
▁Gaal	-7676
▁Gera	-7677
▁Hele	-7678
▁Japh	-7679
▁Know	-7680
▁Mall	-7681
▁Maon	-7682
▁Meth	-7683
▁Must	-7684
▁Pass	-7685
▁Rest	-7686
▁Wadi	-7687
▁Word	-7688
▁bake	-7689
▁bath	-7690
▁bend	-7691
▁blem	-7692
▁chry	-7693
▁cong	-7694
▁cous	-7695
▁ease	-7696
▁fash	-7697
▁flaw	-7698
▁isol	-7699
▁loaf	-7700
▁midw	-7701
▁onto	-7702
▁oven	-7703
▁owns	-7704
▁pays	-7705
▁race	-7706
▁rais	-7707
▁sash	-7708
▁seah	-7709
▁shot	-7710
▁shun	-7711
▁span	-7712
▁thro	-7713
▁ward	-7714
anging	-7715
atches	-7716
attern	-7717
bserve	-7718
ension	-7719
fourth	-7720
gation	-7721
hemiah	-7722
itable	-7723
ithiah	-7724
owered	-7725
rucify	-7726
ssalon	-7727
uspect	-7728
wardly	-7729
▁Abdon	-7730
▁Abyss	-7731
▁Aphek	-7732
▁Arise	-7733
▁Dinah	-7734
▁Glory	-7735
▁Jakin	-7736
▁Jeush	-7737
▁Jobab	-7738
▁Lower	-7739
▁Shere	-7740
▁Still	-7741
▁Water	-7742
▁admit	-7743
▁annih	-7744
▁begun	-7745
▁belly	-7746
▁boats	-7747
▁brood	-7748
▁cargo	-7749
▁carts	-7750
▁cases	-7751
▁chain	-7752
▁coins	-7753
▁dealt	-7754
▁debts	-7755
▁delic	-7756
▁displ	-7757
▁drown	-7758
▁enlar	-7759
▁flash	-7760
▁flees	-7761
▁forms	-7762
▁goble	-7763
▁graze	-7764
▁homet	-7765
▁insol	-7766
▁knead	-7767
▁liars	-7768
▁loyal	-7769
▁necks	-7770
▁piles	-7771
▁plent	-7772
▁procl	-7773
▁rests	-7774
▁roofs	-7775
▁shaft	-7776
▁sling	-7777
▁slope	-7778
▁snuff	-7779
▁stalk	-7780
▁stern	-7781
▁tight	-7782
▁truly	-7783
▁twent	-7784
▁venom	-7785
▁vowed	-7786
▁wares	-7787
Stretch	-7788
Suppose	-7789
cutters	-7790
omorrow	-7791
ophehad	-7792
riveled	-7793
seventh	-7794
uddenly	-7795
willing	-7796
▁Adaiah	-7797
▁Answer	-7798
▁Baanah	-7799
▁Dathan	-7800
▁Galile	-7801
▁Heaven	-7802
▁Hormah	-7803
▁Nahash	-7804
▁Ophrah	-7805
▁Peleth	-7806
▁Rescue	-7807
▁Sephar	-7808
▁Shebna	-7809
▁Shobal	-7810
▁Thirty	-7811
▁acting	-7812
▁almond	-7813
▁attach	-7814
▁attent	-7815
▁basins	-7816
▁bottom	-7817
▁byword	-7818
▁childb	-7819
▁circum	-7820
▁claims	-7821
▁cloaks	-7822
▁compet	-7823
▁defeat	-7824
▁defied	-7825
▁divine	-7826
▁engage	-7827
▁farmer	-7828
▁jewels	-7829
▁lusted	-7830
▁magist	-7831
▁moving	-7832
▁necess	-7833
▁oldest	-7834
▁panels	-7835
▁partic	-7836
▁paying	-7837
▁permit	-7838
▁pierce	-7839
▁raging	-7840
▁repaid	-7841
▁riders	-7842
▁select	-7843
▁snatch	-7844
▁useful	-7845
▁vipers	-7846
▁watcht	-7847
▁whitew	-7848
▁wishes	-7849
Everyone	-7850
Remember	-7851
Whatever	-7852
▁Another	-7853
▁Ashtore	-7854
▁Beeroth	-7855
▁Besides	-7856
▁Corinth	-7857
▁Kenites	-7858
▁Meshech	-7859
▁Present	-7860
▁Restore	-7861
▁Shammah	-7862
▁adorned	-7863
▁alcoves	-7864
▁angered	-7865
▁bedroom	-7866
▁blowing	-7867
▁bondage	-7868
▁carries	-7869
▁claimed	-7870
▁darling	-7871
▁dispers	-7872
▁enjoyed	-7873
▁erected	-7874
▁exactly	-7875
▁finding	-7876
▁forests	-7877
▁gallows	-7878
▁knitted	-7879
▁lioness	-7880
▁noticed	-7881
▁pattern	-7882
▁pigeons	-7883
▁proverb	-7884
▁radiant	-7885
▁refrain	-7886
▁sabbath	-7887
▁serious	-7888
▁sheaves	-7889
▁shovels	-7890
▁similar	-7891
▁squares	-7892
▁temples	-7893
▁terrify	-7894
▁torches	-7895
▁unaware	-7896
▁vinegar	-7897
▁Assyrian	-7898
▁Azmaveth	-7899
▁Caiaphas	-7900
▁Jebusite	-7901
▁Jerimoth	-7902
▁Makkedah	-7903
▁Nehemiah	-7904
▁Suddenly	-7905
▁Zebadiah	-7906
▁confined	-7907
▁conspire	-7908
▁diviners	-7909
▁divorced	-7910
▁drenched	-7911
▁earrings	-7912
▁enslaved	-7913
▁frighten	-7914
▁generous	-7915
▁grandson	-7916
▁grumbled	-7917
▁guarding	-7918
▁helpless	-7919
▁hometown	-7920
▁imprison	-7921
▁laughter	-7922
▁marching	-7923
▁measures	-7924
▁midnight	-7925
▁occasion	-7926
▁peaceful	-7927
▁polished	-7928
▁previous	-7929
▁proverbs	-7930
▁repented	-7931
▁requires	-7932
▁survived	-7933
▁Chaldeans	-7934
▁Jehohanan	-7935
▁Merarites	-7936
▁Sherebiah	-7937
▁Thessalon	-7938
▁adversary	-7939
▁appearing	-7940
▁baptizing	-7941
▁blasphemy	-7942
▁commended	-7943
▁deception	-7944
▁decorated	-7945
▁discussed	-7946
▁dismissed	-7947
▁disobeyed	-7948
▁goldsmith	-7949
▁ministers	-7950
▁overthrew	-7951
▁patiently	-7952
▁powerless	-7953
▁preparing	-7954
▁provoking	-7955
▁receiving	-7956
▁scorpions	-7957
▁shriveled	-7958
▁situation	-7959
▁specified	-7960
▁teachings	-7961
▁twentieth	-7962
▁unwilling	-7963
▁adulterers	-7964
▁adulterous	-7965
▁basketfuls	-7966
▁blasphemed	-7967
▁ceremonial	-7968
▁coastlands	-7969
▁conspiracy	-7970
▁constantly	-7971
▁containing	-7972
▁favoritism	-7973
▁frightened	-7974
▁misfortune	-7975
▁oppressors	-7976
▁overthrown	-7977
▁perfection	-7978
▁protection	-7979
▁quantities	-7980
▁spiritists	-7981
▁astrologers	-7982
▁doorkeepers	-7983
▁drunkenness	-7984
▁inscription	-7985
▁persecution	-7986
▁assassinated	-7987
▁disobedience	-7988
▁mountainside	-7989
▁proclamation	-7990
▁stubbornness	-7991
,0	-7992
..	-7993
da	-7994
dy	-7995
sk	-7996
ui	-7997
vi	-7998
zy	-7999
▁)	-8000
Aha	-8001
Any	-8002
Was	-8003
ays	-8004
boa	-8005
cam	-8006
cer	-8007
cra	-8008
cry	-8009
dre	-8010
erc	-8011
etu	-8012
gly	-8013
iat	-8014
idd	-8015
kem	-8016
lai	-8017
ode	-8018
osp	-8019
ric	-8020
sah	-8021
uck	-8022
zan	-8023
▁Ra	-8024
▁Ty	-8025
Didn	-8026
Does	-8027
Each	-8028
Moab	-8029
Only	-8030
ahem	-8031
aits	-8032
angs	-8033
arai	-8034
arim	-8035
bute	-8036
cely	-8037
dict	-8038
drei	-8039
ebar	-8040
hens	-8041
irah	-8042
irth	-8043
kets	-8044
lets	-8045
made	-8046
miel	-8047
moil	-8048
ntil	-8049
olis	-8050
onse	-8051
oped	-8052
phis	-8053
rang	-8054
rene	-8055
rors	-8056
said	-8057
shur	-8058
sook	-8059
taol	-8060
tell	-8061
uled	-8062
vert	-8063
▁Acc	-8064
▁Ark	-8065
▁Cil	-8066
▁Eln	-8067
▁Hen	-8068
▁Ira	-8069
▁Kel	-8070
▁Kin	-8071
▁Mad	-8072
▁Pre	-8073
▁Sab	-8074
▁Tel	-8075
▁Tig	-8076
▁Way	-8077
▁abs	-8078
▁alo	-8079
▁ant	-8080
▁der	-8081
▁hes	-8082
▁hym	-8083
▁lap	-8084
▁lod	-8085
▁owe	-8086
▁pin	-8087
▁vol	-8088
▁wag	-8089
About	-8090
abled	-8091
akers	-8092
almai	-8093
anoah	-8094
athah	-8095
bands	-8096
bread	-8097
clare	-8098
erday	-8099
erers	-8100
ested	-8101
ethon	-8102
ibeon	-8103
iling	-8104
imate	-8105
innui	-8106
opard	-8107
place	-8108
press	-8109
raged	-8110
storm	-8111
third	-8112
▁Alph	-8113
▁Aven	-8114
▁Beel	-8115
▁Chem	-8116
▁Flee	-8117
▁Jash	-8118
▁Last	-8119
▁Pool	-8120
▁Seek	-8121
▁Shel	-8122
▁Taan	-8123
▁Tapp	-8124
▁Zoph	-8125
▁abst	-8126
▁bald	-8127
▁buds	-8128
▁busy	-8129
▁cert	-8130
▁cham	-8131
▁cors	-8132
▁cups	-8133
▁cure	-8134
▁dict	-8135
▁dull	-8136
▁graz	-8137
▁guid	-8138
▁hosp	-8139
▁hurl	-8140
▁idea	-8141
▁imag	-8142
▁insp	-8143
▁itch	-8144
▁jave	-8145
▁moan	-8146
▁moth	-8147
▁nour	-8148
▁oaks	-8149
▁pear	-8150
▁pegs	-8151
▁pens	-8152
▁pond	-8153
▁prow	-8154
▁rumb	-8155
▁runs	-8156
▁sect	-8157
▁sink	-8158
▁symb	-8159
▁thus	-8160
▁toes	-8161
▁ugly	-8162
▁uses	-8163
Before	-8164
Master	-8165
Melech	-8166
called	-8167
ieving	-8168
leness	-8169
lessly	-8170
nounce	-8171
orship	-8172
oundre	-8173
places	-8174
riarch	-8175
rifice	-8176
semble	-8177
solite	-8178
uished	-8179
vering	-8180
▁Akkub	-8181
▁Belsh	-8182
▁Bicri	-8183
▁Carmi	-8184
▁Edrei	-8185
▁Enosh	-8186
▁Ethan	-8187
▁Geber	-8188
▁Gomer	-8189
▁Guard	-8190
▁Huram	-8191
▁Kebar	-8192
▁Mares	-8193
▁Media	-8194
▁Mushi	-8195
▁Peleg	-8196
▁Raise	-8197
▁Rapha	-8198
▁Rehum	-8199
▁Shish	-8200
▁Shout	-8201
▁Syria	-8202
▁Tower	-8203
▁Zabad	-8204
▁accur	-8205
▁alert	-8206
▁appet	-8207
▁baker	-8208
▁blame	-8209
▁brace	-8210
▁braid	-8211
▁chase	-8212
▁cliff	-8213
▁crows	-8214
▁doubt	-8215
▁dunge	-8216
▁exerc	-8217
▁fleet	-8218
▁flint	-8219
▁flows	-8220
▁gains	-8221
▁guest	-8222
▁harem	-8223
▁haunt	-8224
▁helps	-8225
▁holes	-8226
▁hoofs	-8227
▁hoped	-8228
▁lifts	-8229
▁limit	-8230
▁lords	-8231
▁manag	-8232
▁mocks	-8233
▁nails	-8234
▁oaths	-8235
▁pagan	-8236
▁party	-8237
▁piled	-8238
▁plumb	-8239
▁proof	-8240
▁reven	-8241
▁route	-8242
▁sorce	-8243
▁stays	-8244
▁stops	-8245
▁super	-8246
▁surpr	-8247
▁thong	-8248
▁tired	-8249
▁toler	-8250
▁usury	-8251
▁wells	-8252
Neither	-8253
breadth	-8254
fearing	-8255
servant	-8256
stances	-8257
▁Asaiah	-8258
▁Asshur	-8259
▁Binnui	-8260
▁Bozrah	-8261
▁Dishon	-8262
▁Follow	-8263
▁Gilboa	-8264
▁Pisgah	-8265
▁Remove	-8266
▁Repent	-8267
▁Sharon	-8268
▁Streng	-8269
▁Zibeon	-8270
▁allied	-8271
▁awaits	-8272
▁bricks	-8273
▁censer	-8274
▁cooked	-8275
▁copper	-8276
▁costly	-8277
▁crafty	-8278
▁crimin	-8279
▁distin	-8280
▁exceed	-8281
▁exiled	-8282
▁expens	-8283
▁fading	-8284
▁feeble	-8285
▁fisher	-8286
▁flower	-8287
▁gently	-8288
▁gossip	-8289
▁groups	-8290
▁groves	-8291
▁guides	-8292
▁hammer	-8293
▁hardly	-8294
▁hollow	-8295
▁infant	-8296
▁intent	-8297
▁jasper	-8298
▁keeper	-8299
▁laying	-8300
▁member	-8301
▁merely	-8302
▁nursed	-8303
▁occupy	-8304
▁outcry	-8305
▁partly	-8306
▁plowed	-8307
▁prefer	-8308
▁raises	-8309
▁riddle	-8310
▁rubies	-8311
▁ruling	-8312
▁seizes	-8313
▁signal	-8314
▁sprout	-8315
▁sticks	-8316
▁strict	-8317
▁swarms	-8318
▁traded	-8319
▁trials	-8320
▁trough	-8321
▁tumors	-8322
▁volunt	-8323
▁weaver	-8324
▁winnow	-8325
esterday	-8326
standing	-8327
▁Against	-8328
▁Bezalel	-8329
▁Chemosh	-8330
▁Cilicia	-8331
▁Declare	-8332
▁Eshtaol	-8333
▁Forgive	-8334
▁Gittite	-8335
▁Kadmiel	-8336
▁Memphis	-8337
▁Menahem	-8338
▁Mishael	-8339
▁Pedaiah	-8340
▁Rephaim	-8341
▁Shaphat	-8342
▁Tappuah	-8343
▁archers	-8344
▁arguing	-8345
▁arrives	-8346
▁assured	-8347
▁begging	-8348
▁blesses	-8349
▁conceal	-8350
▁conquer	-8351
▁consent	-8352
▁consequ	-8353
▁deserts	-8354
▁devised	-8355
▁dreaded	-8356
▁drought	-8357
▁endured	-8358
▁enraged	-8359
▁enticed	-8360
▁fitting	-8361
▁flashed	-8362
▁foremen	-8363
▁forsook	-8364
▁grumble	-8365
▁guarded	-8366
▁handful	-8367
▁helping	-8368
▁lacking	-8369
▁madness	-8370
▁persons	-8371
▁pervert	-8372
▁plainly	-8373
▁pottery	-8374
▁reading	-8375
▁rebukes	-8376
▁rejects	-8377
▁retreat	-8378
▁scourge	-8379
▁spotted	-8380
▁threats	-8381
▁trading	-8382
▁trapped	-8383
▁turmoil	-8384
▁visible	-8385
▁wanting	-8386
▁wasting	-8387
▁weights	-8388
▁workmen	-8389
righteous	-8390
▁Cushites	-8391
▁Mareshah	-8392
▁actually	-8393
▁alliance	-8394
▁announce	-8395
▁approval	-8396
▁arriving	-8397
▁ascended	-8398
▁attitude	-8399
▁becoming	-8400
▁bleeding	-8401
▁conceive	-8402
▁consumes	-8403
▁deceiver	-8404
▁deceives	-8405
▁defenses	-8406
▁doorpost	-8407
▁eastward	-8408
▁embroide	-8409
▁evidence	-8410
▁examines	-8411
▁expected	-8412
▁exploits	-8413
▁formerly	-8414
▁horrible	-8415
▁idolatry	-8416
▁insulted	-8417
▁interced	-8418
▁mistress	-8419
▁mourners	-8420
▁openings	-8421
▁ordinary	-8422
▁pavement	-8423
▁priestly	-8424
▁recorder	-8425
▁response	-8426
▁scoundre	-8427
▁securely	-8428
▁sexually	-8429
▁skillful	-8430
▁sounding	-8431
▁struggle	-8432
▁stumbled	-8433
▁supports	-8434
▁sustains	-8435
▁sympathy	-8436
▁terraces	-8437
▁trimmers	-8438
▁truthful	-8439
▁valuable	-8440
▁withdraw	-8441
everything	-8442
▁Cornelius	-8443
▁Eliphelet	-8444
▁Gileadite	-8445
▁Jehozadak	-8446
▁Mahalalel	-8447
▁Philistia	-8448
▁Samaritan	-8449
▁Shelomith	-8450
▁collapsed	-8451
▁commotion	-8452
▁companies	-8453
▁companion	-8454
▁conceited	-8455
▁corrupted	-8456
▁counselor	-8457
▁deceptive	-8458
▁depending	-8459
▁destitute	-8460
▁determine	-8461
▁displayed	-8462
▁drunkards	-8463
▁everybody	-8464
▁excellent	-8465
▁extortion	-8466
▁millstone	-8467
▁musicians	-8468
▁necessary	-8469
▁patriarch	-8470
▁plentiful	-8471
▁proceeded	-8472
▁protected	-8473
▁ridiculed	-8474
▁scorching	-8475
▁searching	-8476
▁tradition	-8477
▁traveling	-8478
▁waistband	-8479
▁withstand	-8480
▁Belshazzar	-8481
▁Mattithiah	-8482
▁Oholibamah	-8483
▁Shunammite	-8484
▁Simeonites	-8485
▁Throughout	-8486
▁Zelophehad	-8487
▁belongings	-8488
▁brightness	-8489
▁calamities	-8490
▁carpenters	-8491
▁chrysolite	-8492
▁commission	-8493
▁corruption	-8494
▁dissension	-8495
▁friendship	-8496
▁harvesters	-8497
▁manservant	-8498
▁prophetess	-8499
▁reconciled	-8500
▁successful	-8501
▁supporting	-8502
▁temptation	-8503
▁watchtower	-8504
▁Ephraimites	-8505
▁accountable	-8506
▁destructive	-8507
▁discernment	-8508
▁foolishness	-8509
▁handbreadth	-8510
▁magistrates	-8511
▁marketplace	-8512
▁overflowing	-8513
▁overpowered	-8514
▁pastureland	-8515
▁unbelievers	-8516
▁Belteshazzar	-8517
▁Netophathite	-8518
▁acknowledged	-8519
▁condemnation	-8520
▁consequences	-8521
▁Righteousness	-8522
▁circumstances	-8523
▁administrators	-8524
IN	-8525
bu	-8526
ee	-8527
ga	-8528
ma	-8529
tw	-8530
Dan	-8531
Far	-8532
Jer	-8533
Joh	-8534
aah	-8535
ana	-8536
ann	-8537
cor	-8538
eak	-8539
fif	-8540
ggs	-8541
gin	-8542
hom	-8543
ila	-8544
iny	-8545
loy	-8546
ont	-8547
rod	-8548
ses	-8549
tor	-8550
uke	-8551
zek	-8552
zor	-8553
▁Av	-8554
▁Em	-8555
▁Mi	-8556
▁Sl	-8557
John	-8558
Turn	-8559
Well	-8560
acks	-8561
aign	-8562
alry	-8563
aped	-8564
arel	-8565
asem	-8566
bite	-8567
cons	-8568
diel	-8569
erse	-8570
feit	-8571
glah	-8572
hesy	-8573
iber	-8574
iscu	-8575
join	-8576
laim	-8577
oard	-8578
only	-8579
onor	-8580
phel	-8581
pted	-8582
rede	-8583
reme	-8584
rewd	-8585
rung	-8586
shan	-8587
ster	-8588
tles	-8589
tops	-8590
ture	-8591
ulty	-8592
umah	-8593
usel	-8594
vaim	-8595
▁Aqu	-8596
▁Aze	-8597
▁Dod	-8598
▁Gol	-8599
▁Hal	-8600
▁Hus	-8601
▁Luz	-8602
▁Pho	-8603
▁Pot	-8604
▁Rav	-8605
▁Sho	-8606
▁Six	-8607
▁Tou	-8608
▁Tre	-8609
▁Zil	-8610
▁aut	-8611
▁bab	-8612
▁bew	-8613
▁cas	-8614
▁cav	-8615
▁dim	-8616
▁fix	-8617
▁fod	-8618
▁jum	-8619
▁mod	-8620
▁mot	-8621
▁peg	-8622
▁tar	-8623
▁tip	-8624
Judah	-8625
Simon	-8626
Whose	-8627
abbok	-8628
acted	-8629
arant	-8630
arest	-8631
aviah	-8632
first	-8633
iator	-8634
illem	-8635
inger	-8636
ingly	-8637
inoam	-8638
iring	-8639
itage	-8640
known	-8641
liath	-8642
merly	-8643
odice	-8644
oenai	-8645
olish	-8646
orary	-8647
ounty	-8648
pense	-8649
phesy	-8650
ppers	-8651
rarch	-8652
saida	-8653
udder	-8654
ulate	-8655
ultiv	-8656
ummim	-8657
uster	-8658
zebub	-8659
▁Adah	-8660
▁Amos	-8661
▁Away	-8662
▁Azel	-8663
▁Bear	-8664
▁Ebal	-8665
▁Girg	-8666
▁Hakk	-8667
▁Hold	-8668
▁Jarm	-8669
▁Liby	-8670
▁Live	-8671
▁Long	-8672
▁Mass	-8673
▁Meon	-8674
▁Neph	-8675
▁Obey	-8676
▁Onan	-8677
▁Oreb	-8678
▁Peth	-8679
▁Shal	-8680
▁Sham	-8681
▁Tish	-8682
▁Tola	-8683
▁Whom	-8684
▁Zoan	-8685
▁anch	-8686
▁arts	-8687
▁axes	-8688
▁balm	-8689
▁bere	-8690
▁bone	-8691
▁brow	-8692
▁chew	-8693
▁dart	-8694
▁dash	-8695
▁dign	-8696
▁eggs	-8697
▁fath	-8698
▁fork	-8699
▁hire	-8700
▁hole	-8701
▁knee	-8702
▁late	-8703
▁lazy	-8704
▁lets	-8705
▁magn	-8706
▁mate	-8707
▁mule	-8708
▁pard	-8709
▁poll	-8710
▁seam	-8711
▁slip	-8712
▁stew	-8713
▁stup	-8714
▁sugg	-8715
▁swir	-8716
▁thin	-8717
▁upst	-8718
▁wage	-8719
Friend	-8720
Gather	-8721
Strike	-8722
arters	-8723
bushes	-8724
camore	-8725
fected	-8726
incial	-8727
nereth	-8728
ording	-8729
panhes	-8730
raised	-8731
remoth	-8732
shaped	-8733
ulated	-8734
urable	-8735
uselah	-8736
▁Acbor	-8737
▁Achan	-8738
▁Basem	-8739
▁Begin	-8740
▁Break	-8741
▁Elath	-8742
▁Ezion	-8743
▁Galat	-8744
▁Gedor	-8745
▁Ittai	-8746
▁Jabin	-8747
▁Jamin	-8748
▁Jared	-8749
▁Kenan	-8750
▁Ladan	-8751
▁Laish	-8752
▁Lotan	-8753
▁Moons	-8754
▁Prisc	-8755
▁Speak	-8756
▁Stone	-8757
▁Watch	-8758
▁admon	-8759
▁alarm	-8760
▁apple	-8761
▁apply	-8762
▁awoke	-8763
▁brook	-8764
▁casts	-8765
▁churn	-8766
▁climb	-8767
▁couch	-8768
▁crave	-8769
▁curds	-8770
▁dance	-8771
▁dared	-8772
▁depra	-8773
▁depri	-8774
▁doctr	-8775
▁doorf	-8776
▁draws	-8777
▁dross	-8778
▁elder	-8779
▁firep	-8780
▁fords	-8781
▁haste	-8782
▁hopes	-8783
▁indic	-8784
▁lasts	-8785
▁loins	-8786
▁maids	-8787
▁marsh	-8788
▁meets	-8789
▁noisy	-8790
▁quake	-8791
▁ramps	-8792
▁razor	-8793
▁remed	-8794
▁seals	-8795
▁seats	-8796
▁seeds	-8797
▁smash	-8798
▁smold	-8799
▁soles	-8800
▁solid	-8801
▁state	-8802
▁subst	-8803
▁train	-8804
▁trait	-8805
▁unity	-8806
▁usual	-8807
▁waits	-8808
▁wiser	-8809
Abraham	-8810
Nothing	-8811
ashites	-8812
control	-8813
ificate	-8814
istrict	-8815
otioned	-8816
ualties	-8817
▁Abarim	-8818
▁Aquila	-8819
▁Arabia	-8820
▁Azekah	-8821
▁Cyrene	-8822
▁Hanoch	-8823
▁Hoglah	-8824
▁Jabbok	-8825
▁Jahath	-8826
▁Ravine	-8827
▁Redeem	-8828
▁Salmon	-8829
▁Within	-8830
▁Zilpah	-8831
▁Zippor	-8832
▁aboard	-8833
▁abound	-8834
▁action	-8835
▁annual	-8836
▁autumn	-8837
▁begins	-8838
▁blazed	-8839
▁blight	-8840
▁booths	-8841
▁bother	-8842
▁bounty	-8843
▁bowing	-8844
▁clasps	-8845
▁crimes	-8846
▁cultiv	-8847
▁dashed	-8848
▁devout	-8849
▁dipped	-8850
▁doomed	-8851
▁easier	-8852
▁engulf	-8853
▁entice	-8854
▁esteem	-8855
▁exalts	-8856
▁fleece	-8857
▁fodder	-8858
▁groans	-8859
▁helmet	-8860
▁hinder	-8861
▁injury	-8862
▁jailer	-8863
▁labore	-8864
▁latter	-8865
▁louder	-8866
▁loudly	-8867
▁lowest	-8868
▁luxury	-8869
▁manner	-8870
▁mature	-8871
▁nearly	-8872
▁offend	-8873
▁office	-8874
▁overse	-8875
▁parted	-8876
▁pearls	-8877
▁physic	-8878
▁powder	-8879
▁pushed	-8880
▁quiver	-8881
▁raided	-8882
▁reaper	-8883
▁reduce	-8884
▁relied	-8885
▁remote	-8886
▁revolt	-8887
▁shrewd	-8888
▁staffs	-8889
▁sweeps	-8890
▁symbol	-8891
▁treads	-8892
▁tunics	-8893
▁wasted	-8894
▁wolves	-8895
Tomorrow	-8896
children	-8897
ertainly	-8898
redeemer	-8899
▁Delaiah	-8900
▁Delilah	-8901
▁Deliver	-8902
▁Edomite	-8903
▁Gershom	-8904
▁Goliath	-8905
▁Havilah	-8906
▁Jarmuth	-8907
▁Laodice	-8908
▁Malluch	-8909
▁Matthew	-8910
▁Philipp	-8911
▁Shimron	-8912
▁Shishak	-8913
▁Someone	-8914
▁Taanach	-8915
▁anybody	-8916
▁applied	-8917
▁approve	-8918
▁beating	-8919
▁betrays	-8920
▁boasted	-8921
▁burying	-8922
▁capital	-8923
▁cavalry	-8924
▁challen	-8925
▁cleared	-8926
▁convict	-8927
▁custody	-8928
▁daytime	-8929
▁defiles	-8930
▁descent	-8931
▁drivers	-8932
▁dungeon	-8933
▁efforts	-8934
▁endless	-8935
▁engaged	-8936
▁ensnare	-8937
▁envious	-8938
▁experts	-8939
▁farmers	-8940
▁fearful	-8941
▁finally	-8942
▁flatter	-8943
▁forgave	-8944
▁grazing	-8945
▁guarant	-8946
▁healthy	-8947
▁indulge	-8948
▁javelin	-8949
▁justify	-8950
▁kindled	-8951
▁manager	-8952
▁mockers	-8953
▁movable	-8954
▁musical	-8955
▁nearest	-8956
▁passage	-8957
▁pervers	-8958
▁pierces	-8959
▁prevent	-8960
▁prolong	-8961
▁promote	-8962
▁quietly	-8963
▁raiders	-8964
▁raisins	-8965
▁refuses	-8966
▁renewed	-8967
▁scorned	-8968
▁seasons	-8969
▁secrets	-8970
▁selfish	-8971
▁shudder	-8972
▁smaller	-8973
▁stilled	-8974
▁stubble	-8975
▁supplic	-8976
▁surging	-8977
▁tempest	-8978
▁trimmed	-8979
Celebrate	-8980
▁Basemath	-8981
▁Elioenai	-8982
▁Elnathan	-8983
▁Gamaliel	-8984
▁Jeshaiah	-8985
▁Likewise	-8986
▁Meremoth	-8987
▁Shepherd	-8988
▁accurate	-8989
▁accusing	-8990
▁ambition	-8991
▁appealed	-8992
▁believer	-8993
▁burdened	-8994
▁campaign	-8995
▁capstone	-8996
▁carriers	-8997
▁dedicate	-8998
▁denarius	-8999
▁directly	-9000
▁disperse	-9001
▁dividing	-9002
▁divorces	-9003
▁drunkard	-9004
▁embraced	-9005
▁enduring	-9006
▁escaping	-9007
▁explored	-9008
▁flashing	-9009
▁gnashing	-9010
▁greeting	-9011
▁grievous	-9012
▁guidance	-9013
▁heritage	-9014
▁homeland	-9015
▁imported	-9016
▁insisted	-9017
▁involved	-9018
▁kingship	-9019
▁lifeless	-9020
▁mediator	-9021
▁midwives	-9022
▁motioned	-9023
▁particip	-9024
▁personal	-9025
▁promiscu	-9026
▁pursuers	-9027
▁quantity	-9028
▁reckoned	-9029
▁requests	-9030
▁sapphire	-9031
▁scatters	-9032
▁solemnly	-9033
▁streaked	-9034
▁subjects	-9035
▁superior	-9036
▁sycamore	-9037
▁tetrarch	-9038
▁thankful	-9039
▁torrents	-9040
▁treading	-9041
▁wickedly	-9042
▁Beelzebub	-9043
▁Bethsaida	-9044
▁Kinnereth	-9045
▁Priscilla	-9046
▁Sacrifice	-9047
▁Slaughter	-9048
▁Tahpanhes	-9049
▁amazement	-9050
▁attentive	-9051
▁battering	-9052
▁believing	-9053
▁besieging	-9054
▁bracelets	-9055
▁character	-9056
▁condition	-9057
▁conscript	-9058
▁considers	-9059
▁dedicates	-9060
▁deserving	-9061
▁elsewhere	-9062
▁encircled	-9063
▁entertain	-9064
▁expecting	-9065
▁favorably	-9066
▁forgiving	-9067
▁grandsons	-9068
▁honorable	-9069
▁ignorance	-9070
▁incurable	-9071
▁isolation	-9072
▁obstinate	-9073
▁prospered	-9074
▁quarreled	-9075
▁reclining	-9076
▁scripture	-9077
▁seventeen	-9078
▁stretches	-9079
▁structure	-9080
▁subjected	-9081
▁surprised	-9082
▁temporary	-9083
▁tormented	-9084
▁yesterday	-9085
▁Jezreelite	-9086
▁Kiriathaim	-9087
▁Methuselah	-9088
▁Pelethites	-9089
▁accusation	-9090
▁administer	-9091
▁adulteries	-9092
▁beforehand	-9093
▁casualties	-9094
▁circumcise	-9095
▁commanding	-9096
▁controlled	-9097
▁descending	-9098
▁difference	-9099
▁difficulty	-9100
▁directions	-9101
▁dishonored	-9102
▁displeased	-9103
▁dispossess	-9104
▁hailstones	-9105
▁households	-9106
▁increasing	-9107
▁multiplied	-9108
▁ordinances	-9109
▁provincial	-9110
▁quarreling	-9111
▁worshipers	-9112
▁Girgashites	-9113
▁accessories	-9114
▁celebration	-9115
▁certificate	-9116
▁distinction	-9117
▁divinations	-9118
▁embroiderer	-9119
▁encouraging	-9120
▁forevermore	-9121
▁quarrelsome	-9122
▁supervision	-9123
▁treacherous	-9124
▁unbelieving	-9125
▁unrighteous	-9126
▁accomplished	-9127
▁grasshoppers	-9128
▁administrator	-9129
▁grandchildren	-9130
▁strengthening	-9131
En	-9132
Of	-9133
ez	-9134
uc	-9135
za	-9136
Con	-9137
Hos	-9138
ING	-9139
Zeb	-9140
akk	-9141
ape	-9142
bly	-9143
bow	-9144
che	-9145
com	-9146
dol	-9147
gad	-9148
gai	-9149
got	-9150
gra	-9151
heg	-9152
hoh	-9153
ibb	-9154
ica	-9155
iza	-9156
lam	-9157
lls	-9158
nds	-9159
opy	-9160
pad	-9161
phy	-9162
ply	-9163
pri	-9164
quo	-9165
sha	-9166
shi	-9167
uar	-9168
vai	-9169
vil	-9170
why	-9171
yes	-9172
zib	-9173
▁JE	-9174
Alas	-9175
Aren	-9176
Fall	-9177
Flee	-9178
Like	-9179
Phar	-9180
Rise	-9181
Sams	-9182
achp	-9183
ahar	-9184
avah	-9185
bery	-9186
dess	-9187
dish	-9188
emus	-9189
erer	-9190
eses	-9191
fers	-9192
fold	-9193
fted	-9194
ghed	-9195
have	-9196
iael	-9197
icus	-9198
iety	-9199
ioth	-9200
ital	-9201
iter	-9202
line	-9203
ogel	-9204
olon	-9205
ping	-9206
ream	-9207
rief	-9208
road	-9209
shad	-9210
stra	-9211
uick	-9212
ular	-9213
urse	-9214
zeel	-9215
▁Add	-9216
▁Ang	-9217
▁Ari	-9218
▁Bak	-9219
▁Buz	-9220
▁Com	-9221
▁Cut	-9222
▁Dem	-9223
▁Dis	-9224
▁Gem	-9225
▁Gen	-9226
▁Kib	-9227
▁Lah	-9228
▁Mik	-9229
▁Off	-9230
▁Pay	-9231
▁Reu	-9232
▁Run	-9233
▁Sel	-9234
▁Sha	-9235
▁Ten	-9236
▁Ter	-9237
▁ado	-9238
▁ank	-9239
▁ash	-9240
▁dam	-9241
▁ewe	-9242
▁fab	-9243
▁gle	-9244
▁isn	-9245
▁jaw	-9246
▁jug	-9247
▁lad	-9248
▁lav	-9249
▁pap	-9250
▁rud	-9251
▁sed	-9252
▁sne	-9253
▁thw	-9254
▁unl	-9255
▁urg	-9256
,000.	-9257
Aaron	-9258
Build	-9259
Drink	-9260
Hanan	-9261
Jacob	-9262
Piles	-9263
Woman	-9264
Would	-9265
acies	-9266
andra	-9267
arers	-9268
asaph	-9269
ators	-9270
chcra	-9271
eling	-9272
ellow	-9273
erior	-9274
eshem	-9275
ethai	-9276
gates	-9277
guard	-9278
ifter	-9279
ihail	-9280
ingst	-9281
ipped	-9282
irsty	-9283
itess	-9284
lings	-9285
loyed	-9286
oring	-9287
racks	-9288
ranch	-9289
rated	-9290
rayed	-9291
rikam	-9292
shiah	-9293
their	-9294
there	-9295
ubael	-9296
ummon	-9297
until	-9298
urred	-9299
veled	-9300
veral	-9301
vites	-9302
▁Abib	-9303
▁Ahio	-9304
▁Aiah	-9305
▁Caph	-9306
▁Cast	-9307
▁Didn	-9308
▁Elim	-9309
▁Find	-9310
▁Gedi	-9311
▁Gibb	-9312
▁Gidd	-9313
▁Hare	-9314
▁Help	-9315
▁Hoph	-9316
▁Icon	-9317
▁Jaaz	-9318
▁Jael	-9319
▁Josh	-9320
▁KING	-9321
▁Land	-9322
▁Pont	-9323
▁Raam	-9324
▁Sell	-9325
▁Shur	-9326
▁Zeeb	-9327
▁amid	-9328
▁arch	-9329
▁aren	-9330
▁attr	-9331
▁chis	-9332
▁coat	-9333
▁crou	-9334
▁dens	-9335
▁dyed	-9336
▁emer	-9337
▁fade	-9338
▁fain	-9339
▁fawn	-9340
▁flax	-9341
▁goal	-9342
▁gore	-9343
▁heel	-9344
▁lick	-9345
▁lied	-9346
▁loan	-9347
▁lobe	-9348
▁oars	-9349
▁obsc	-9350
▁orig	-9351
▁orph	-9352
▁pest	-9353
▁popl	-9354
▁qual	-9355
▁quot	-9356
▁rope	-9357
▁rush	-9358
▁sigh	-9359
▁sock	-9360
▁spew	-9361
▁subs	-9362
▁swim	-9363
▁ties	-9364
▁twin	-9365
▁unit	-9366
▁wolf	-9367
Samson	-9368
action	-9369
arezer	-9370
athers	-9371
cerity	-9372
ensive	-9373
erable	-9374
headed	-9375
itudes	-9376
litary	-9377
odemus	-9378
ounces	-9379
quoise	-9380
retion	-9381
risons	-9382
ronted	-9383
twenty	-9384
ulsive	-9385
waters	-9386
zaphan	-9387
▁Arabs	-9388
▁Arist	-9389
▁Arpad	-9390
▁Artem	-9391
▁Bebai	-9392
▁Beker	-9393
▁Blood	-9394
▁Count	-9395
▁Death	-9396
▁Gihon	-9397
▁Kedem	-9398
▁Machp	-9399
▁Night	-9400
▁Pallu	-9401
▁Phoen	-9402
▁Rogel	-9403
▁Serug	-9404
▁Shaal	-9405
▁Shema	-9406
▁Sheth	-9407
▁Shual	-9408
▁Timna	-9409
▁Troas	-9410
▁areas	-9411
▁based	-9412
▁bells	-9413
▁blown	-9414
▁board	-9415
▁brand	-9416
▁brick	-9417
▁brief	-9418
▁brill	-9419
▁buyer	-9420
▁chang	-9421
▁chann	-9422
▁cheer	-9423
▁clubs	-9424
▁crumb	-9425
▁depth	-9426
▁doesn	-9427
▁dwelt	-9428
▁filig	-9429
▁fills	-9430
▁final	-9431
▁fixed	-9432
▁fores	-9433
▁forks	-9434
▁glutt	-9435
▁gnats	-9436
▁habit	-9437
▁heals	-9438
▁herbs	-9439
▁knife	-9440
▁knock	-9441
▁lawsu	-9442
▁legal	-9443
▁liber	-9444
▁minas	-9445
▁ninet	-9446
▁offal	-9447
▁oppon	-9448
▁patch	-9449
▁picks	-9450
▁plank	-9451
▁pools	-9452
▁princ	-9453
▁purse	-9454
▁rides	-9455
▁seahs	-9456
▁seers	-9457
▁semen	-9458
▁sheaf	-9459
▁shone	-9460
▁shuts	-9461
▁sleek	-9462
▁sting	-9463
▁stole	-9464
▁stork	-9465
▁stump	-9466
▁tasty	-9467
▁traps	-9468
▁tresp	-9469
▁untie	-9470
▁valid	-9471
▁weeks	-9472
▁whips	-9473
▁worst	-9474
Command	-9475
Crucify	-9476
Hosanna	-9477
Pharaoh	-9478
Pileser	-9479
Rejoice	-9480
cessive	-9481
chcraft	-9482
ielding	-9483
ishable	-9484
istered	-9485
thirsty	-9486
veloped	-9487
watered	-9488
▁Accept	-9489
▁Ammiel	-9490
▁Arioch	-9491
▁Azarel	-9492
▁Baalah	-9493
▁Bigvai	-9494
▁Branch	-9495
▁Choose	-9496
▁Eshcol	-9497
▁Eshtem	-9498
▁Forest	-9499
▁Greece	-9500
▁Hodiah	-9501
▁Jairus	-9502
▁Jashub	-9503
▁Joktan	-9504
▁Judean	-9505
▁Kishon	-9506
▁Lystra	-9507
▁Master	-9508
▁Migdol	-9509
▁Naioth	-9510
▁Pahath	-9511
▁Palace	-9512
▁Parosh	-9513
▁Peniel	-9514
▁Prepar	-9515
▁Tahath	-9516
▁Talmai	-9517
▁atoned	-9518
▁attain	-9519
▁backsl	-9520
▁bestow	-9521
▁budded	-9522
▁canopy	-9523
▁closer	-9524
▁contro	-9525
▁counts	-9526
▁cousin	-9527
▁devise	-9528
▁eagles	-9529
▁entang	-9530
▁excuse	-9531
▁fabric	-9532
▁favors	-9533
▁fights	-9534
▁floors	-9535
▁futile	-9536
▁grandd	-9537
▁guided	-9538
▁harder	-9539
▁headed	-9540
▁heaped	-9541
▁hearth	-9542
▁hospit	-9543
▁income	-9544
▁inlaid	-9545
▁invoke	-9546
▁justly	-9547
▁kindly	-9548
▁lacked	-9549
▁laughs	-9550
▁lesson	-9551
▁mandra	-9552
▁manger	-9553
▁midday	-9554
▁mortar	-9555
▁obtain	-9556
▁perman	-9557
▁perple	-9558
▁played	-9559
▁plunge	-9560
▁posted	-9561
▁preced	-9562
▁quench	-9563
▁ravage	-9564
▁ravine	-9565
▁reared	-9566
▁remedy	-9567
▁sandal	-9568
▁sashes	-9569
▁shakes	-9570
▁sooner	-9571
▁source	-9572
▁string	-9573
▁strips	-9574
▁supper	-9575
▁taunts	-9576
▁thongs	-9577
▁throws	-9578
▁toiled	-9579
▁tumult	-9580
▁unchan	-9581
▁wafers	-9582
▁wilder	-9583
▁wished	-9584
Assemble	-9585
Consider	-9586
aughters	-9587
cendants	-9588
ingstock	-9589
ribution	-9590
▁Abiezer	-9591
▁Abihail	-9592
▁Ahiezer	-9593
▁Ahinoam	-9594
▁Azrikam	-9595
▁Caphtor	-9596
▁Command	-9597
▁Counsel	-9598
▁Iconium	-9599
▁Isshiah	-9600
▁Jediael	-9601
▁Shammai	-9602
▁Shammua	-9603
▁Shubael	-9604
▁Tiglath	-9605
▁Worship	-9606
▁abstain	-9607
▁anxiety	-9608
▁anxious	-9609
▁applies	-9610
▁baskets	-9611
▁binding	-9612
▁blemish	-9613
▁callous	-9614
▁capable	-9615
▁casting	-9616
▁complac	-9617
▁connect	-9618
▁craving	-9619
▁crucify	-9620
▁delayed	-9621
▁demands	-9622
▁despite	-9623
▁destiny	-9624
▁discuss	-9625
▁drowned	-9626
▁enabled	-9627
▁exploit	-9628
▁farther	-9629
▁fashion	-9630
▁favored	-9631
▁goblets	-9632
▁goddess	-9633
▁grasped	-9634
▁grating	-9635
▁heavier	-9636
▁humbles	-9637
▁imitate	-9638
▁incited	-9639
▁include	-9640
▁intense	-9641
▁introdu	-9642
▁invites	-9643
▁kinsmen	-9644
▁laughed	-9645
▁leopard	-9646
▁lodging	-9647
▁lookout	-9648
▁mission	-9649
▁mocking	-9650
▁monster	-9651
▁nullify	-9652
▁nursing	-9653
▁obeying	-9654
▁outcome	-9655
▁partner	-9656
▁persist	-9657
▁plowing	-9658
▁poorest	-9659
▁procons	-9660
▁rainbow	-9661
▁reddish	-9662
▁replace	-9663
▁revelry	-9664
▁sailors	-9665
▁several	-9666
▁sharing	-9667
▁slipped	-9668
▁snuffed	-9669
▁sparing	-9670
▁spurned	-9671
▁stained	-9672
▁strayed	-9673
▁swifter	-9674
▁tearing	-9675
▁thicket	-9676
▁torrent	-9677
▁traders	-9678
▁unknown	-9679
▁upholds	-9680
▁verdict	-9681
▁violate	-9682
▁vulture	-9683
▁wearied	-9684
▁withdra	-9685
uspecting	-9686
▁Eliasaph	-9687
▁Hagrites	-9688
▁Herodias	-9689
▁Hodaviah	-9690
▁Jahaziel	-9691
▁Laodicea	-9692
▁Meraioth	-9693
▁Oholibah	-9694
▁Pekahiah	-9695
▁Philippi	-9696
▁Temanite	-9697
▁Tishbite	-9698
▁ancestry	-9699
▁appetite	-9700
▁attended	-9701
▁barracks	-9702
▁breastpl	-9703
▁cisterns	-9704
▁comforts	-9705
▁compared	-9706
▁concerns	-9707
▁consoled	-9708
▁couriers	-9709
▁crushing	-9710
▁diligent	-9711
▁diseased	-9712
▁emission	-9713
▁excluded	-9714
▁feathers	-9715
▁filigree	-9716
▁flawless	-9717
▁fleeting	-9718
▁gateways	-9719
▁grinding	-9720
▁harvests	-9721
▁herdsmen	-9722
▁inferior	-9723
▁informed	-9724
▁inserted	-9725
▁interpre	-9726
▁lavished	-9727
▁magnific	-9728
▁obtained	-9729
▁overshad	-9730
▁persuade	-9731
▁prospers	-9732
▁purchase	-9733
▁reasoned	-9734
▁reliable	-9735
▁reserved	-9736
▁roadside	-9737
▁shelters	-9738
▁solitary	-9739
▁stirring	-9740
▁striking	-9741
▁surprise	-9742
▁swelling	-9743
▁tolerate	-9744
▁treating	-9745
▁trespass	-9746
▁unbelief	-9747
▁undergar	-9748
▁upraised	-9749
▁upstairs	-9750
▁wretched	-9751
Consecrate	-9752
▁Ashtaroth	-9753
▁Celebrate	-9754
▁Elimelech	-9755
▁Ephrathah	-9756
▁Machpelah	-9757
▁Moabitess	-9758
▁Nathanael	-9759
▁Nicodemus	-9760
▁Shebaniah	-9761
▁affection	-9762
▁attendant	-9763
▁attending	-9764
▁compelled	-9765
▁conferred	-9766
▁customary	-9767
▁departure	-9768
▁devastate	-9769
▁diligence	-9770
▁disclosed	-9771
▁dishonors	-9772
▁dispersed	-9773
▁doorposts	-9774
▁excessive	-9775
▁festering	-9776
▁fishermen	-9777
▁forsaking	-9778
▁happiness	-9779
▁hypocrisy	-9780
▁indignant	-9781
▁innocence	-9782
▁inscribed	-9783
▁insolence	-9784
▁languages	-9785
▁murderers	-9786
▁mysteries	-9787
▁obligated	-9788
▁overtakes	-9789
▁paralyzed	-9790
▁pleasures	-9791
▁purchased	-9792
▁regarding	-9793
▁religious	-9794
▁repulsive	-9795
▁restraint	-9796
▁sharpened	-9797
▁sincerity	-9798
▁sovereign	-9799
▁successor	-9800
▁turquoise	-9801
▁whitewash	-9802
▁wondering	-9803
ircumcision	-9804
▁Ashtoreths	-9805
▁Ephraimite	-9806
▁Sepharvaim	-9807
▁altogether	-9808
▁annihilate	-9809
▁birthright	-9810
▁childbirth	-9811
▁counselors	-9812
▁delicacies	-9813
▁destroyers	-9814
▁enchanters	-9815
▁floodgates	-9816
▁gentleness	-9817
▁harvesting	-9818
▁multiplies	-9819
▁opposition	-9820
▁overturned	-9821
▁patriarchs	-9822
▁perishable	-9823
▁presenting	-9824
▁previously	-9825
▁rebuilding	-9826
▁restrained	-9827
▁ruthlessly	-9828
▁submission	-9829
▁threatened	-9830
▁vegetation	-9831
▁vindicated	-9832
▁witchcraft	-9833
▁Ishmaelites	-9834
▁Preparation	-9835
▁cornerstone	-9836
▁deceitfully	-9837
▁disciplines	-9838
▁exceedingly	-9839
▁investigate	-9840
▁outstanding	-9841
▁retribution	-9842
▁seventeenth	-9843
▁thornbushes	-9844
▁Thessalonica	-9845
▁acknowledges	-9846
▁imperishable	-9847
▁marketplaces	-9848
▁overwhelming	-9849
▁stonecutters	-9850
▁unsuspecting	-9851
▁laughingstock	-9852
Ad	-9853
gy	-9854
ny	-9855
pr	-9856
Att	-9857
Bal	-9858
Eph	-9859
Two	-9860
bec	-9861
bod	-9862
bra	-9863
car	-9864
des	-9865
ems	-9866
eps	-9867
eur	-9868
ews	-9869
fed	-9870
gob	-9871
ita	-9872
kin	-9873
kki	-9874
lia	-9875
oom	-9876
pse	-9877
rot	-9878
tah	-9879
tam	-9880
was	-9881
zen	-9882
zza	-9883
▁).	-9884
▁Ak	-9885
▁Co	-9886
▁Ir	-9887
▁Pl	-9888
▁Pu	-9889
▁Te	-9890
▁je	-9891
Away	-9892
Lift	-9893
Pray	-9894
Shua	-9895
Sing	-9896
Stop	-9897
aism	-9898
aius	-9899
aleh	-9900
also	-9901
amon	-9902
apse	-9903
arah	-9904
attu	-9905
azim	-9906
bbed	-9907
bing	-9908
bone	-9909
bush	-9910
cken	-9911
cran	-9912
draw	-9913
eded	-9914
emor	-9915
enes	-9916
goat	-9917
hind	-9918
host	-9919
ibly	-9920
idan	-9921
idim	-9922
ihor	-9923
ilud	-9924
imus	-9925
kath	-9926
lers	-9927
llen	-9928
loth	-9929
mind	-9930
nade	-9931
▁	-9932
e	-9933
t	-9934
o	-9935
a	-9936
h	-9937
n	-9938
s	-9939
i	-9940
r	-9941
d	-9942
l	-9943
u	-9944
m	-9945
f	-9946
w	-9947
y	-9948
g	-9949
c	-9950
,	-9951
p	-9952
b	-9953
.	-9954
v	-9955
k	-9956
"	-9957
I	-9958
T	-9959
D	-9960
L	-9961
O	-9962
A	-9963
R	-9964
J	-9965
S	-9966
'	-9967
G	-9968
;	-9969
H	-9970
-	-9971
B	-9972
W	-9973
M	-9974
?	-9975
E	-9976
z	-9977
:	-9978
j	-9979
P	-9980
N	-9981
Y	-9982
F	-9983
x	-9984
!	-9985
C	-9986
Z	-9987
K	-9988
q	-9989
0	-9990
(	-9991
)	-9992
