[PAD]	0
[UNK]	0
[BOS]	0
[EOS]	0
[SEP]	0
[CLS]	0
[MASK]	0
▁그	-0
▁하	-1
▁이	-2
▁사	-3
▁주	-4
▁것	-5
에게	-6
▁나	-7
▁아	-8
▁사람	-9
▁말	-10
▁너	-11
니다	-12
▁내	-13
▁있	-14
▁가	-15
이다	-16
에서	-17
▁자	-18
▁모	-19
▁그들	-20
▁다	-21
께서	-22
으로	-23
▁하나	-24
▁"	-25
▁너희	-26
▁여	-27
였다	-28
▁일	-29
▁지	-30
▁하나님	-31
▁바	-32
▁보	-33
▁때	-34
▁것이다	-35
▁않	-36
▁예	-37
▁우	-38
▁내가	-39
습니다	-40
하여	-41
들이	-42
▁마	-43
▁한	-44
하였다	-45
▁기	-46
었다	-47
▁어	-48
▁우리	-49
."	-50
▁성	-51
▁그러	-52
▁왕	-53
▁주께서	-54
▁제	-55
▁거	-56
▁들	-57
▁없	-58
▁수	-59
▁땅	-60
스라	-61
▁모든	-62
▁되	-63
스라엘	-64
▁대	-65
▁살	-66
들을	-67
▁이스라엘	-68
▁있는	-69
▁말씀	-70
▁두	-71
▁것이	-72
▁백	-73
▁때에	-74
▁오	-75
하는	-76
▁부	-77
▁세	-78
시오	-79
▁만	-80
▁여러	-81
▁주의	-82
▁받	-83
셨다	-84
▁무	-85
▁백성	-86
▁죽	-87
들은	-88
▁사람이	-89
▁시	-90
▁예수	-91
▁네	-92
리고	-93
▁하고	-94
하게	-95
십시오	-96
▁안	-97
▁자기	-98
하고	-99
▁못	-100
▁주님	-101
입니다	-102
▁유	-103
▁돌	-104
렇게	-105
▁아들	-106
▁여러분	-107
운데	-108
▁자손	-109
▁그의	-110
▁같	-111
▁물	-112
▁전	-113
▁앞	-114
▁소	-115
▁불	-116
▁나는	-117
▁가운데	-118
▁해	-119
▁것을	-120
어서	-121
▁함	-122
▁또	-123
▁그들은	-124
▁명	-125
▁그러나	-126
▁저	-127
▁나를	-128
하지	-129
겠다	-130
▁요	-131
았다	-132
시고	-133
▁알	-134
▁남	-135
▁위	-136
까지	-137
라고	-138
▁고	-139
▁'	-140
▁그들이	-141
▁나의	-142
기를	-143
▁말씀하	-144
▁날	-145
▁영	-146
▁모두	-147
▁그는	-148
▁함께	-149
려고	-150
▁온	-151
▁말하였다	-152
▁곳	-153
▁그것	-154
▁사람은	-155
▁들어	-156
▁더	-157
▁동	-158
▁속	-159
므로	-160
▁누	-161
▁구	-162
▁손	-163
▁생	-164
▁길	-165
▁일을	-166
▁집	-167
들에게	-168
에는	-169
▁이렇게	-170
▁때문	-171
▁하여	-172
들과	-173
면서	-174
▁먹	-175
▁그가	-176
▁서	-177
▁너희는	-178
▁드	-179
▁도	-180
느냐	-181
시는	-182
▁신	-183
▁분	-184
▁죄	-185
▁계	-186
▁하나님의	-187
니까	-188
▁하였다	-189
▁한다	-190
다가	-191
한다	-192
리를	-193
▁마음	-194
버지	-195
▁그들을	-196
▁따	-197
▁너희가	-198
▁올	-199
▁다윗	-200
▁제사	-201
아라	-202
▁가운데서	-203
▁진	-204
▁임	-205
▁하나님이	-206
▁하는	-207
▁것입니다	-208
▁달	-209
▁곧	-210
▁비	-211
▁할	-212
▁아버지	-213
▁그들에게	-214
▁악	-215
처럼	-216
▁베	-217
리는	-218
▁종	-219
▁예수께서	-220
▁조	-221
▁열	-222
▁뒤	-223
들의	-224
▁말을	-225
▁사람을	-226
▁산	-227
▁입	-228
▁버	-229
▁사람들이	-230
▁그런	-231
▁그들의	-232
▁그를	-233
▁거기	-234
▁있다	-235
와서	-236
하였	-237
▁그리	-238
▁에	-239
▁돌아	-240
▁유다	-241
▁정	-242
▁데	-243
대로	-244
▁나에게	-245
는데	-246
▁당	-247
▁이름	-248
▁말씀하셨다	-249
▁스	-250
▁재	-251
▁떠	-252
▁다음	-253
▁모세	-254
▁너는	-255
▁제사장	-256
▁많	-257
▁그에게	-258
▁그래	-259
▁성전	-260
으니	-261
루살	-262
▁장	-263
루살렘	-264
하여라	-265
▁네가	-266
▁너희의	-267
▁가지	-268
▁군	-269
▁피	-270
합니다	-271
▁예루살렘	-272
▁치	-273
▁놓	-274
▁이제	-275
▁사람의	-276
금님	-277
도록	-278
▁목	-279
부터	-280
?"	-281
▁앞에서	-282
▁성읍	-283
▁삼	-284
▁그리고	-285
▁번	-286
▁될	-287
▁의	-288
▁주십시오	-289
집트	-290
으며	-291
▁아니	-292
▁왕이	-293
▁미	-294
▁이집트	-295
▁우리가	-296
▁강	-297
▁선	-298
▁이것	-299
가서	-300
▁된	-301
▁듣	-302
▁것은	-303
셔서	-304
▁그래서	-305
▁언	-306
아서	-307
▁이르	-308
▁바로	-309
▁너희에게	-310
▁아무	-311
▁만들	-312
▁양	-313
하신	-314
▁대답	-315
▁야	-316
▁포	-317
▁같이	-318
▁엘	-319
▁머	-320
▁나라	-321
▁있었다	-322
물을	-323
▁보내	-324
▁임금님	-325
▁예언	-326
▁일이	-327
▁하늘	-328
▁몸	-329
▁여자	-330
▁경	-331
▁줄	-332
▁사랑	-333
▁형	-334
갔다	-335
▁다른	-336
▁은	-337
▁큰	-338
셨습니다	-339
▁하나님께서	-340
▁눈	-341
지만	-342
▁생각	-343
▁너를	-344
▁사람에게	-345
▁좋	-346
어나	-347
▁보고	-348
▁믿	-349
▁복	-350
▁그리스	-351
▁노	-352
리가	-353
▁새	-354
든지	-355
▁다시	-356
▁따라	-357
▁잘	-358
▁너의	-359
▁거룩	-360
▁반	-361
▁천	-362
▁동안	-363
▁가서	-364
▁그러므로	-365
▁갈	-366
▁원	-367
▁주께	-368
▁문	-369
▁넘	-370
으면	-371
▁사는	-372
▁않고	-373
▁그리스도	-374
▁누구	-375
▁딸	-376
습니까	-377
보다	-378
리아	-379
▁잡	-380
▁회	-381
▁살아	-382
▁발	-383
렸다	-384
이나	-385
▁섬	-386
▁위에	-387
▁인	-388
▁찾	-389
▁우리는	-390
▁얼	-391
▁행	-392
▁내려	-393
라도	-394
▁감	-395
▁건	-396
자가	-397
마다	-398
어라	-399
▁떠나	-400
▁여호	-401
▁이스라엘의	-402
식을	-403
이고	-404
▁하였	-405
▁너희를	-406
▁상	-407
▁사람들은	-408
▁깨	-409
▁대로	-410
▁땅을	-411
신다	-412
▁올라	-413
▁아내	-414
▁그것을	-415
▁귀	-416
▁지파	-417
▁차	-418
▁그런데	-419
▁간	-420
▁금	-421
▁주께서는	-422
▁심	-423
▁말한다	-424
▁레	-425
▁죄를	-426
▁사람들	-427
었습니다	-428
▁하지	-429
▁높	-430
▁배	-431
▁앞에	-432
▁공	-433
▁낳	-434
기에	-435
▁그렇게	-436
브라	-437
▁때문이다	-438
▁땅에	-439
▁말씀을	-440
▁말아라	-441
▁맞	-442
짐승	-443
▁우리의	-444
▁때문에	-445
▁있습니다	-446
▁율	-447
하며	-448
으므로	-449
▁조상	-450
는다	-451
▁떼	-452
▁무엇	-453
▁하여라	-454
▁벌	-455
▁땅에서	-456
에게서	-457
▁이름을	-458
▁민	-459
▁가져	-460
▁그대	-461
▁아이	-462
▁없다	-463
으나	-464
▁뒤에	-465
▁각	-466
▁용	-467
▁세상	-468
▁민족	-469
▁사울	-470
▁포도	-471
▁백성이	-472
▁찬	-473
▁부르	-474
▁않았	-475
▁어떤	-476
▁다음에	-477
▁된다	-478
▁두려	-479
▁영원	-480
왔다	-481
▁구원	-482
▁이런	-483
▁준	-484
십니다	-485
▁음	-486
▁와서	-487
▁우리를	-488
▁하나님께	-489
▁쳐	-490
▁친	-491
▁화	-492
▁평	-493
▁주님을	-494
▁옷	-495
▁힘	-496
▁자기의	-497
▁칼	-498
▁기름	-499
▁듣고	-500
지도	-501
▁두고	-502
▁야곱	-503
▁거기에	-504
▁일어나	-505
지를	-506
▁예언자	-507
▁명령	-508
▁하나님을	-509
▁걸	-510
▁대답하였다	-511
▁사람과	-512
▁둘	-513
▁영광	-514
▁가지고	-515
▁않았다	-516
▁바치	-517
▁그것은	-518
▁어찌	-519
내가	-520
▁지혜	-521
라는	-522
▁바빌	-523
▁지키	-524
▁엘리	-525
▁거기에서	-526
▁외	-527
▁말하	-528
▁실	-529
▁처	-530
▁허	-531
▁적	-532
▁싸	-533
▁약	-534
제물	-535
겠습니다	-536
▁악한	-537
▁데리고	-538
기는	-539
▁많은	-540
▁원수	-541
쳤다	-542
▁군대	-543
▁있을	-544
▁나무	-545
▁되었다	-546
▁사람들을	-547
▁안에	-548
▁제단	-549
▁개	-550
▁않으	-551
▁떨	-552
하시	-553
▁태	-554
▁없는	-555
▁율법	-556
▁형제	-557
▁증	-558
▁백성을	-559
▁길을	-560
▁방	-561
▁다스	-562
▁쓰	-563
▁같은	-564
▁앉	-565
▁것과	-566
어지	-567
▁타	-568
겠느냐	-569
리에	-570
▁끝	-571
▁레위	-572
▁않을	-573
▁그대로	-574
▁아론	-575
▁멸	-576
▁기도	-577
▁것이며	-578
▁그러자	-579
▁주시	-580
▁그분	-581
▁자손이	-582
▁광	-583
니아	-584
▁병	-585
▁울	-586
▁세우	-587
▁권	-588
거나	-589
▁우리에게	-590
▁짓	-591
어야	-592
▁당신	-593
▁끌	-594
▁참	-595
▁통	-596
▁얻	-597
▁여인	-598
▁맹	-599
▁곡	-600
▁본	-601
▁불러	-602
▁너에게	-603
▁하겠다	-604
▁족	-605
▁사람들에게	-606
▁창	-607
▁제자	-608
▁맡	-609
▁지나	-610
▁헤	-611
하다	-612
▁짐승	-613
▁거룩한	-614
음을	-615
▁사이	-616
▁두려워	-617
▁왕은	-618
▁천사	-619
▁여러분은	-620
▁하신	-621
▁오늘	-622
▁있었	-623
구나	-624
리와	-625
▁숫	-626
▁므	-627
들도	-628
▁지금	-629
▁죽은	-630
▁내게	-631
▁주가	-632
▁교	-633
기로	-634
이요	-635
너희	-636
▁요셉	-637
▁지켜	-638
▁아니라	-639
▁암	-640
▁맹세	-641
▁해주	-642
▁슬	-643
▁크	-644
▁제물	-645
로니아	-646
▁말이다	-647
▁솔	-648
로몬	-649
▁언약	-650
▁매	-651
가는	-652
떻게	-653
머니	-654
▁그러면	-655
▁솔로몬	-656
▁없습니다	-657
▁손에	-658
▁이루	-659
▁찬양	-660
▁하시	-661
이라고	-662
▁관	-663
서는	-664
▁먹을	-665
겠습니까	-666
▁바빌로니아	-667
▁밤	-668
▁절	-669
▁이미	-670
▁이것은	-671
▁블	-672
▁서로	-673
▁것이니	-674
▁십	-675
▁가르	-676
▁가문	-677
▁나타	-678
▁채	-679
▁여러분에게	-680
▁내리	-681
에서는	-682
▁어떻게	-683
▁바다	-684
▁여기	-685
▁이방	-686
려는	-687
▁왕의	-688
▁있고	-689
▁등	-690
▁먼	-691
▁가까	-692
▁주신	-693
레셋	-694
▁순	-695
▁일곱	-696
렀다	-697
▁누가	-698
▁받은	-699
▁손을	-700
▁팔	-701
▁어디	-702
▁어느	-703
▁말고	-704
▁받을	-705
▁얼굴	-706
▁아무도	-707
.'	-708
례를	-709
하면	-710
▁남자	-711
▁받아	-712
▁곳에	-713
▁알고	-714
▁블레셋	-715
나무	-716
▁나오	-717
▁뜻	-718
▁환	-719
▁라	-720
▁주었다	-721
▁백성에게	-722
▁여러분이	-723
▁기뻐	-724
▁잠	-725
려서	-726
심을	-727
브라함	-728
▁우상	-729
▁다윗이	-730
나는	-731
스로	-732
시다	-733
▁메	-734
▁주인	-735
▁밖	-736
군의	-737
▁법	-738
▁안에서	-739
▁망	-740
▁아비	-741
▁파	-742
▁도성	-743
야가	-744
▁분이	-745
▁아브라함	-746
▁보아라	-747
▁때에는	-748
▁왕에게	-749
▁막	-750
▁마음을	-751
▁가장	-752
▁날이	-753
▁생명	-754
▁심판	-755
하였습니다	-756
▁르	-757
가지	-758
▁어린	-759
▁향	-760
이는	-761
▁기록	-762
▁버리	-763
▁옷을	-764
▁어머니	-765
▁예수를	-766
▁무슨	-767
▁빼	-768
▁언제	-769
▁호	-770
▁되어	-771
▁느	-772
▁가득	-773
▁결	-774
▁만든	-775
▁좋은	-776
▁숨	-777
에도	-778
▁풀	-779
▁은혜	-780
▁만군의	-781
▁즐	-782
너는	-783
▁밭	-784
으신	-785
▁바울	-786
▁재앙	-787
▁아들이	-788
▁합니다	-789
▁빠	-790
▁나아	-791
▁않은	-792
▁덮	-793
▁빵	-794
▁기억	-795
듯이	-796
▁못할	-797
▁찾아	-798
▁아들은	-799
르는	-800
▁군인	-801
▁되었	-802
▁복을	-803
▁난	-804
▁놀	-805
▁차지	-806
수아	-807
이가	-808
▁뿌	-809
리로	-810
지는	-811
▁광야	-812
▁유대	-813
▁주고	-814
▁밀	-815
▁붙	-816
랍니다	-817
▁물었다	-818
▁황	-819
▁가까이	-820
▁주를	-821
▁바랍니다	-822
▁빛	-823
▁몰	-824
시니	-825
인데	-826
▁어찌하여	-827
▁단	-828
▁묻	-829
다고	-830
▁되고	-831
▁땅의	-832
▁몸을	-833
▁않는	-834
▁주시고	-835
▁벗	-836
▁브	-837
▁빌	-838
▁거두	-839
▁유산	-840
▁년	-841
▁담	-842
▁곡식	-843
▁주님은	-844
▁하나님은	-845
!"	-846
▁속에	-847
▁뽑	-848
▁육	-849
이었다	-850
▁터	-851
▁온갖	-852
▁여호수아	-853
▁규	-854
들아	-855
▁넘겨	-856
께서는	-857
▁다시는	-858
▁때까지	-859
로운	-860
▁숫양	-861
로부터	-862
쪽으로	-863
▁스스로	-864
해서	-865
▁없이	-866
▁되는	-867
르고	-868
▁예수께	-869
▁곁	-870
났다	-871
▁물을	-872
▁없고	-873
▁모세에게	-874
▁목숨	-875
하셨다	-876
시며	-877
▁거짓	-878
▁다니	-879
▁아래	-880
▁하면	-881
▁(	-882
▁모세가	-883
▁골	-884
야의	-885
임을	-886
지고	-887
▁드리	-888
▁얼마	-889
▁바치는	-890
▁사람도	-891
았습니다	-892
▁히	-893
▁멸망	-894
▁전에	-895
사를	-896
▁갔다	-897
▁나와	-898
▁진노	-899
▁자손에게	-900
▁희	-901
거든	-902
▁꾸	-903
▁압	-904
▁잔	-905
▁책	-906
드로	-907
없이	-908
▁집안	-909
▁가족	-910
▁맺	-911
▁머물	-912
▁게	-913
▁백성은	-914
▁하셨다	-915
▁못하게	-916
▁칠	-917
▁나누	-918
▁날에	-919
▁편	-920
▁없을	-921
하면서	-922
▁직	-923
▁쫓	-924
리지	-925
▁지도	-926
▁다음과	-927
시키	-928
▁그와	-929
▁열매	-930
▁오른	-931
▁요단	-932
▁이끌	-933
▁저주	-934
▁못한다	-935
거라	-936
▁많이	-937
▁바라	-938
▁들어가	-939
▁포도주	-940
져서	-941
▁말이	-942
▁모압	-943
▁왔다	-944
▁멀	-945
▁섬기	-946
▁여러분의	-947
▁다섯	-948
▁데려	-949
▁도망	-950
▁부정	-951
▁않는다	-952
▁넣	-953
▁젊	-954
▁약속	-955
▁전쟁	-956
▁점	-957
이를	-958
히려	-959
▁성령	-960
▁일어나서	-961
▁놓고	-962
▁들고	-963
▁바쳐	-964
▁아직	-965
▁곳에서	-966
▁곳으로	-967
▁역	-968
▁판	-969
▁나서	-970
▁오히려	-971
▁자손은	-972
▁과	-973
▁남은	-974
▁제가	-975
▁마음이	-976
▁품	-977
▁믿음	-978
▁죽이	-979
▁유다의	-980
▁말하기를	-981
▁때가	-982
▁아침	-983
▁위하여	-984
▁있느냐	-985
▁사람들의	-986
▁능	-987
▁가는	-988
▁곳을	-989
▁주민	-990
▁노래	-991
▁또한	-992
▁먹고	-993
▁자신	-994
기까지	-995
▁베드로	-996
▁제물을	-997
▁예수께서는	-998
▁이스라엘을	-999
으려고	-1000
▁드리는	-1001
▁자기가	-1002
하십시오	-1003
▁몫	-1004
로잡	-1005
졌다	-1006
▁이삭	-1007
드시	-1008
제사	-1009
▁마침	-1010
▁죽을	-1011
제물로	-1012
▁북	-1013
▁가난	-1014
▁악인	-1015
▁평화	-1016
▁사로잡	-1017
▁주님의	-1018
▁늘	-1019
야와	-1020
▁빼앗	-1021
▁같다	-1022
▁어른	-1023
▁자손과	-1024
▁여러분을	-1025
▁임금님의	-1026
기가	-1027
▁보니	-1028
▁주는	-1029
▁회중	-1030
▁보는	-1031
▁신하	-1032
▁주실	-1033
▁에브라	-1034
▁아버지의	-1035
▁머리	-1036
▁알려	-1037
▁알지	-1038
▁위로	-1039
▁장막	-1040
에게로	-1041
▁반드시	-1042
▁대신	-1043
▁때문입니다	-1044
쪽에	-1045
▁하시고	-1046
▁작	-1047
냈다	-1048
▁속죄	-1049
▁해서	-1050
▁소리를	-1051
▁연	-1052
▁잃	-1053
아야	-1054
▁아들을	-1055
▁자손의	-1056
▁쌓	-1057
들어	-1058
▁번제	-1059
▁젊은	-1060
▁통치	-1061
너희는	-1062
▁앗	-1063
▁왔	-1064
기도	-1065
냐민	-1066
워서	-1067
▁마치	-1068
▁바친	-1069
같이	-1070
▁다윗은	-1071
▁볼	-1072
비를	-1073
▁그렇	-1074
▁기다	-1075
▁남편	-1076
▁일어	-1077
▁부르짖	-1078
움을	-1079
▁시작	-1080
▁뿐	-1081
▁애	-1082
▁되게	-1083
▁이와	-1084
▁누구든지	-1085
▁초	-1086
▁살고	-1087
▁자녀	-1088
▁분노	-1089
▁무엇이	-1090
▁성전을	-1091
하니	-1092
▁깨끗	-1093
▁만나	-1094
하려고	-1095
▁영원히	-1096
▁주님께	-1097
▁지도자	-1098
▁사람들과	-1099
▁에브라임	-1100
리의	-1101
켜서	-1102
▁않게	-1103
▁못하고	-1104
▁영광을	-1105
▁주셨다	-1106
▁깊	-1107
다니	-1108
이며	-1109
▁일러	-1110
▁일은	-1111
▁증언	-1112
▁지방	-1113
▁베냐민	-1114
▁질	-1115
▁첫	-1116
여서	-1117
▁일으	-1118
하시는	-1119
▁땅으로	-1120
▁술	-1121
▁족속	-1122
송아	-1123
▁수가	-1124
▁달라고	-1125
▁엎	-1126
리석	-1127
▁성벽	-1128
▁용서	-1129
▁입을	-1130
▁집에	-1131
▁크게	-1132
▁언약을	-1133
▁없었다	-1134
▁총	-1135
▁건너	-1136
▁드러	-1137
▁시온	-1138
시기를	-1139
▁얼굴을	-1140
▁있는데	-1141
하나	-1142
▁먼저	-1143
▁사라	-1144
▁없애	-1145
▁즐거	-1146
▁그들과	-1147
▁목숨을	-1148
러운	-1149
▁능력	-1150
▁있게	-1151
▁갚	-1152
▁괴	-1153
▁흩	-1154
▁피를	-1155
▁집으로	-1156
▁궤	-1157
▁근	-1158
▁밑	-1159
▁폭	-1160
레미	-1161
만이	-1162
▁이웃	-1163
십니까	-1164
▁이것이	-1165
▁하나님께서는	-1166
▁쓸	-1167
▁청	-1168
만을	-1169
보암	-1170
▁경계	-1171
▁끌어	-1172
▁미워	-1173
▁궁	-1174
▁안식	-1175
▁알게	-1176
▁왕을	-1177
▁장로	-1178
제사장	-1179
▁어리석	-1180
▁변	-1181
롭게	-1182
▁건져	-1183
▁바깥	-1184
▁이것을	-1185
▁주겠다	-1186
▁흘	-1187
무엘	-1188
▁지은	-1189
시리아	-1190
▁엘리사	-1191
▁놋	-1192
염소	-1193
▁가나	-1194
▁받고	-1195
▁부하	-1196
▁재산	-1197
▁예레미	-1198
▁끊	-1199
▁성소	-1200
▁싸우	-1201
▁않으면	-1202
▁돈	-1203
▁표	-1204
▁흔	-1205
하실	-1206
▁구름	-1207
▁그리하여	-1208
▁들어가서	-1209
▁모세는	-1210
▁섬기는	-1211
▁거룩하게	-1212
▁요한	-1213
▁잘못	-1214
▁진을	-1215
▁쳐서	-1216
하겠다	-1217
▁명령을	-1218
▁땅이	-1219
▁더럽	-1220
▁만드	-1221
▁병거	-1222
▁아사	-1223
▁종이	-1224
▁돌아가	-1225
▁하셨습니다	-1226
낫세	-1227
리게	-1228
▁고통	-1229
▁하면서	-1230
네가	-1231
웠다	-1232
▁마을	-1233
▁인도	-1234
▁쫓아	-1235
▁가나안	-1236
▁하나도	-1237
난을	-1238
생님	-1239
치를	-1240
▁말한	-1241
▁물이	-1242
▁재판	-1243
▁지역	-1244
▁마십시오	-1245
▁앗시리아	-1246
▁디	-1247
▁밝	-1248
기야	-1249
더니	-1250
▁남아	-1251
▁놀라	-1252
▁높은	-1253
▁사실	-1254
▁요압	-1255
▁말하는	-1256
▁므낫세	-1257
▁말씀하신	-1258
너라	-1259
어도	-1260
▁기쁨	-1261
▁나머	-1262
▁오직	-1263
▁이스	-1264
▁소식을	-1265
▁대제사장	-1266
▁예루살렘에	-1267
▁쏟	-1268
물이	-1269
었고	-1270
▁딸린	-1271
▁엎드	-1272
▁요나	-1273
하시고	-1274
▁나누어	-1275
▁너와	-1276
▁베풀	-1277
▁쓰러	-1278
▁열두	-1279
▁저지	-1280
▁사이에	-1281
▁이제는	-1282
▁받지	-1283
▁용사	-1284
▁의인	-1285
▁하며	-1286
에게는	-1287
▁다윗의	-1288
▁만들어	-1289
▁무엇을	-1290
▁사무엘	-1291
▁자들이	-1292
에서부터	-1293
▁억	-1294
▁침	-1295
▁달려	-1296
▁시므	-1297
▁아히	-1298
으시고	-1299
▁돌아오	-1300
▁앞으로	-1301
▁예수의	-1302
▁퍼	-1303
▁합	-1304
되어	-1305
치고	-1306
▁명을	-1307
▁보여	-1308
▁알아	-1309
▁자식	-1310
주께서	-1311
▁않겠다	-1312
▁못하였다	-1313
장을	-1314
▁듣지	-1315
▁회막	-1316
▁마음에	-1317
▁제사장은	-1318
▁기울	-1319
▁뒤를	-1320
▁마시	-1321
▁모르	-1322
▁서서	-1323
▁아닙	-1324
▁해주십시오	-1325
▁겨	-1326
르앗	-1327
성을	-1328
이니	-1329
자를	-1330
▁기둥	-1331
▁멀리	-1332
▁가난한	-1333
▁마리를	-1334
▁백성의	-1335
▁버리고	-1336
▁하였습니다	-1337
▁옳	-1338
주님	-1339
▁나귀	-1340
▁부어	-1341
▁순종	-1342
▁자가	-1343
▁자랑	-1344
하셔서	-1345
▁나타나	-1346
▁마리와	-1347
▁욕	-1348
▁마리	-1349
▁태어	-1350
▁것이요	-1351
▁들어라	-1352
▁마침내	-1353
▁속에서	-1354
▁사랑하는	-1355
▁예루살렘에서	-1356
기와	-1357
다는	-1358
▁떨어	-1359
▁세겔	-1360
▁주지	-1361
▁시리아	-1362
▁네게	-1363
▁새끼	-1364
▁아브	-1365
▁포로	-1366
▁천사가	-1367
▁것이라고	-1368
▁완	-1369
▁그릇	-1370
▁더욱	-1371
▁사마	-1372
▁선포	-1373
▁오는	-1374
들이다	-1375
▁나라를	-1376
▁안식일	-1377
▁자기들의	-1378
▁하십시오	-1379
▁굳	-1380
▁똑	-1381
▁확	-1382
것도	-1383
.'"	-1384
▁계명	-1385
▁왕과	-1386
▁일에	-1387
▁주님이	-1388
▁씨	-1389
아스	-1390
▁계속	-1391
▁뜻을	-1392
▁세워	-1393
▁처음	-1394
▁것으로	-1395
▁그것이	-1396
▁주시는	-1397
▁사마리아	-1398
려라	-1399
▁감사	-1400
▁나도	-1401
▁무덤	-1402
▁하실	-1403
▁길르앗	-1404
▁이르러	-1405
▁헛	-1406
▁휘	-1407
신을	-1408
치는	-1409
▁바알	-1410
▁손으로	-1411
▁여기에	-1412
▁자기를	-1413
▁그리스도의	-1414
▁이스라엘이	-1415
▁흠	-1416
▁나가	-1417
▁보시	-1418
▁소리	-1419
▁잡아	-1420
▁집을	-1421
송아지	-1422
▁나머지	-1423
▁올라가	-1424
▁하려고	-1425
▁이름으로	-1426
▁있었는데	-1427
▁갔	-1428
▁택	-1429
대는	-1430
▁눈을	-1431
▁어귀	-1432
▁의지	-1433
▁이러	-1434
▁있던	-1435
▁머물러	-1436
▁손에서	-1437
▁아무것도	-1438
▁제사장이	-1439
▁주셨습니다	-1440
▁몇	-1441
▁필	-1442
겼다	-1443
▁두루	-1444
▁이상	-1445
▁명하신	-1446
▁재앙을	-1447
▁던	-1448
▁맏	-1449
▁옮	-1450
▁추	-1451
아와	-1452
▁골짜	-1453
▁부끄	-1454
셨으니	-1455
▁보내어	-1456
▁여자가	-1457
▁이름은	-1458
상을	-1459
▁살펴	-1460
▁이레	-1461
▁직접	-1462
▁해야	-1463
입니까	-1464
▁기름을	-1465
▁사울이	-1466
▁말씀하신다	-1467
▁갑	-1468
▁탄	-1469
▁것도	-1470
▁히스	-1471
▁군대를	-1472
▁동쪽	-1473
▁좋아	-1474
으셨다	-1475
▁낳았다	-1476
▁어디에	-1477
▁언제나	-1478
▁사람에게는	-1479
▁출	-1480
자매	-1481
▁말할	-1482
▁벌을	-1483
▁암몬	-1484
▁되어서	-1485
▁보았다	-1486
▁잊	-1487
▁귀를	-1488
▁바람	-1489
▁베푸	-1490
▁소리가	-1491
▁열매를	-1492
▁낮	-1493
▁범	-1494
나의	-1495
▁가진	-1496
▁곁에	-1497
▁성문	-1498
정으로	-1499
▁동안에	-1500
▁못하는	-1501
▁제물로	-1502
▁형제자매	-1503
▁독	-1504
▁젖	-1505
구를	-1506
▁계신	-1507
▁무서	-1508
▁아주	-1509
▁앉아	-1510
▁치고	-1511
▁그러니	-1512
▁따라서	-1513
▁이들은	-1514
▁하시는	-1515
▁다윗에게	-1516
▁않습니다	-1517
▁뭇	-1518
▁박	-1519
아의	-1520
▁너무	-1521
▁성막	-1522
▁아뢰	-1523
▁진실	-1524
▁은혜를	-1525
▁있어서	-1526
▁마음으로	-1527
▁있겠느냐	-1528
▁값	-1529
▁쇠	-1530
▁싶	-1531
▁후	-1532
▁둘러	-1533
▁물어	-1534
▁에돔	-1535
▁저녁	-1536
▁들었다	-1537
▁이르기까지	-1538
장과	-1539
하스	-1540
▁칼을	-1541
▁필요	-1542
▁힘을	-1543
으면서	-1544
▁나가서	-1545
▁위에서	-1546
▁주셔서	-1547
▁집에서	-1548
▁씻	-1549
▁중	-1550
기고	-1551
엘과	-1552
▁길이	-1553
▁못하	-1554
▁사방	-1555
▁만들고	-1556
▁지파의	-1557
▁굴	-1558
▁낫	-1559
▁혼	-1560
▁나팔	-1561
▁모양	-1562
더라도	-1563
하기를	-1564
▁너희와	-1565
▁속으로	-1566
▁아들인	-1567
▁여호야	-1568
▁하늘에서	-1569
그러	-1570
랐다	-1571
야는	-1572
▁대적	-1573
▁살려	-1574
▁세운	-1575
▁지시	-1576
▁나와서	-1577
▁당신의	-1578
▁버렸다	-1579
▁안으로	-1580
▁되었습니다	-1581
▁예루살렘으로	-1582
▁견	-1583
▁벽	-1584
▁빈	-1585
▁충	-1586
리브	-1587
해야	-1588
▁교회	-1589
▁낳고	-1590
▁맞아	-1591
▁보이	-1592
▁자손을	-1593
라와	-1594
▁구별	-1595
▁소유	-1596
▁쳤다	-1597
었는데	-1598
▁구원을	-1599
▁영원한	-1600
▁이루어	-1601
▁벳	-1602
▁별	-1603
▁풍	-1604
▁활	-1605
분의	-1606
사람	-1607
▁거느	-1608
▁계시	-1609
▁돌려	-1610
▁말로	-1611
▁받는	-1612
▁타고	-1613
까지도	-1614
▁생명을	-1615
▁요나단	-1616
▁이집트에서	-1617
▁꿈	-1618
▁뿔	-1619
▁셋	-1620
▁홍	-1621
사밧	-1622
▁경외	-1623
▁기쁘	-1624
▁땅은	-1625
▁모세와	-1626
▁이끌어	-1627
▁어리석은	-1628
▁뜰	-1629
▁찢	-1630
▁낙	-1631
▁왜	-1632
겠소	-1633
른다	-1634
린다	-1635
살롬	-1636
행을	-1637
▁아니다	-1638
▁율법을	-1639
▁옛	-1640
인이	-1641
자의	-1642
▁걸어	-1643
▁길로	-1644
▁넘어	-1645
▁르우	-1646
▁빵을	-1647
▁자는	-1648
▁죽음	-1649
▁가져다가	-1650
▁아버지께서	-1651
▁빨	-1652
겨서	-1653
▁다만	-1654
▁물건	-1655
▁보좌	-1656
▁지휘	-1657
▁흩어	-1658
▁하려는	-1659
▁흐	-1660
멜렉	-1661
▁나온	-1662
▁높이	-1663
▁느부	-1664
▁돌보	-1665
▁준비	-1666
▁큰소	-1667
▁흔들	-1668
▁만들었다	-1669
▁쉬	-1670
는가	-1671
장이	-1672
▁규례	-1673
▁깨닫	-1674
▁다가	-1675
▁바위	-1676
▁비로	-1677
▁사도	-1678
▁아모	-1679
▁여로	-1680
▁요새	-1681
하나님	-1682
▁거두어	-1683
▁웃	-1684
르게	-1685
아가	-1686
전히	-1687
▁믿는	-1688
▁오래	-1689
▁이어	-1690
▁있지	-1691
▁다윗을	-1692
▁비로소	-1693
▁압살롬	-1694
▁음식을	-1695
▁저지른	-1696
▁유산으로	-1697
▁했	-1698
▁개를	-1699
▁돌이	-1700
▁되돌	-1701
▁아름	-1702
▁어둠	-1703
▁죄악	-1704
자들이	-1705
▁거짓말	-1706
▁보시고	-1707
▁있으면	-1708
▁진정으로	-1709
▁꼭	-1710
▁닥	-1711
▁눈이	-1712
▁떼를	-1713
▁속한	-1714
▁아합	-1715
▁있으니	-1716
▁아닙니다	-1717
▁임금님께서	-1718
▁갓	-1719
▁욥	-1720
치지	-1721
▁관리	-1722
▁아는	-1723
▁인자	-1724
▁허락	-1725
겠다고	-1726
▁듣고서	-1727
▁않으며	-1728
▁하늘에	-1729
▁되지	-1730
▁물러	-1731
▁불쌍	-1732
▁선한	-1733
▁칼에	-1734
립니다	-1735
▁들어서	-1736
▁떠나서	-1737
▁바빌론	-1738
▁여자를	-1739
▁포도원	-1740
▁하여야	-1741
▁아버지가	-1742
▁두려워하지	-1743
대를	-1744
바닥	-1745
야를	-1746
오는	-1747
▁결혼	-1748
▁권세	-1749
▁경계선	-1750
▁머리를	-1751
▁바라보	-1752
▁지켜야	-1753
대의	-1754
스와	-1755
지지	-1756
▁낳은	-1757
▁너비	-1758
▁당할	-1759
▁시험	-1760
▁것이오	-1761
▁바쳐야	-1762
▁야곱의	-1763
▁얼마나	-1764
▁주어서	-1765
▁죽었다	-1766
이스라엘	-1767
?'	-1768
▁격	-1769
▁잇	-1770
▁학	-1771
하던	-1772
▁거역	-1773
▁드릴	-1774
▁아스	-1775
▁영혼	-1776
▁오면	-1777
임금님	-1778
▁성읍을	-1779
▁축	-1780
라서	-1781
의를	-1782
적을	-1783
정을	-1784
혔다	-1785
▁공격	-1786
▁더러	-1787
▁못한	-1788
▁밖에	-1789
▁불을	-1790
▁약탈	-1791
▁처녀	-1792
▁친구	-1793
▁한가	-1794
제물과	-1795
▁그분의	-1796
▁우상을	-1797
▁참으로	-1798
▁얹	-1799
▁털	-1800
만은	-1801
▁도와	-1802
▁무너	-1803
▁북쪽	-1804
▁사흘	-1805
▁일로	-1806
▁작은	-1807
▁주었	-1808
하지만	-1809
▁일들을	-1810
▁빕	-1811
▁좀	-1812
▁항	-1813
기만	-1814
기지	-1815
네살	-1816
바와	-1817
함을	-1818
▁귀신	-1819
▁끌고	-1820
▁놓은	-1821
▁맏아	-1822
▁언덕	-1823
▁평안	-1824
▁하셨	-1825
▁행실	-1826
야에게	-1827
▁가르치	-1828
▁것처럼	-1829
▁말씀이	-1830
▁빕니다	-1831
▁야곱이	-1832
▁여로보암	-1833
▁폐	-1834
리새	-1835
▁곳이	-1836
▁기브	-1837
▁들은	-1838
▁성경	-1839
▁성을	-1840
▁아마	-1841
▁여섯	-1842
▁영이	-1843
▁쳐죽	-1844
우리가	-1845
하신다	-1846
▁명이다	-1847
▁받아서	-1848
▁즐거워	-1849
▁사람으로	-1850
▁사람이다	-1851
▁여호사밧	-1852
▁엄	-1853
고서	-1854
라면	-1855
만한	-1856
▁가슴	-1857
▁각각	-1858
▁날개	-1859
▁따르	-1860
▁모여	-1861
▁스무	-1862
▁왕궁	-1863
▁죄가	-1864
▁해가	-1865
리새파	-1866
▁기도를	-1867
▁아이를	-1868
▁제사를	-1869
▁광야에서	-1870
▁이르렀다	-1871
▁한가운데	-1872
▁글	-1873
▁꺼	-1874
▁닿	-1875
▁맛	-1876
는지	-1877
켰다	-1878
히고	-1879
▁달아	-1880
▁모시	-1881
▁반역	-1882
▁불에	-1883
▁비록	-1884
▁에스	-1885
▁희생	-1886
▁바쳤다	-1887
▁시켜서	-1888
▁우리와	-1889
▁사이에서	-1890
▁전하여라	-1891
▁까	-1892
▁식	-1893
망을	-1894
셀라	-1895
▁남쪽	-1896
▁되면	-1897
▁따로	-1898
▁마련	-1899
▁에서	-1900
▁자리	-1901
▁죽게	-1902
▁하니	-1903
갓네살	-1904
았는데	-1905
하였고	-1906
▁그대의	-1907
▁나라가	-1908
▁받았다	-1909
▁저마다	-1910
▁할례를	-1911
▁말하여라	-1912
▁바리새파	-1913
▁꺾	-1914
▁뛰	-1915
▁써	-1916
▁틀	-1917
고를	-1918
당신	-1919
하심	-1920
▁놋쇠	-1921
▁역겨	-1922
스러운	-1923
에게도	-1924
제물을	-1925
▁보냈다	-1926
▁아론의	-1927
▁저주를	-1928
▁올라가서	-1929
▁임금님께	-1930
▁느부갓네살	-1931
.)	-1932
▁뼈	-1933
려야	-1934
브론	-1935
▁수는	-1936
▁아우	-1937
▁주셨	-1938
▁선생님	-1939
▁세우고	-1940
▁아내를	-1941
▁아무런	-1942
▁않도록	-1943
▁제단을	-1944
▁겪	-1945
▁석	-1946
덩이	-1947
마저	-1948
받은	-1949
쳐서	-1950
토록	-1951
▁경배	-1952
▁서쪽	-1953
▁이는	-1954
▁저는	-1955
▁조금	-1956
▁나라의	-1957
▁무리가	-1958
▁성전에	-1959
▁세상에	-1960
▁자들을	-1961
▁자리에	-1962
▁보시기에	-1963
▁샘	-1964
▁옆	-1965
▁혀	-1966
바로	-1967
▁그룹	-1968
▁깊은	-1969
▁끌려	-1970
▁들려	-1971
▁마땅	-1972
▁받게	-1973
▁받으	-1974
▁악을	-1975
▁일찍	-1976
▁주검	-1977
▁힘이	-1978
하여야	-1979
▁있겠습니까	-1980
▁갖	-1981
▁뜨	-1982
▁설	-1983
▁존	-1984
엘의	-1985
자는	-1986
▁말은	-1987
▁보게	-1988
▁성도	-1989
▁쏟아	-1990
▁때에야	-1991
▁르우벤	-1992
▁명이요	-1993
▁산에서	-1994
▁수치를	-1995
▁주어라	-1996
▁보십시오	-1997
▁주시기를	-1998
▁겉	-1999
▁승	-2000
▁응	-2001
▁가시	-2002
▁궤를	-2003
▁놓아	-2004
▁바칠	-2005
▁일과	-2006
▁증거	-2007
▁친히	-2008
▁화목	-2009
하지도	-2010
▁살펴보	-2011
▁숫염소	-2012
▁영광이	-2013
▁성전에서	-2014
▁않았습니다	-2015
▁짐	-2016
▁징	-2017
▁헐	-2018
대에	-2019
라리	-2020
별로	-2021
▁말미	-2022
▁믿지	-2023
▁밀가	-2024
▁실과	-2025
▁예배	-2026
▁입고	-2027
▁주변	-2028
▁민족이	-2029
▁여자는	-2030
▁일으키	-2031
▁하나는	-2032
들에게서	-2033
▁그것들을	-2034
▁돌아와서	-2035
▁대답하셨다	-2036
▁있었습니다	-2037
▁말씀하시기를	-2038
력을	-2039
보내	-2040
월절	-2041
째는	-2042
▁가축	-2043
▁계획	-2044
▁외국	-2045
▁이야	-2046
▁저를	-2047
▁모두가	-2048
▁세상의	-2049
▁있다가	-2050
▁큰소리로	-2051
람이	-2052
럽게	-2053
모를	-2054
아도	-2055
▁같고	-2056
▁몸이	-2057
▁수도	-2058
▁일도	-2059
▁총독	-2060
▁것이고	-2061
▁기쁘게	-2062
▁보고서	-2063
▁사울의	-2064
▁요셉이	-2065
▁유월절	-2066
▁지키는	-2067
▁그런데도	-2068
▁말씀이다	-2069
▁아뢰었다	-2070
▁끼	-2071
▁윗	-2072
▁내쫓	-2073
▁붙잡	-2074
▁소문	-2075
▁손자	-2076
▁줄을	-2077
▁계시는	-2078
▁신들을	-2079
▁아론과	-2080
▁아모리	-2081
▁의로운	-2082
▁지혜를	-2083
▁둔	-2084
스의	-2085
▁과부	-2086
▁지내	-2087
어지고	-2088
으로써	-2089
▁가르쳐	-2090
▁군대가	-2091
▁주신다	-2092
▁만들어서	-2093
▁세상에서	-2094
▁솔로몬은	-2095
▁수송아지	-2096
▁예루살렘을	-2097
▁널	-2098
▁펴	-2099
관이	-2100
달리	-2101
섰다	-2102
시면	-2103
▁가죽	-2104
▁감히	-2105
▁강을	-2106
▁등록	-2107
▁번째	-2108
▁살인	-2109
▁엘르	-2110
▁위대	-2111
▁응답	-2112
▁이가	-2113
▁친족	-2114
▁화가	-2115
▁날마다	-2116
▁말미암	-2117
▁절대로	-2118
▁제자들이	-2119
▁됩	-2120
▁흙	-2121
도를	-2122
리며	-2123
▁모습	-2124
▁문을	-2125
▁미가	-2126
▁밤에	-2127
▁보았	-2128
▁복이	-2129
▁살게	-2130
▁살라	-2131
▁칼로	-2132
어지지	-2133
이라는	-2134
▁가문의	-2135
▁그대가	-2136
▁대하여	-2137
▁못하였	-2138
▁복음을	-2139
▁역겨운	-2140
▁왕으로	-2141
▁일러주	-2142
▁죽이고	-2143
▁하나가	-2144
▁굽	-2145
금을	-2146
로서	-2147
무를	-2148
▁돈을	-2149
▁산당	-2150
▁예후	-2151
▁임금	-2152
▁적이	-2153
▁전혀	-2154
▁누구나	-2155
▁먹을거	-2156
▁백성과	-2157
▁부끄러	-2158
▁하나를	-2159
▁깨끗하게	-2160
▁이집트의	-2161
▁넓	-2162
▁탐	-2163
▁훈	-2164
욕을	-2165
우고	-2166
이신	-2167
추어	-2168
하기	-2169
▁곳은	-2170
▁시드	-2171
▁점령	-2172
에다가	-2173
▁곡식을	-2174
▁아름다	-2175
▁자리를	-2176
▁터이니	-2177
▁하늘의	-2178
▁면	-2179
▁몹	-2180
▁찍	-2181
체를	-2182
▁명이	-2183
▁방패	-2184
▁빠져	-2185
▁살던	-2186
▁고난을	-2187
▁불쌍히	-2188
▁있다고	-2189
▁굶	-2190
▁깃	-2191
▁찔	-2192
▁취	-2193
▁홀	-2194
련한	-2195
로우	-2196
▁갈라	-2197
▁땅과	-2198
▁만큼	-2199
▁실로	-2200
▁창조	-2201
▁황폐	-2202
에까지	-2203
▁높으신	-2204
▁사울은	-2205
▁엘르아	-2206
▁재산을	-2207
▁태어난	-2208
▁다스렸다	-2209
▁돌아갔다	-2210
▁베드로가	-2211
▁토	-2212
물로	-2213
부짖	-2214
시기	-2215
시켜	-2216
▁상처	-2217
▁자네	-2218
▁첫째	-2219
▁하게	-2220
하도록	-2221
▁고기를	-2222
▁그렇지	-2223
▁다스리	-2224
▁다음날	-2225
▁마리아	-2226
▁사랑을	-2227
▁살았다	-2228
▁세상을	-2229
▁울부짖	-2230
▁유다와	-2231
▁이르렀	-2232
▁조상의	-2233
▁지나가	-2234
▁헤브론	-2235
▁기록되어	-2236
▁예루살렘의	-2237
같은	-2238
들인	-2239
▁강한	-2240
▁굳게	-2241
▁권능	-2242
▁들으	-2243
▁마지	-2244
▁몹시	-2245
▁밭을	-2246
▁버릴	-2247
▁아닌	-2248
▁양을	-2249
▁저의	-2250
▁조롱	-2251
▁짓밟	-2252
▁해도	-2253
어서는	-2254
▁계명을	-2255
▁밀가루	-2256
▁분노를	-2257
▁성전의	-2258
▁여인이	-2259
▁하늘을	-2260
▁말미암아	-2261
▁사람들아	-2262
▁자기에게	-2263
▁와	-2264
었을	-2265
엘이	-2266
옷을	-2267
진다	-2268
▁나그	-2269
▁더불	-2270
▁만한	-2271
▁말에	-2272
▁모아	-2273
▁사자	-2274
▁신실	-2275
▁억압	-2276
▁없게	-2277
▁일꾼	-2278
▁죄인	-2279
▁찬송	-2280
▁통곡	-2281
▁판결	-2282
▁행위	-2283
하라고	-2284
▁바치고	-2285
▁여자의	-2286
▁주시기	-2287
▁거느리고	-2288
▁언제까지	-2289
▁명령하였다	-2290
▁그리스도께서	-2291
▁농	-2292
▁현	-2293
받는	-2294
인가	-2295
▁가고	-2296
▁괴롭	-2297
▁기드	-2298
▁남겨	-2299
▁등잔	-2300
▁불살	-2301
▁세겜	-2302
▁쓰는	-2303
▁정직	-2304
너희가	-2305
▁구하여	-2306
▁길에서	-2307
▁끝까지	-2308
▁더불어	-2309
▁바로의	-2310
▁십자가	-2311
▁야곱은	-2312
▁원수를	-2313
▁조상이	-2314
▁지휘관	-2315
서서	-2316
향목	-2317
▁고운	-2318
▁누룩	-2319
▁둘째	-2320
▁서른	-2321
▁수고	-2322
▁나오는	-2323
▁날에는	-2324
▁보내신	-2325
▁세례를	-2326
▁외쳤다	-2327
▁이러한	-2328
▁있다는	-2329
▁하여도	-2330
▁엘르아살	-2331
▁있습니까	-2332
▁하나님과	-2333
▁히스기야	-2334
▁낸	-2335
▁돕	-2336
▁맨	-2337
▁봉	-2338
다면	-2339
여라	-2340
지방	-2341
치게	-2342
▁갈릴	-2343
▁까닭	-2344
▁맞은	-2345
▁먹지	-2346
▁무리	-2347
▁보낸	-2348
▁분을	-2349
▁분향	-2350
▁신도	-2351
▁이천	-2352
▁입은	-2353
▁그대는	-2354
▁나팔을	-2355
▁드러내	-2356
▁마지막	-2357
▁백향목	-2358
▁부정한	-2359
▁이름이	-2360
▁젊은이	-2361
▁사람들도	-2362
▁포도나무	-2363
▁속죄제물로	-2364
▁걷	-2365
▁녹	-2366
▁묶	-2367
▁삶	-2368
나와	-2369
물과	-2370
옥에	-2371
움이	-2372
지게	-2373
지로	-2374
▁간구	-2375
▁꾸짖	-2376
▁날을	-2377
▁뒤쫓	-2378
▁베델	-2379
▁어서	-2380
▁장군	-2381
되었다	-2382
으로는	-2383
이라도	-2384
▁골짜기	-2385
▁그리로	-2386
▁노래를	-2387
▁들어주	-2388
▁살면서	-2389
▁아래에	-2390
▁지키고	-2391
▁사람이나	-2392
▁썩	-2393
계를	-2394
받침	-2395
하셨	-2396
▁몸에	-2397
▁불이	-2398
▁여종	-2399
▁폐허	-2400
▁화살	-2401
▁되었을	-2402
▁마시고	-2403
▁벗어나	-2404
▁아내로	-2405
▁쫓아내	-2406
▁통치자	-2407
▁포로로	-2408
▁멸망시키	-2409
▁바깥으로	-2410
▁사로잡혀	-2411
▁아비멜렉	-2412
▁든	-2413
▁뻗	-2414
▁읽	-2415
▁철	-2416
되게	-2417
밖에	-2418
▁깨달	-2419
▁떼어	-2420
▁마실	-2421
▁배를	-2422
▁버려	-2423
▁안전	-2424
▁은과	-2425
▁족장	-2426
▁죽고	-2427
▁지팡	-2428
하여서	-2429
▁됩니다	-2430
▁들짐승	-2431
▁때에도	-2432
▁말라고	-2433
▁보내서	-2434
▁성읍과	-2435
▁세우신	-2436
▁아들과	-2437
▁있으며	-2438
▁죽였다	-2439
▁다스리는	-2440
▁들어갔다	-2441
▁예언자가	-2442
▁자기들이	-2443
▁찬양하여라	-2444
▁꽃	-2445
▁꾀	-2446
유를	-2447
▁기근	-2448
▁돌로	-2449
▁바꾸	-2450
▁보호	-2451
▁복종	-2452
▁삼손	-2453
▁시몬	-2454
▁요구	-2455
▁전능	-2456
▁지난	-2457
▁회개	-2458
▁고통을	-2459
▁나무를	-2460
▁나왔다	-2461
▁도성을	-2462
▁아직도	-2463
▁올리브	-2464
▁하시며	-2465
▁하지만	-2466
▁그리스도를	-2467
▁사람입니다	-2468
▁여호수아가	-2469
▁겁	-2470
▁띠	-2471
▁염	-2472
▁으	-2473
▁특	-2474
대와	-2475
두머	-2476
드개	-2477
디안	-2478
마스	-2479
부장	-2480
▁미리	-2481
▁산에	-2482
▁저질	-2483
▁놓았다	-2484
▁말하고	-2485
▁미디안	-2486
▁빌라도	-2487
▁압니다	-2488
▁오른손	-2489
▁재앙이	-2490
하였으니	-2491
▁모르드개	-2492
▁솔로몬이	-2493
▁이르기를	-2494
▁포도주를	-2495
▁이스라엘은	-2496
▁솟	-2497
▁업	-2498
더러	-2499
란트	-2500
로는	-2501
마와	-2502
바논	-2503
사가	-2504
시아	-2505
▁간청	-2506
▁나올	-2507
▁도시	-2508
▁르호	-2509
▁분명	-2510
▁산간	-2511
▁축복	-2512
▁회당	-2513
▁규례를	-2514
▁머리에	-2515
▁성읍에	-2516
▁아내가	-2517
▁저에게	-2518
▁넉	-2519
▁멍	-2520
▁빚	-2521
▁쉰	-2522
▁싫	-2523
나게	-2524
되는	-2525
식이	-2526
인지	-2527
하러	-2528
화과	-2529
▁고집	-2530
▁금을	-2531
▁슬퍼	-2532
▁영을	-2533
▁이만	-2534
▁자를	-2535
▁잡고	-2536
▁잡혀	-2537
▁달란트	-2538
▁당하고	-2539
▁때마다	-2540
▁말하지	-2541
▁모세의	-2542
▁세웠다	-2543
▁아들딸	-2544
▁우두머	-2545
▁있도록	-2546
▁차지할	-2547
었으므로	-2548
▁사무엘이	-2549
▁무엇이든지	-2550
▁묵	-2551
▁쪽	-2552
람은	-2553
람의	-2554
말로	-2555
▁경고	-2556
▁누워	-2557
▁두로	-2558
▁둘레	-2559
▁라반	-2560
▁무렵	-2561
▁부수	-2562
▁염소	-2563
▁입술	-2564
▁하루	-2565
어지는	-2566
▁가거라	-2567
▁것들을	-2568
▁두었다	-2569
▁바울은	-2570
▁바울이	-2571
▁예언을	-2572
▁있기를	-2573
▁하나님이다	-2574
▁갇	-2575
▁납	-2576
▁패	-2577
간에	-2578
성이	-2579
▁고난	-2580
▁내버	-2581
▁매우	-2582
▁먹는	-2583
▁문안	-2584
▁보살	-2585
▁빛을	-2586
▁뽑아	-2587
▁스물	-2588
▁황무	-2589
▁그분이	-2590
▁남자가	-2591
▁말씀드	-2592
▁받는다	-2593
▁심판을	-2594
▁에스더	-2595
▁평화를	-2596
▁합니까	-2597
▁아들들이	-2598
▁꿀	-2599
▁넷	-2600
대가	-2601
수를	-2602
이제	-2603
▁갚아	-2604
▁고관	-2605
▁고쳐	-2606
▁내어	-2607
▁돌을	-2608
▁맡은	-2609
▁보지	-2610
▁자들	-2611
▁포위	-2612
▁화를	-2613
에서도	-2614
하느냐	-2615
▁것보다	-2616
▁나그네	-2617
▁나타내	-2618
▁드리고	-2619
▁베풀어	-2620
▁사실을	-2621
▁여리고	-2622
▁요셉은	-2623
▁같습니다	-2624
▁내려가서	-2625
▁르호보암	-2626
▁아버지는	-2627
▁아브라함이	-2628
▁제사장들과	-2629
▁말씀하셨습니다	-2630
▁돋	-2631
▁왼	-2632
▁키	-2633
▁햇	-2634
다윗	-2635
히지	-2636
▁경우	-2637
▁교훈	-2638
▁대접	-2639
▁떼가	-2640
▁버렸	-2641
▁불의	-2642
▁실천	-2643
▁요시	-2644
▁죽는	-2645
▁죽였	-2646
▁죽일	-2647
▁찾지	-2648
▁혼자	-2649
는지를	-2650
렵니다	-2651
▁가족과	-2652
▁기록된	-2653
▁나라에	-2654
▁놀라운	-2655
▁다윗과	-2656
▁대대로	-2657
▁두루마	-2658
▁모세를	-2659
▁아브넬	-2660
▁오늘날	-2661
▁윗대는	-2662
▁이들이	-2663
▁미워하는	-2664
▁스스로를	-2665
▁가운데서는	-2666
▁가운데서도	-2667
▁낼	-2668
▁흉	-2669
내어	-2670
단을	-2671
지가	-2672
지기	-2673
▁기초	-2674
▁나쁜	-2675
▁무릎	-2676
▁받았	-2677
▁아르	-2678
▁옮겨	-2679
▁이를	-2680
▁절을	-2681
▁죽지	-2682
보아라	-2683
사람아	-2684
이든지	-2685
지라도	-2686
▁음행을	-2687
▁쪽으로	-2688
▁하시오	-2689
▁아버지께	-2690
▁여기에서	-2691
▁임금님을	-2692
▁여호수아는	-2693
▁제자들에게	-2694
!'	-2695
▁걱	-2696
가에	-2697
소를	-2698
없는	-2699
자기	-2700
▁공의	-2701
▁도둑	-2702
▁동생	-2703
▁멍에	-2704
▁사십	-2705
▁에봇	-2706
▁이사	-2707
▁장인	-2708
▁종을	-2709
▁한결	-2710
▁해를	-2711
▁헛된	-2712
선생님	-2713
▁감사를	-2714
▁드렸다	-2715
▁들어갈	-2716
▁미련한	-2717
▁생각을	-2718
▁성벽을	-2719
▁아무리	-2720
▁아이가	-2721
▁앉아서	-2722
▁없어서	-2723
▁일어날	-2724
▁자들의	-2725
▁자신의	-2726
▁지혜가	-2727
▁짐승을	-2728
▁들어가는	-2729
▁아버지와	-2730
▁엘리사가	-2731
▁올라갔다	-2732
▁죽이려고	-2733
▁제사장들이	-2734
▁이스라엘에게	-2735
▁튼	-2736
▁푸	-2737
▁헷	-2738
가랴	-2739
에셀	-2740
▁고발	-2741
▁낙타	-2742
▁남을	-2743
▁몰려	-2744
▁물려	-2745
▁바산	-2746
▁서원	-2747
▁채로	-2748
들었다	-2749
마스쿠	-2750
인지를	-2751
하심을	-2752
▁다스릴	-2753
▁레바논	-2754
▁말았다	-2755
▁무화과	-2756
▁민족을	-2757
▁아침에	-2758
▁주인이	-2759
으로부터	-2760
▁나에게로	-2761
▁약속하신	-2762
▁이집트로	-2763
▁전능하신	-2764
▁조상에게	-2765
▁지혜로운	-2766
길을	-2767
디어	-2768
만큼	-2769
▁괴로	-2770
▁기구	-2771
▁두지	-2772
▁듣는	-2773
▁라헬	-2774
▁비웃	-2775
▁선언	-2776
▁신상	-2777
▁없어	-2778
▁웃시	-2779
▁자와	-2780
▁전해	-2781
▁준다	-2782
▁지어	-2783
▁치러	-2784
▁튼튼	-2785
▁틀림	-2786
▁헤스	-2787
기로운	-2788
었으니	-2789
▁기드온	-2790
▁내렸다	-2791
▁능력을	-2792
▁떠났다	-2793
▁엎드려	-2794
▁오너라	-2795
▁이스마	-2796
▁다마스쿠	-2797
▁임금님이	-2798
년에	-2799
람과	-2800
뿐만	-2801
수리	-2802
▁경건	-2803
▁고향	-2804
▁내일	-2805
▁살이	-2806
▁스올	-2807
▁영화	-2808
▁온다	-2809
▁왕위	-2810
▁임명	-2811
▁있으	-2812
▁장사	-2813
▁전멸	-2814
▁지체	-2815
▁팔을	-2816
기야가	-2817
아버지	-2818
우리는	-2819
하였기	-2820
▁불러모	-2821
▁뿐이다	-2822
▁없도록	-2823
▁여전히	-2824
▁일어난	-2825
▁자들은	-2826
▁잘못을	-2827
▁차라리	-2828
▁하늘과	-2829
▁하신다	-2830
졌습니다	-2831
하였는데	-2832
▁구원하여	-2833
▁데려다가	-2834
▁돌아가서	-2835
▁산간지방	-2836
▁여자에게	-2837
▁영원토록	-2838
▁전하였다	-2839
▁밧	-2840
가고	-2841
다보	-2842
라테	-2843
바를	-2844
병을	-2845
우리	-2846
▁건축	-2847
▁몰아	-2848
▁물로	-2849
▁반죽	-2850
▁범죄	-2851
▁보석	-2852
▁비밀	-2853
▁선택	-2854
▁시종	-2855
▁아라	-2856
▁얻은	-2857
▁오고	-2858
▁올바	-2859
▁이백	-2860
▁정결	-2861
라테스	-2862
▁갑자기	-2863
▁그래야	-2864
▁너희도	-2865
▁더러는	-2866
▁되돌아	-2867
▁따르는	-2868
▁시므온	-2869
▁왕들이	-2870
▁요아스	-2871
▁율법학	-2872
▁집짐승	-2873
▁하여금	-2874
▁해서는	-2875
프라테스	-2876
▁만들어라	-2877
▁받아들이	-2878
▁아름다운	-2879
하셨습니다	-2880
▁밟	-2881
▁벨	-2882
▁셈	-2883
▁씌	-2884
▁움	-2885
▁헌	-2886
간다	-2887
나를	-2888
엘은	-2889
▁걱정	-2890
▁내주	-2891
▁던져	-2892
▁멸시	-2893
▁바닷	-2894
▁발을	-2895
▁슬픔	-2896
▁씨를	-2897
▁열어	-2898
▁주어	-2899
▁창녀	-2900
▁행동	-2901
더라면	-2902
으로서	-2903
자들과	-2904
하거나	-2905
▁나갔다	-2906
▁들어오	-2907
▁불러서	-2908
▁산으로	-2909
▁이끌고	-2910
▁입에서	-2911
▁자식을	-2912
▁지키지	-2913
▁하시니	-2914
하였으나	-2915
▁가운데는	-2916
▁거기에는	-2917
▁그대에게	-2918
▁믿음으로	-2919
▁버리겠다	-2920
▁성읍들을	-2921
▁아버지를	-2922
▁않았느냐	-2923
하겠습니다	-2924
▁유프라테스	-2925
▁늙	-2926
▁로	-2927
▁셀	-2928
가락	-2929
기둥	-2930
단과	-2931
드는	-2932
란한	-2933
복을	-2934
어찌	-2935
적과	-2936
주의	-2937
▁거절	-2938
▁내놓	-2939
▁뒤로	-2940
▁들이	-2941
▁명한	-2942
▁밝히	-2943
▁상을	-2944
▁세계	-2945
▁스바	-2946
▁스불	-2947
▁입에	-2948
▁증인	-2949
▁짓는	-2950
▁파멸	-2951
▁나가는	-2952
▁똑같이	-2953
▁명령한	-2954
▁무리를	-2955
▁불살라	-2956
▁아니냐	-2957
▁여인은	-2958
▁일이다	-2959
▁평화가	-2960
▁하느냐	-2961
▁것이었다	-2962
▁군인들이	-2963
▁나라에서	-2964
▁야곱에게	-2965
▁어디에서	-2966
가를	-2967
라가	-2968
라의	-2969
르지	-2970
었기	-2971
이에	-2972
지에	-2973
▁꼭대	-2974
▁대고	-2975
▁바퀴	-2976
▁사독	-2977
▁술을	-2978
▁시내	-2979
▁친척	-2980
▁타작	-2981
면서도	-2982
셨는데	-2983
시켰다	-2984
어지게	-2985
▁누룩을	-2986
▁도와주	-2987
▁등록된	-2988
▁지파가	-2989
▁쳐들어	-2990
▁피하여	-2991
▁회중이	-2992
▁부정하다	-2993
▁원수들이	-2994
▁인자하심	-2995
▁뜯	-2996
▁옥	-2997
▁체	-2998
관을	-2999
다섯	-3000
다와	-3001
들레	-3002
리스	-3003
이지	-3004
절을	-3005
제가	-3006
조차	-3007
▁간직	-3008
▁금과	-3009
▁금식	-3010
▁내릴	-3011
▁만민	-3012
▁맺은	-3013
▁미스	-3014
▁법을	-3015
▁살리	-3016
▁손수	-3017
▁슬피	-3018
▁아말	-3019
▁어떠	-3020
▁있기	-3021
▁자라	-3022
▁재난	-3023
▁조심	-3024
▁죽인	-3025
▁짓고	-3026
▁태워	-3027
▁풀어	-3028
▁흘러	-3029
거리가	-3030
▁구름이	-3031
▁마리는	-3032
▁아내와	-3033
▁일러라	-3034
어찌하여	-3035
▁사울에게	-3036
▁올라와서	-3037
▁인도하여	-3038
▁지파에서	-3039
▁먹을거리를	-3040
▁말하였습니다	-3041
▁임금님께서는	-3042
▁깎	-3043
그릇	-3044
물은	-3045
사와	-3046
▁갈래	-3047
▁마찬	-3048
▁불어	-3049
▁빛이	-3050
▁신을	-3051
▁자주	-3052
▁정의	-3053
▁치는	-3054
▁헤롯	-3055
겠는가	-3056
들레헴	-3057
▁것이기	-3058
▁너비가	-3059
▁눈으로	-3060
▁당신이	-3061
▁대신에	-3062
▁마음은	-3063
▁말하여	-3064
▁아론이	-3065
▁아말렉	-3066
▁않아서	-3067
▁유산을	-3068
▁편지를	-3069
▁마찬가지	-3070
▁성전으로	-3071
▁아론에게	-3072
▁않으시고	-3073
▁엎드려서	-3074
▁왔습니다	-3075
▁이르러서	-3076
▁보았습니다	-3077
▁사람에게서	-3078
▁예언자들을	-3079
▁닫	-3080
▁며	-3081
▁숲	-3082
되고	-3083
브리	-3084
이기	-3085
이와	-3086
제를	-3087
▁공평	-3088
▁끊어	-3089
▁끝에	-3090
▁남의	-3091
▁넉넉	-3092
▁말아	-3093
▁반쪽	-3094
▁발락	-3095
▁보수	-3096
▁사막	-3097
▁살지	-3098
▁속량	-3099
▁시켜	-3100
▁신이	-3101
▁어두	-3102
▁오게	-3103
▁임신	-3104
▁죽여	-3105
▁탄식	-3106
▁허물	-3107
겠지만	-3108
리에서	-3109
▁그러한	-3110
▁길이가	-3111
▁나아가	-3112
▁내리는	-3113
▁때부터	-3114
▁밑받침	-3115
▁바로가	-3116
▁법도를	-3117
▁살아나	-3118
▁않았고	-3119
▁요압이	-3120
▁있었고	-3121
▁저녁때	-3122
▁주민을	-3123
▁지금은	-3124
▁흐르는	-3125
▁성읍에서	-3126
▁않겠느냐	-3127
▁엘리야가	-3128
▁하였으나	-3129
▁아브라함의	-3130
▁롯	-3131
들고	-3132
었던	-3133
▁가게	-3134
▁감독	-3135
▁깊이	-3136
▁널빤	-3137
▁동료	-3138
▁딸을	-3139
▁말해	-3140
▁매달	-3141
▁모욕	-3142
▁목자	-3143
▁목초	-3144
▁몫을	-3145
▁부분	-3146
▁부족	-3147
▁분은	-3148
▁사탄	-3149
▁서기	-3150
▁아셀	-3151
▁여겨	-3152
▁옛날	-3153
▁올려	-3154
▁자비	-3155
▁자요	-3156
▁조각	-3157
▁책임	-3158
시려고	-3159
▁같았다	-3160
▁남편이	-3161
▁돌아갈	-3162
▁말씀은	-3163
▁믿음을	-3164
▁바쳐라	-3165
▁받아야	-3166
▁불렀다	-3167
▁아들의	-3168
▁아론은	-3169
▁율례를	-3170
▁이처럼	-3171
▁제물은	-3172
▁제비를	-3173
▁그것으로	-3174
▁들으시고	-3175
▁베들레헴	-3176
▁십자가에	-3177
▁받았습니다	-3178
▁시작하였다	-3179
▁급	-3180
▁벤	-3181
▁짜	-3182
꺼이	-3183
니와	-3184
력이	-3185
리품	-3186
받을	-3187
수가	-3188
▁갈고	-3189
▁도우	-3190
▁등불	-3191
▁또는	-3192
▁말라	-3193
▁밤낮	-3194
▁비를	-3195
▁빨리	-3196
▁삼십	-3197
▁육신	-3198
▁음식	-3199
▁주면	-3200
▁향을	-3201
▁회복	-3202
들보다	-3203
릅니다	-3204
바닥에	-3205
워하지	-3206
▁나오게	-3207
▁내려오	-3208
▁누구도	-3209
▁멍에를	-3210
▁몫으로	-3211
▁무렵에	-3212
▁믿음이	-3213
▁번제를	-3214
▁성읍의	-3215
▁요셉의	-3216
▁의롭게	-3217
▁자신을	-3218
▁잡아서	-3219
▁전리품	-3220
▁지으신	-3221
▁길르앗의	-3222
▁나아가서	-3223
▁순종하지	-3224
▁시드기야	-3225
하였으므로	-3226
▁사람들이다	-3227
▁겸	-3228
▁곰	-3229
▁꿇	-3230
▁뱀	-3231
▁빗	-3232
▁섞	-3233
둘기	-3234
러서	-3235
레스	-3236
마는	-3237
오피	-3238
으셨	-3239
이것	-3240
중에	-3241
▁간절	-3242
▁게르	-3243
▁견고	-3244
▁꿈을	-3245
▁떼와	-3246
▁마주	-3247
▁버린	-3248
▁부인	-3249
▁부탁	-3250
▁살해	-3251
▁소돔	-3252
▁손이	-3253
▁스마	-3254
▁시키	-3255
▁싸움	-3256
▁양과	-3257
▁얻을	-3258
▁오지	-3259
▁이새	-3260
▁잔을	-3261
▁차려	-3262
었으며	-3263
티오피	-3264
▁계심을	-3265
▁광야에	-3266
▁그분을	-3267
▁떠나지	-3268
▁명이나	-3269
▁뽑아서	-3270
▁사람아	-3271
▁아사랴	-3272
▁이어서	-3273
▁장막을	-3274
▁정직한	-3275
▁정하여	-3276
▁주어야	-3277
▁치려고	-3278
▁거룩하신	-3279
▁들어가지	-3280
▁번제물로	-3281
▁솔로몬의	-3282
▁신하들이	-3283
▁오른쪽에	-3284
▁예레미야에게	-3285
▁쓴	-3286
시어	-3287
친다	-3288
▁가로	-3289
▁가리	-3290
▁가야	-3291
▁교만	-3292
▁굶주	-3293
▁길에	-3294
▁깨어	-3295
▁누이	-3296
▁모퉁	-3297
▁목소	-3298
▁바른	-3299
▁부모	-3300
▁성실	-3301
▁순금	-3302
▁시돈	-3303
▁시체	-3304
▁쌓아	-3305
▁왕후	-3306
▁율례	-3307
▁의를	-3308
▁잃고	-3309
▁자매	-3310
▁크고	-3311
▁것들이	-3312
▁기꺼이	-3313
▁기브온	-3314
▁내려가	-3315
▁내보내	-3316
▁분명히	-3317
▁삼았다	-3318
▁스불론	-3319
▁십분의	-3320
▁아이의	-3321
▁어귀에	-3322
▁없다고	-3323
▁이르는	-3324
▁이스르	-3325
▁자비를	-3326
▁전쟁이	-3327
▁전하여	-3328
▁하였고	-3329
▁거짓말을	-3330
▁떠나서는	-3331
▁슬기로운	-3332
▁아들이고	-3333
▁이제부터	-3334
▁틀림없이	-3335
▁멈	-3336
▁송	-3337
▁쏘	-3338
년이	-3339
병이	-3340
으러	-3341
인의	-3342
튿날	-3343
혀서	-3344
▁겸손	-3345
▁고핫	-3346
▁기간	-3347
▁나왔	-3348
▁두렵	-3349
▁들여	-3350
▁많아	-3351
▁머무	-3352
▁명철	-3353
▁모조	-3354
▁물고	-3355
▁물리	-3356
▁분의	-3357
▁위의	-3358
▁유익	-3359
▁이번	-3360
▁이십	-3361
▁자유	-3362
▁파괴	-3363
▁품고	-3364
▁피할	-3365
▁한쪽	-3366
▁환상	-3367
심으로	-3368
자리에	-3369
▁계신다	-3370
▁그대를	-3371
▁그들도	-3372
▁분께서	-3373
▁아마샤	-3374
▁아하스	-3375
▁언약궤	-3376
▁여자와	-3377
▁이튿날	-3378
▁있어야	-3379
▁종에게	-3380
▁주려고	-3381
▁필요한	-3382
▁하셔서	-3383
났습니다	-3384
▁계십니다	-3385
▁대신하여	-3386
▁보내셔서	-3387
▁에티오피	-3388
▁여러분도	-3389
▁제자들은	-3390
▁주십니다	-3391
▁두려워하는	-3392
▁아버지에게	-3393
▁않겠습니다	-3394
▁앗시리아의	-3395
▁여호수아에게	-3396
▁니	-3397
거운	-3398
겁게	-3399
더냐	-3400
동안	-3401
마를	-3402
시요	-3403
하루	-3404
▁구해	-3405
▁깨뜨	-3406
▁나사	-3407
▁남지	-3408
▁눈에	-3409
▁대한	-3410
▁동산	-3411
▁마당	-3412
▁말도	-3413
▁반석	-3414
▁사형	-3415
▁수치	-3416
▁숨어	-3417
▁싫어	-3418
▁아세	-3419
▁음행	-3420
▁짐을	-3421
▁판단	-3422
▁풍성	-3423
▁피가	-3424
▁해에	-3425
▁형님	-3426
오너라	-3427
▁가문을	-3428
▁가져다	-3429
▁감옥에	-3430
▁곳에는	-3431
▁권세를	-3432
▁돌아온	-3433
▁돌아올	-3434
▁마시게	-3435
▁무릎을	-3436
▁밖으로	-3437
▁생각이	-3438
▁생명의	-3439
▁성령이	-3440
▁스가랴	-3441
▁알아보	-3442
▁자였다	-3443
▁죽음을	-3444
▁구별하여	-3445
▁베드로는	-3446
▁생각하여	-3447
▁아들들은	-3448
▁제사장의	-3449
▁곡식제물과	-3450
▁분이십니다	-3451
▁국	-3452
▁룻	-3453
▁접	-3454
내지	-3455
다의	-3456
사갈	-3457
세바	-3458
질을	-3459
▁가두	-3460
▁갖추	-3461
▁결정	-3462
▁공포	-3463
▁그만	-3464
▁기쁜	-3465
▁바아	-3466
▁번성	-3467
▁부러	-3468
▁사천	-3469
▁살피	-3470
▁새벽	-3471
▁양쪽	-3472
▁전파	-3473
▁하사	-3474
까지는	-3475
는데도	-3476
보다도	-3477
▁그분은	-3478
▁남자는	-3479
▁내리지	-3480
▁당하지	-3481
▁두어라	-3482
▁마시지	-3483
▁말씀에	-3484
▁모조리	-3485
▁밭에서	-3486
▁빼앗아	-3487
▁사람인	-3488
▁상처를	-3489
▁성령을	-3490
▁성읍이	-3491
▁아하시	-3492
▁전하는	-3493
▁죽어서	-3494
▁죽음의	-3495
▁진노를	-3496
▁하여서	-3497
▁경외하는	-3498
▁않으셨다	-3499
▁우두머리	-3500
▁하더라도	-3501
▁이스라엘아	-3502
▁하겠습니다	-3503
▁이스라엘에서	-3504
▁밥	-3505
▁짠	-3506
▁착	-3507
겠고	-3508
벌을	-3509
사의	-3510
심이	-3511
악한	-3512
았고	-3513
오십	-3514
자로	-3515
▁각자	-3516
▁걸려	-3517
▁그늘	-3518
▁기어	-3519
▁다리	-3520
▁다말	-3521
▁동족	-3522
▁딸이	-3523
▁마흔	-3524
▁모독	-3525
▁밑에	-3526
▁부를	-3527
▁산을	-3528
▁살갗	-3529
▁상전	-3530
▁새겨	-3531
▁생물	-3532
▁이리	-3533
▁정한	-3534
▁종의	-3535
▁종족	-3536
▁죽어	-3537
▁집은	-3538
▁청색	-3539
▁칼이	-3540
▁하자	-3541
다니는	-3542
었으나	-3543
하시며	-3544
▁것이나	-3545
▁기쁨이	-3546
▁깨닫지	-3547
▁나라는	-3548
▁납달리	-3549
▁다음은	-3550
▁드려야	-3551
▁물건을	-3552
▁바울을	-3553
▁밖에는	-3554
▁서기관	-3555
▁성경에	-3556
▁않느냐	-3557
▁않으셨	-3558
▁어른의	-3559
▁여인을	-3560
▁예물을	-3561
▁의로우	-3562
▁이웃을	-3563
▁일곱째	-3564
▁일찍이	-3565
▁잇사갈	-3566
▁지식을	-3567
▁지켜라	-3568
▁터인데	-3569
▁평안히	-3570
▁말합니다	-3571
▁어머니가	-3572
▁포도원을	-3573
▁제사장들은	-3574
▁하늘로부터	-3575
▁뉘	-3576
▁칭	-3577
▁틈	-3578
▁티	-3579
각기	-3580
개를	-3581
리어	-3582
문을	-3583
서도	-3584
시게	-3585
아는	-3586
어버	-3587
으실	-3588
자와	-3589
▁가드	-3590
▁격려	-3591
▁맞이	-3592
▁메고	-3593
▁메뚜	-3594
▁보면	-3595
▁본래	-3596
▁부활	-3597
▁브나	-3598
▁빌립	-3599
▁삼백	-3600
▁섬길	-3601
▁아기	-3602
▁아도	-3603
▁오천	-3604
▁위엄	-3605
▁주위	-3606
▁지식	-3607
▁창고	-3608
▁활을	-3609
하다고	-3610
하시오	-3611
합니까	-3612
▁게르손	-3613
▁금으로	-3614
▁누구냐	-3615
▁다니는	-3616
▁다하여	-3617
▁더욱더	-3618
▁맏아들	-3619
▁모압의	-3620
▁모여서	-3621
▁무서운	-3622
▁바다에	-3623
▁백성아	-3624
▁아니고	-3625
▁오른쪽	-3626
▁우리도	-3627
▁유다가	-3628
▁제각기	-3629
▁죄악을	-3630
▁주검을	-3631
▁주께로	-3632
▁들어와서	-3633
▁마음대로	-3634
▁못합니다	-3635
▁사람처럼	-3636
▁성읍으로	-3637
▁안식일에	-3638
으셨습니다	-3639
▁지파에서는	-3640
▁대제사장들과	-3641
▁뚫	-3642
▁탈	-3643
길이	-3644
다시	-3645
드레	-3646
령을	-3647
림을	-3648
부스	-3649
사는	-3650
살이	-3651
수에	-3652
스러	-3653
전한	-3654
침을	-3655
▁날로	-3656
▁내고	-3657
▁내밀	-3658
▁다투	-3659
▁단단	-3660
▁동침	-3661
▁리브	-3662
▁말과	-3663
▁발견	-3664
▁복음	-3665
▁비방	-3666
▁비틀	-3667
▁셋째	-3668
▁손과	-3669
▁신전	-3670
▁아나	-3671
▁이들	-3672
▁이전	-3673
▁저희	-3674
▁조용	-3675
▁주다	-3676
▁채워	-3677
기에서	-3678
▁기름진	-3679
▁기브아	-3680
▁능력이	-3681
▁도리어	-3682
▁만드는	-3683
▁보살펴	-3684
▁부르는	-3685
▁소문을	-3686
▁손자요	-3687
▁승리를	-3688
▁완전히	-3689
▁원수가	-3690
▁이삭이	-3691
▁일으켜	-3692
▁자들과	-3693
▁자들아	-3694
▁주시며	-3695
▁준비를	-3696
▁초하루	-3697
▁하는데	-3698
이십니다	-3699
▁사람마다	-3700
▁살이었다	-3701
▁성령으로	-3702
▁아들이다	-3703
▁영원하다	-3704
▁하십니까	-3705
▁아브라함은	-3706
▁굵	-3707
▁깔	-3708
▁운	-3709
▁쥐	-3710
되지	-3711
리바	-3712
명을	-3713
미가	-3714
삼십	-3715
이로	-3716
통을	-3717
하난	-3718
하려	-3719
▁계실	-3720
▁과일	-3721
▁낫다	-3722
▁내린	-3723
▁내지	-3724
▁박해	-3725
▁삼키	-3726
▁알리	-3727
▁여덟	-3728
▁왕실	-3729
▁인정	-3730
▁종인	-3731
▁좋게	-3732
▁푸른	-3733
▁희망	-3734
스럽게	-3735
▁그래도	-3736
▁남자와	-3737
▁무서워	-3738
▁문지기	-3739
▁버리지	-3740
▁선물을	-3741
▁아내는	-3742
▁아도니	-3743
▁악인은	-3744
▁전에는	-3745
▁주에게	-3746
▁책임을	-3747
▁하도록	-3748
으십시오	-3749
▁경계선은	-3750
▁돌아왔다	-3751
▁분이시다	-3752
▁싸우려고	-3753
▁여러분과	-3754
▁이스르엘	-3755
▁처음부터	-3756
▁한결같은	-3757
▁감사하여라	-3758
▁이스라엘과	-3759
▁인자하심이	-3760
▁아브라함에게	-3761
▁랍	-3762
▁붉	-3763
▁춤	-3764
고보	-3765
그는	-3766
누가	-3767
람을	-3768
룹바	-3769
서를	-3770
신여	-3771
아를	-3772
▁갈렙	-3773
▁개와	-3774
▁것에	-3775
▁그냥	-3776
▁길갈	-3777
▁날아	-3778
▁넣지	-3779
▁눈먼	-3780
▁달리	-3781
▁데서	-3782
▁뒤따	-3783
▁떠날	-3784
▁뛰어	-3785
▁먹게	-3786
▁바나	-3787
▁벗어	-3788
▁쓸모	-3789
▁옳은	-3790
▁육백	-3791
▁은을	-3792
▁있소	-3793
▁저버	-3794
▁지배	-3795
▁쫓겨	-3796
▁피로	-3797
▁환난	-3798
시켜서	-3799
▁구덩이	-3800
▁기울여	-3801
▁끌어내	-3802
▁나무가	-3803
▁날까지	-3804
▁내려서	-3805
▁당신을	-3806
▁동안은	-3807
▁두려움	-3808
▁드디어	-3809
▁모르고	-3810
▁모르는	-3811
▁병거를	-3812
▁보좌에	-3813
▁부어서	-3814
▁손가락	-3815
▁야고보	-3816
▁약속을	-3817
▁업신여	-3818
▁엘리아	-3819
▁요한이	-3820
▁원수의	-3821
▁율법에	-3822
▁이르게	-3823
▁이삭을	-3824
▁자기와	-3825
▁주님과	-3826
▁택하신	-3827
▁한다고	-3828
▁히브리	-3829
▁가족별로	-3830
▁그에게서	-3831
▁기억하지	-3832
▁므낫세의	-3833
▁바로에게	-3834
▁보내어서	-3835
▁신들에게	-3836
▁이르렀을	-3837
▁하시려고	-3838
▁하십니다	-3839
▁사람이었다	-3840
▁이스라엘에	-3841
▁하나님께로부터	-3842
▁긍	-3843
▁눕	-3844
▁숙	-3845
▁찼	-3846
▁훌	-3847
냐와	-3848
당한	-3849
마른	-3850
분을	-3851
이십	-3852
이의	-3853
▁값을	-3854
▁거슬	-3855
▁공중	-3856
▁긍휼	-3857
▁날은	-3858
▁년을	-3859
▁들을	-3860
▁때는	-3861
▁때와	-3862
▁만족	-3863
▁믿고	-3864
▁바란	-3865
▁벌써	-3866
▁본받	-3867
▁브엘	-3868
▁뿌리	-3869
▁생긴	-3870
▁세울	-3871
▁세일	-3872
▁솟아	-3873
▁수레	-3874
▁악성	-3875
▁어울	-3876
▁에워	-3877
▁여쭈	-3878
▁영토	-3879
▁왕국	-3880
▁우박	-3881
▁잠시	-3882
▁적군	-3883
▁존귀	-3884
▁진흙	-3885
▁처형	-3886
▁폭풍	-3887
▁하닷	-3888
▁형상	-3889
▁황소	-3890
그러면	-3891
▁가까운	-3892
▁구원의	-3893
▁기다리	-3894
▁나서서	-3895
▁너무나	-3896
▁돌보아	-3897
▁돌아서	-3898
▁따르지	-3899
▁떨어져	-3900
▁여부스	-3901
▁울었다	-3902
▁원하는	-3903
▁이야기	-3904
▁잔치를	-3905
▁저질렀	-3906
▁전쟁을	-3907
▁지파와	-3908
▁짐승과	-3909
▁짐승의	-3910
▁행실을	-3911
▁행하는	-3912
▁환상을	-3913
▁것이므로	-3914
▁그것들은	-3915
▁무엇이냐	-3916
▁사로잡아	-3917
▁사방으로	-3918
▁아닙니까	-3919
▁안전하게	-3920
▁여호야김	-3921
▁이야기를	-3922
▁부끄러움을	-3923
▁예레미야가	-3924
▁히스기야가	-3925
▁덕	-3926
▁리	-3927
▁엿	-3928
▁찌	-3929
▁휩	-3930
가가	-3931
그렇	-3932
약을	-3933
위대	-3934
하닷	-3935
함이	-3936
▁거문	-3937
▁귀한	-3938
▁그럴	-3939
▁급히	-3940
▁넣어	-3941
▁노예	-3942
▁농부	-3943
▁대항	-3944
▁돕는	-3945
▁병이	-3946
▁분께	-3947
▁상속	-3948
▁소출	-3949
▁시혼	-3950
▁안겨	-3951
▁않다	-3952
▁어려	-3953
▁열고	-3954
▁영접	-3955
▁오르	-3956
▁오실	-3957
▁잊지	-3958
▁점점	-3959
▁정말	-3960
▁조사	-3961
▁주며	-3962
▁피난	-3963
▁할례	-3964
▁현관	-3965
▁홍색	-3966
으라고	-3967
해지고	-3968
▁나무로	-3969
▁당하는	-3970
▁더러운	-3971
▁들어올	-3972
▁말이냐	-3973
▁맞은쪽	-3974
▁맹세한	-3975
▁모시고	-3976
▁번제와	-3977
▁보이지	-3978
▁삼분의	-3979
▁속하여	-3980
▁아세라	-3981
▁음모를	-3982
▁인자가	-3983
▁자주색	-3984
▁재판관	-3985
▁정하게	-3986
▁제단에	-3987
▁지나서	-3988
▁진리를	-3989
렸습니다	-3990
▁나에게서	-3991
▁다가와서	-3992
▁돌아오게	-3993
▁동쪽으로	-3994
▁물으셨다	-3995
▁백성들이	-3996
▁아들들을	-3997
▁있으면서	-3998
▁주님께서	-3999
▁저녁때까지	-4000
▁드리겠습니다	-4001
▁익	-4002
담이	-4003
대지	-4004
려면	-4005
오게	-4006
오고	-4007
이오	-4008
해진	-4009
▁겨레	-4010
▁군사	-4011
▁굴복	-4012
▁길은	-4013
▁꾸미	-4014
▁노인	-4015
▁동네	-4016
▁만일	-4017
▁며느	-4018
▁몇몇	-4019
▁무찔	-4020
▁배가	-4021
▁보냈	-4022
▁보복	-4023
▁숨겨	-4024
▁십일	-4025
▁안다	-4026
▁어깨	-4027
▁옆에	-4028
▁오랫	-4029
▁외치	-4030
▁은총	-4031
▁자의	-4032
▁지킬	-4033
▁짓지	-4034
▁찔려	-4035
▁책망	-4036
▁천둥	-4037
▁확실	-4038
▁흠이	-4039
람에게	-4040
자들을	-4041
▁간구를	-4042
▁간절히	-4043
▁것들은	-4044
▁겉옷을	-4045
▁기름과	-4046
▁돌이키	-4047
▁떨어지	-4048
▁무기를	-4049
▁민족의	-4050
▁받아들	-4051
▁사울을	-4052
▁악인의	-4053
▁안에는	-4054
▁않으실	-4055
▁어떠한	-4056
▁예수와	-4057
▁올바른	-4058
▁유다는	-4059
▁유다를	-4060
▁이르고	-4061
▁일들이	-4062
▁자이고	-4063
▁조금도	-4064
▁짐승은	-4065
▁헤스본	-4066
들에게는	-4067
▁두려워서	-4068
▁드립니다	-4069
▁생각하고	-4070
▁예수께로	-4071
▁오랫동안	-4072
▁용서하여	-4073
▁차지하게	-4074
▁포도주와	-4075
▁간청하였다	-4076
▁다마스쿠스	-4077
▁마찬가지로	-4078
▁사람이라고	-4079
▁아브라함과	-4080
▁사람들에게는	-4081
▁꿰	-4082
▁립	-4083
▁쉴	-4084
▁좌	-4085
가게	-4086
너의	-4087
뜨리	-4088
론과	-4089
많은	-4090
부를	-4091
열을	-4092
원을	-4093
이면	-4094
절로	-4095
제로	-4096
페르	-4097
회를	-4098
▁간음	-4099
▁거둔	-4100
▁귀가	-4101
▁꺼내	-4102
▁나갔	-4103
▁도피	-4104
▁맞추	-4105
▁무게	-4106
▁사냥	-4107
▁사백	-4108
▁삶을	-4109
▁삼아	-4110
▁생활	-4111
▁섰다	-4112
▁소녀	-4113
▁속건	-4114
▁써서	-4115
▁아하	-4116
▁암미	-4117
▁이슬	-4118
▁자루	-4119
▁작정	-4120
▁젖을	-4121
▁짓게	-4122
▁찾는	-4123
▁추격	-4124
들어서	-4125
자에게	-4126
하였을	-4127
한다고	-4128
▁것인데	-4129
▁기적을	-4130
▁남자를	-4131
▁놋쇠로	-4132
▁당신은	-4133
▁맡았다	-4134
▁목장과	-4135
▁바다를	-4136
▁바다의	-4137
▁바람을	-4138
▁벤하닷	-4139
▁부정을	-4140
▁비틀거	-4141
▁송아지	-4142
▁않았기	-4143
▁영혼이	-4144
▁이리로	-4145
▁입히고	-4146
▁있어라	-4147
▁정의를	-4148
▁종들이	-4149
▁주민이	-4150
▁찬양을	-4151
▁해마다	-4152
그러므로	-4153
셨으므로	-4154
▁군인들은	-4155
▁누구에게	-4156
▁아니하고	-4157
▁이집트를	-4158
▁이집트에	-4159
▁주셨으니	-4160
▁지금까지	-4161
▁하였느냐	-4162
▁그들에게서	-4163
▁들었습니다	-4164
▁제사장에게	-4165
▁검	-4166
▁혹	-4167
▁흰	-4168
경을	-4169
령관	-4170
분이	-4171
셔야	-4172
오니	-4173
지니	-4174
지면	-4175
▁굵은	-4176
▁궁궐	-4177
▁근처	-4178
▁깨우	-4179
▁들판	-4180
▁마른	-4181
▁맡겨	-4182
▁모인	-4183
▁무시	-4184
▁밖의	-4185
▁배신	-4186
▁보아	-4187
▁빌어	-4188
▁삼천	-4189
▁수행	-4190
▁쌓고	-4191
▁열여	-4192
▁오벳	-4193
▁오십	-4194
▁우물	-4195
▁일흔	-4196
▁잔치	-4197
▁잠잠	-4198
▁잡은	-4199
▁종려	-4200
▁좋을	-4201
▁주장	-4202
▁줄로	-4203
▁지성	-4204
▁질투	-4205
▁하맛	-4206
▁허리	-4207
겠으며	-4208
나무와	-4209
당신은	-4210
어나서	-4211
▁곧바로	-4212
▁귀신을	-4213
▁내버려	-4214
▁말하면	-4215
▁무덤에	-4216
▁바라는	-4217
▁비밀을	-4218
▁세상이	-4219
▁아내의	-4220
▁아니면	-4221
▁아비아	-4222
▁에서의	-4223
▁영광과	-4224
▁왕들과	-4225
▁용기를	-4226
▁입으로	-4227
▁족속의	-4228
▁종들을	-4229
▁하였기	-4230
송아지를	-4231
하시려고	-4232
하십니다	-4233
▁기뻐하고	-4234
▁기억하여	-4235
▁노래하는	-4236
▁뿐입니다	-4237
▁요셉에게	-4238
▁원수들을	-4239
▁임금님과	-4240
▁자기들을	-4241
▁자리에서	-4242
▁제사장과	-4243
▁좋아하는	-4244
▁하겠느냐	-4245
▁하나라도	-4246
▁하였으니	-4247
▁곡식제물을	-4248
▁백성에게서	-4249
▁아들들에게	-4250
▁꼬	-4251
▁논	-4252
▁힐	-4253
가의	-4254
나가	-4255
나고	-4256
들로	-4257
름이	-4258
보셋	-4259
셨기	-4260
수로	-4261
스가	-4262
싸고	-4263
어진	-4264
지와	-4265
▁고백	-4266
▁권면	-4267
▁기럇	-4268
▁나단	-4269
▁내던	-4270
▁덮고	-4271
▁덮어	-4272
▁마디	-4273
▁마술	-4274
▁마아	-4275
▁말며	-4276
▁모래	-4277
▁모으	-4278
▁받침	-4279
▁발이	-4280
▁밤을	-4281
▁배불	-4282
▁보자	-4283
▁붙어	-4284
▁비롯	-4285
▁설명	-4286
▁숨을	-4287
▁씻어	-4288
▁아끼	-4289
▁에바	-4290
▁의로	-4291
▁족보	-4292
▁채우	-4293
▁채찍	-4294
▁책에	-4295
▁칭찬	-4296
▁페르	-4297
▁평생	-4298
▁풀을	-4299
▁해치	-4300
▁호소	-4301
들이나	-4302
장으로	-4303
▁갔다가	-4304
▁같아서	-4305
▁곡식과	-4306
▁공중의	-4307
▁군대는	-4308
▁깨끗한	-4309
▁나라로	-4310
▁땅에는	-4311
▁마땅히	-4312
▁만나서	-4313
▁바울과	-4314
▁번째로	-4315
▁부자가	-4316
▁사울과	-4317
▁소리와	-4318
▁수많은	-4319
▁아래로	-4320
▁여기지	-4321
▁위대한	-4322
▁의인이	-4323
▁재물을	-4324
▁주시오	-4325
▁죽임을	-4326
▁즐겁게	-4327
▁지방의	-4328
▁직무를	-4329
▁집안에	-4330
▁판결을	-4331
▁필요가	-4332
▁하라고	-4333
보십시오	-4334
하렵니다	-4335
▁것입니까	-4336
▁곡식제물	-4337
▁기다리고	-4338
▁기억하고	-4339
▁다스리게	-4340
▁다음에는	-4341
▁먹어서는	-4342
▁요나단이	-4343
▁유월절을	-4344
▁있으므로	-4345
▁자들이다	-4346
▁쳐죽였다	-4347
▁하시려는	-4348
▁루	-4349
▁묘	-4350
▁흥	-4351
그가	-4352
끼리	-4353
나답	-4354
벨과	-4355
시킬	-4356
았을	-4357
여러	-4358
오늘	-4359
울을	-4360
책을	-4361
쳐라	-4362
히는	-4363
▁개의	-4364
▁겨우	-4365
▁공정	-4366
▁글을	-4367
▁남녀	-4368
▁내는	-4369
▁달에	-4370
▁달이	-4371
▁돌리	-4372
▁맡기	-4373
▁몸소	-4374
▁못박	-4375
▁물결	-4376
▁배반	-4377
▁삼고	-4378
▁수를	-4379
▁시간	-4380
▁식구	-4381
▁암논	-4382
▁오라	-4383
▁원로	-4384
▁일만	-4385
▁전투	-4386
▁찾을	-4387
▁쳐라	-4388
▁치게	-4389
▁파수	-4390
▁피부	-4391
▁홀로	-4392
대지략	-4393
뿐이다	-4394
야말로	-4395
하시니	-4396
▁가려고	-4397
▁가지를	-4398
▁근위대	-4399
▁기초를	-4400
▁나귀를	-4401
▁날개를	-4402
▁내리고	-4403
▁놀라서	-4404
▁또다시	-4405
▁마음과	-4406
▁배불리	-4407
▁병거와	-4408
▁보아스	-4409
▁성읍들	-4410
▁아이는	-4411
▁어디로	-4412
▁일렀다	-4413
▁있어도	-4414
▁자손도	-4415
▁주시니	-4416
▁지역에	-4417
▁지혜와	-4418
▁피난처	-4419
▁말씀대로	-4420
▁말하면서	-4421
▁민족에게	-4422
▁번제물과	-4423
▁여인에게	-4424
▁역대지략	-4425
▁이러하다	-4426
▁일입니다	-4427
▁장로들이	-4428
▁지나가는	-4429
▁지팡이를	-4430
▁보수하였다	-4431
▁생각하였다	-4432
▁바빌로니아로	-4433
▁바빌로니아의	-4434
▁측	-4435
▁헬	-4436
갈을	-4437
날에	-4438
님을	-4439
도와	-4440
▁공경	-4441
▁나갈	-4442
▁남종	-4443
▁넷째	-4444
▁담대	-4445
▁당한	-4446
▁때를	-4447
▁만날	-4448
▁먹은	-4449
▁밭에	-4450
▁불태	-4451
▁빵과	-4452
▁생기	-4453
▁섬겨	-4454
▁세웠	-4455
▁아멘	-4456
▁아삽	-4457
▁애도	-4458
▁얻게	-4459
▁울타	-4460
▁육체	-4461
▁이른	-4462
▁이해	-4463
▁장차	-4464
▁종류	-4465
▁죄의	-4466
▁줄곧	-4467
▁지붕	-4468
▁집이	-4469
▁처리	-4470
▁칠십	-4471
▁힘입	-4472
기야의	-4473
뜨리고	-4474
시면서	-4475
이므로	-4476
해서는	-4477
▁걸어서	-4478
▁계셨다	-4479
▁계시고	-4480
▁곳이다	-4481
▁기쁨을	-4482
▁길이는	-4483
▁나보다	-4484
▁남에게	-4485
▁누구를	-4486
▁더럽혀	-4487
▁되돌려	-4488
▁되었고	-4489
▁먹었다	-4490
▁모른다	-4491
▁목초지	-4492
▁미스바	-4493
▁바로는	-4494
▁받으실	-4495
▁불의한	-4496
▁성령의	-4497
▁쓰러져	-4498
▁알고서	-4499
▁알았다	-4500
▁야곱을	-4501
▁없으며	-4502
▁에스라	-4503
▁위에는	-4504
▁위해서	-4505
▁있음을	-4506
▁자이다	-4507
▁잡았다	-4508
▁종으로	-4509
▁지방에	-4510
▁태어나	-4511
▁하늘로	-4512
▁허물을	-4513
▁가운데로	-4514
▁달란트를	-4515
▁번제물을	-4516
▁사라지고	-4517
▁아들들의	-4518
▁아비아달	-4519
▁우상들을	-4520
▁황폐하게	-4521
▁흔들리지	-4522
▁예루살렘과	-4523
▁오늘날까지	-4524
▁꼴	-4525
나귀	-4526
덤불	-4527
도가	-4528
밧의	-4529
심과	-4530
유다	-4531
음이	-4532
▁나뭇	-4533
▁눈은	-4534
▁다락	-4535
▁닥칠	-4536
▁맞서	-4537
▁목에	-4538
▁목을	-4539
▁비유	-4540
▁뿐만	-4541
▁성결	-4542
▁세대	-4543
▁아가	-4544
▁안뜰	-4545
▁양이	-4546
▁완전	-4547
▁의논	-4548
▁전령	-4549
▁전체	-4550
▁절반	-4551
▁정죄	-4552
▁제발	-4553
▁종은	-4554
▁지을	-4555
▁출신	-4556
▁하물	-4557
▁학대	-4558
▁화려	-4559
으시니	-4560
적으로	-4561
하듯이	-4562
하므로	-4563
▁건너편	-4564
▁견고한	-4565
▁교만한	-4566
▁교훈을	-4567
▁귀신이	-4568
▁그달리	-4569
▁기구를	-4570
▁기록한	-4571
▁두려운	-4572
▁뒤쫓아	-4573
▁들어갔	-4574
▁메뚜기	-4575
▁몫이다	-4576
▁몸으로	-4577
▁밖에도	-4578
▁백부장	-4579
▁보려고	-4580
▁붙들어	-4581
▁사랑과	-4582
▁상수리	-4583
▁소망을	-4584
▁알렸다	-4585
▁예수가	-4586
▁예후가	-4587
▁의인은	-4588
▁의인의	-4589
▁이삭과	-4590
▁일하는	-4591
▁입혔다	-4592
▁있으나	-4593
▁죽이지	-4594
▁짐승이	-4595
▁한다는	-4596
▁환난을	-4597
쳤습니다	-4598
하였지만	-4599
▁기뻐하며	-4600
▁돌아서서	-4601
▁동안에는	-4602
▁민족들을	-4603
▁성소에서	-4604
▁어머니를	-4605
▁엘리사는	-4606
▁종들에게	-4607
▁에티오피아	-4608
▁주었습니다	-4609
▁진노하셔서	-4610
▁사람들입니다	-4611
▁그리스도께서는	-4612
▁답	-4613
▁뵙	-4614
▁싣	-4615
▁코	-4616
▁투	-4617
▁훔	-4618
과도	-4619
누구	-4620
들여	-4621
려도	-4622
마의	-4623
미를	-4624
병과	-4625
병에	-4626
숭배	-4627
시지	-4628
어요	-4629
올라	-4630
이냐	-4631
▁거주	-4632
▁골라	-4633
▁곰팡	-4634
▁넘기	-4635
▁년이	-4636
▁달린	-4637
▁대낮	-4638
▁되며	-4639
▁되찾	-4640
▁등을	-4641
▁똑똑	-4642
▁띠를	-4643
▁면류	-4644
▁명과	-4645
▁몰래	-4646
▁바룩	-4647
▁발로	-4648
▁밝혀	-4649
▁방주	-4650
▁배에	-4651
▁보낼	-4652
▁불꽃	-4653
▁불타	-4654
▁비느	-4655
▁석류	-4656
▁소나	-4657
▁속이	-4658
▁수소	-4659
▁시냇	-4660
▁싶어	-4661
▁아리	-4662
▁약한	-4663
▁양의	-4664
▁옷과	-4665
▁은밀	-4666
▁일부	-4667
▁입힌	-4668
▁자나	-4669
▁정복	-4670
▁죄에	-4671
▁해몽	-4672
▁해산	-4673
▁헤아	-4674
▁확신	-4675
김없이	-4676
되어서	-4677
렵니까	-4678
보다는	-4679
▁가다가	-4680
▁가셨다	-4681
▁갈릴리	-4682
▁강하게	-4683
▁계획을	-4684
▁군대의	-4685
▁규례와	-4686
▁기근이	-4687
▁나이가	-4688
▁내게서	-4689
▁놓겠다	-4690
▁당하게	-4691
▁돌이켜	-4692
▁되어야	-4693
▁두고서	-4694
▁둘레에	-4695
▁들에서	-4696
▁똑같은	-4697
▁마리가	-4698
▁맹세를	-4699
▁무거운	-4700
▁바람에	-4701
▁부르며	-4702
▁사랑이	-4703
▁성소의	-4704
▁소문이	-4705
▁속이는	-4706
▁수금을	-4707
▁않으니	-4708
▁어둠이	-4709
▁언약의	-4710
▁영혼을	-4711
▁오만한	-4712
▁음성을	-4713
▁재난을	-4714
▁지었다	-4715
▁진노가	-4716
▁천사를	-4717
▁파수꾼	-4718
셨습니까	-4719
▁돌려보내	-4720
▁떠나갔다	-4721
▁맹세한다	-4722
▁백성들은	-4723
▁부하들을	-4724
▁사람이요	-4725
▁생각하는	-4726
▁아하수에	-4727
▁않으신다	-4728
▁어머니의	-4729
▁장로들과	-4730
▁종려나무	-4731
▁두루마리를	-4732
▁무화과나무	-4733
▁보고하였다	-4734
▁사람으로서	-4735
▁상수리나무	-4736
▁솔로몬에게	-4737
▁아무에게도	-4738
▁여로보암의	-4739
▁예언자들이	-4740
▁못하였습니다	-4741
▁꼰	-4742
▁닦	-4743
▁덫	-4744
▁듯	-4745
▁멜	-4746
▁센	-4747
▁엉	-4748
▁줍	-4749
▁테	-4750
거리	-4751
로를	-4752
롭고	-4753
못과	-4754
물의	-4755
수와	-4756
원이	-4757
일에	-4758
전을	-4759
종일	-4760
해도	-4761
▁개가	-4762
▁광주	-4763
▁그림	-4764
▁꿀이	-4765
▁낮은	-4766
▁너도	-4767
▁넘은	-4768
▁눈의	-4769
▁뉘우	-4770
▁도로	-4771
▁들에	-4772
▁디모	-4773
▁만에	-4774
▁망할	-4775
▁먹어	-4776
▁명심	-4777
▁무장	-4778
▁밀려	-4779
▁벌거	-4780
▁변호	-4781
▁부대	-4782
▁분별	-4783
▁사반	-4784
▁살룸	-4785
▁서약	-4786
▁소와	-4787
▁속임	-4788
▁시중	-4789
▁싣고	-4790
▁아홉	-4791
▁야베	-4792
▁없기	-4793
▁여왕	-4794
▁열한	-4795
▁염려	-4796
▁예순	-4797
▁요청	-4798
▁용감	-4799
▁저물	-4800
▁창을	-4801
▁찾고	-4802
▁충만	-4803
▁티끌	-4804
▁하기	-4805
병으로	-4806
장에서	-4807
제물의	-4808
하다가	-4809
▁계시지	-4810
▁구하는	-4811
▁군대와	-4812
▁다니엘	-4813
▁단단히	-4814
▁딸들이	-4815
▁머리털	-4816
▁먹어야	-4817
▁못하며	-4818
▁므라리	-4819
▁바꾸어	-4820
▁반죽한	-4821
▁버리는	-4822
▁보기에	-4823
▁분노가	-4824
▁비유를	-4825
▁사랑은	-4826
▁살다가	-4827
▁수밖에	-4828
▁없다는	-4829
▁오라고	-4830
▁왕위에	-4831
▁요셉을	-4832
▁용서해	-4833
▁울면서	-4834
▁율법이	-4835
▁은총을	-4836
▁있었기	-4837
▁잊어버	-4838
▁재판을	-4839
▁죽으니	-4840
▁지성소	-4841
▁지파를	-4842
▁팔아서	-4843
▁폐허가	-4844
▁허리에	-4845
▁훈계를	-4846
▁희망을	-4847
하였으며	-4848
▁골짜기에	-4849
▁그래야만	-4850
▁기울여라	-4851
▁땅바닥에	-4852
▁바라보고	-4853
▁베드로와	-4854
▁불러다가	-4855
▁빌라도가	-4856
▁시작하여	-4857
▁임금님은	-4858
▁자손이다	-4859
▁주인에게	-4860
▁천사에게	-4861
▁태어났다	-4862
▁기억하여라	-4863
▁생각합니다	-4864
▁아하수에로	-4865
▁없었습니다	-4866
▁여호사밧이	-4867
▁하나님께로	-4868
▁냄	-4869
▁덧	-4870
▁붓	-4871
▁층	-4872
길로	-4873
론의	-4874
름을	-4875
마가	-4876
부로	-4877
분은	-4878
서야	-4879
세벨	-4880
으냐	-4881
일이	-4882
조를	-4883
케도	-4884
▁가라	-4885
▁간다	-4886
▁갇혀	-4887
▁갈멜	-4888
▁같을	-4889
▁거처	-4890
▁걸고	-4891
▁겉옷	-4892
▁권한	-4893
▁귀족	-4894
▁그제	-4895
▁근심	-4896
▁기운	-4897
▁나면	-4898
▁놓았	-4899
▁닥쳐	-4900
▁돋아	-4901
▁둘이	-4902
▁드는	-4903
▁떠난	-4904
▁마노	-4905
▁마르	-4906
▁멈추	-4907
▁명의	-4908
▁몫이	-4909
▁무성	-4910
▁방언	-4911
▁번쩍	-4912
▁비가	-4913
▁산과	-4914
▁성의	-4915
▁얻는	-4916
▁얻지	-4917
▁영도	-4918
▁오백	-4919
▁오홀	-4920
▁원망	-4921
▁잃은	-4922
▁자고	-4923
▁지고	-4924
▁집어	-4925
▁찍어	-4926
▁타는	-4927
▁품에	-4928
▁하던	-4929
▁화덕	-4930
▁휩쓸	-4931
거리는	-4932
었더니	-4933
자들은	-4934
해졌다	-4935
▁고집을	-4936
▁광야로	-4937
▁군대에	-4938
▁권능을	-4939
▁그릇된	-4940
▁그물을	-4941
▁기름부	-4942
▁나타날	-4943
▁내어라	-4944
▁돌아와	-4945
▁동쪽에	-4946
▁들이닥	-4947
▁디모데	-4948
▁마시는	-4949
▁만드신	-4950
▁말하니	-4951
▁먹이를	-4952
▁모두들	-4953
▁모습을	-4954
▁버려라	-4955
▁보시는	-4956
▁브리스	-4957
▁뿌리를	-4958
▁사자가	-4959
▁생각해	-4960
▁생명이	-4961
▁섬기지	-4962
▁세워서	-4963
▁없어질	-4964
▁오셔서	-4965
▁온종일	-4966
▁요한의	-4967
▁이른다	-4968
▁자녀가	-4969
▁정말로	-4970
▁조상과	-4971
▁주인의	-4972
▁증인이	-4973
▁진실로	-4974
▁찬양할	-4975
▁표적을	-4976
▁행적과	-4977
▁향기로	-4978
▁형벌을	-4979
들에게도	-4980
케도니아	-4981
하시기를	-4982
▁기름기를	-4983
▁돌아가게	-4984
▁되었는데	-4985
▁부정하게	-4986
▁사무엘은	-4987
▁생각하지	-4988
▁성읍들과	-4989
▁안식일을	-4990
▁않겠다고	-4991
▁않습니까	-4992
▁앞에서는	-4993
▁어른께서	-4994
▁언약궤를	-4995
▁이루어질	-4996
▁정결하게	-4997
▁제자들과	-4998
임금님께서	-4999
▁말씀하시는	-5000
▁문안합니다	-5001
▁말씀하십니다	-5002
▁아버지께서는	-5003
▁낯	-5004
▁뇌	-5005
▁앓	-5006
▁첩	-5007
▁캄	-5008
▁힌	-5009
나서	-5010
렛날	-5011
생을	-5012
세를	-5013
스는	-5014
씩을	-5015
어떤	-5016
우는	-5017
워라	-5018
워야	-5019
일곱	-5020
장에	-5021
장은	-5022
쟁이	-5023
품을	-5024
하늘	-5025
향을	-5026
▁가마	-5027
▁거둘	-5028
▁과연	-5029
▁끝내	-5030
▁낫게	-5031
▁내용	-5032
▁노여	-5033
▁높여	-5034
▁놓여	-5035
▁담아	-5036
▁대장	-5037
▁돌판	-5038
▁뒤덮	-5039
▁드린	-5040
▁막아	-5041
▁맡아	-5042
▁못했	-5043
▁바를	-5044
▁반대	-5045
▁밤이	-5046
▁보관	-5047
▁산산	-5048
▁소망	-5049
▁심지	-5050
▁싶은	-5051
▁아카	-5052
▁앞을	-5053
▁어쩌	-5054
▁울려	-5055
▁으뜸	-5056
▁이에	-5057
▁저울	-5058
▁족과	-5059
▁집과	-5060
▁차고	-5061
▁쳐부	-5062
▁침략	-5063
▁캄캄	-5064
▁특별	-5065
▁편이	-5066
▁하려	-5067
▁히위	-5068
▁힘센	-5069
가거라	-5070
그들이	-5071
었느냐	-5072
지에서	-5073
칩니다	-5074
하거든	-5075
하기로	-5076
하시면	-5077
▁가문에	-5078
▁것이냐	-5079
▁공의를	-5080
▁끝에서	-5081
▁나무와	-5082
▁나무의	-5083
▁내리신	-5084
▁따랐다	-5085
▁뜻대로	-5086
▁마음껏	-5087
▁말아야	-5088
▁말이오	-5089
▁먹어라	-5090
▁목욕을	-5091
▁바알의	-5092
▁보내고	-5093
▁섬겼다	-5094
▁성소를	-5095
▁싸움을	-5096
▁아닌가	-5097
▁아들아	-5098
▁아시고	-5099
▁아침이	-5100
▁않아도	-5101
▁약속한	-5102
▁없으니	-5103
▁예배를	-5104
▁올리는	-5105
▁은으로	-5106
▁은혜로	-5107
▁음란한	-5108
▁이웃의	-5109
▁절기를	-5110
▁집안의	-5111
▁하거나	-5112
▁하물며	-5113
▁흘리는	-5114
▁힘으로	-5115
누구든지	-5116
▁가까이에	-5117
▁가시덤불	-5118
▁내리겠다	-5119
▁말입니까	-5120
▁무찔렀다	-5121
▁민족들이	-5122
▁사랑으로	-5123
▁사랑하고	-5124
▁사방에서	-5125
▁아들에게	-5126
▁아래에서	-5127
▁않았는데	-5128
▁않았으며	-5129
▁압살롬은	-5130
▁오늘까지	-5131
▁우상에게	-5132
▁울부짖는	-5133
▁하나하나	-5134
하나님께서	-5135
▁마케도니아	-5136
▁엘르아살과	-5137
▁영광스러운	-5138
▁예루살렘이	-5139
▁하겠습니까	-5140
▁두려워하였다	-5141
▁뱃	-5142
▁삽	-5143
▁썼	-5144
▁짝	-5145
▁혈	-5146
가와	-5147
긴다	-5148
놓고	-5149
단의	-5150
데스	-5151
도로	-5152
들일	-5153
라를	-5154
라야	-5155
락과	-5156
락을	-5157
렐루	-5158
마에	-5159
바가	-5160
삯을	-5161
세가	-5162
었소	-5163
온다	-5164
하자	-5165
해를	-5166
▁가려	-5167
▁가에	-5168
▁결코	-5169
▁고모	-5170
▁관한	-5171
▁구역	-5172
▁누리	-5173
▁대문	-5174
▁덮개	-5175
▁떠돌	-5176
▁마구	-5177
▁많고	-5178
▁망대	-5179
▁모태	-5180
▁몸은	-5181
▁문의	-5182
▁부디	-5183
▁비난	-5184
▁뻗어	-5185
▁사건	-5186
▁사모	-5187
▁상인	-5188
▁상태	-5189
▁새와	-5190
▁선을	-5191
▁소를	-5192
▁숭배	-5193
▁스데	-5194
▁스라	-5195
▁신랑	-5196
▁싸울	-5197
▁쓰고	-5198
▁아드	-5199
▁안장	-5200
▁앉은	-5201
▁얼룩	-5202
▁엘가	-5203
▁역시	-5204
▁와야	-5205
▁완성	-5206
▁움직	-5207
▁있은	-5208
▁잠자	-5209
▁재니	-5210
▁조공	-5211
▁좌우	-5212
▁진멸	-5213
▁치며	-5214
▁치솟	-5215
▁칠천	-5216
▁털어	-5217
▁펴서	-5218
▁하갈	-5219
▁항상	-5220
▁헛되	-5221
▁혀를	-5222
기야와	-5223
렐루야	-5224
마저도	-5225
부장과	-5226
아하스	-5227
옵니다	-5228
▁감사의	-5229
▁감추어	-5230
▁구원해	-5231
▁나오고	-5232
▁남자의	-5233
▁너비는	-5234
▁누구의	-5235
▁도움을	-5236
▁뒤따라	-5237
▁똑똑히	-5238
▁망하게	-5239
▁메마른	-5240
▁모양을	-5241
▁목자가	-5242
▁바로와	-5243
▁발람이	-5244
▁보이는	-5245
▁부르지	-5246
▁부모를	-5247
▁사정을	-5248
▁섬기고	-5249
▁성막을	-5250
▁성전과	-5251
▁시스라	-5252
▁시체를	-5253
▁싸우러	-5254
▁싸움터	-5255
▁아름답	-5256
▁아비새	-5257
▁아합의	-5258
▁알아야	-5259
▁여기고	-5260
▁예식을	-5261
▁은혜가	-5262
▁이삭은	-5263
▁일어서	-5264
▁있지만	-5265
▁제자가	-5266
▁지키면	-5267
▁지혜는	-5268
▁치겠다	-5269
왔습니다	-5270
▁거짓으로	-5271
▁계속하여	-5272
▁그것들이	-5273
▁그에게는	-5274
▁기름기와	-5275
▁기쁨으로	-5276
▁내려갔다	-5277
▁능력으로	-5278
▁도망하여	-5279
▁동쪽에서	-5280
▁맹세하신	-5281
▁모릅니다	-5282
▁비느하스	-5283
▁순금으로	-5284
▁심판하실	-5285
▁아들들과	-5286
▁아들딸을	-5287
▁아카시아	-5288
▁야고보와	-5289
▁응답하여	-5290
▁의지하는	-5291
▁이사야가	-5292
▁일어났다	-5293
▁하였는데	-5294
▁황무지로	-5295
▁않았으므로	-5296
▁예레미야를	-5297
▁좋겠습니다	-5298
▁지도자들이	-5299
▁하나님이신	-5300
▁하였으므로	-5301
▁여러분에게로	-5302
▁끄	-5303
▁뵈	-5304
▁뻔	-5305
▁삭	-5306
▁커	-5307
▁턱	-5308
▁펼	-5309
결한	-5310
김을	-5311
님의	-5312
단에	-5313
된다	-5314
르며	-5315
사슬	-5316
셨을	-5317
습을	-5318
움과	-5319
인을	-5320
져야	-5321
주를	-5322
해질	-5323
▁강물	-5324
▁고기	-5325
▁궁핍	-5326
▁귀에	-5327
▁기술	-5328
▁노략	-5329
▁늙은	-5330
▁데가	-5331
▁되니	-5332
▁드나	-5333
▁들게	-5334
▁르바	-5335
▁먹이	-5336
▁목이	-5337
▁바와	-5338
▁발에	-5339
▁방법	-5340
▁벗겨	-5341
▁부유	-5342
▁비탈	-5343
▁아달	-5344
▁알았	-5345
▁앞서	-5346
▁앞세	-5347
▁양털	-5348
▁언어	-5349
▁옳지	-5350
▁인사	-5351
▁일행	-5352
▁자세	-5353
▁잘라	-5354
▁장식	-5355
▁적은	-5356
▁전염	-5357
▁제안	-5358
▁주게	-5359
▁진영	-5360
▁초대	-5361
▁초막	-5362
▁크신	-5363
▁택한	-5364
▁피는	-5365
▁환호	-5366
▁황제	-5367
▁훈계	-5368
그러나	-5369
리라는	-5370
어머니	-5371
움으로	-5372
하다는	-5373
하지는	-5374
▁거기서	-5375
▁괴로워	-5376
▁나사렛	-5377
▁넣었다	-5378
▁높이는	-5379
▁도성에	-5380
▁돌리고	-5381
▁되기를	-5382
▁되도록	-5383
▁마아가	-5384
▁머리카	-5385
▁바란다	-5386
▁바람이	-5387
▁베푸신	-5388
▁부르고	-5389
▁빼앗은	-5390
▁뿌리는	-5391
▁사흘째	-5392
▁삼손이	-5393
▁소유로	-5394
▁시대에	-5395
▁쓰러질	-5396
▁아르논	-5397
▁악인이	-5398
▁야곱과	-5399
▁에서가	-5400
▁여인의	-5401
▁열매가	-5402
▁위로를	-5403
▁은혜와	-5404
▁이삭의	-5405
▁있는지	-5406
▁전쟁에	-5407
▁제단의	-5408
▁죽는다	-5409
▁죽여야	-5410
▁증언을	-5411
▁지어서	-5412
▁지혜로	-5413
▁천부장	-5414
▁함부로	-5415
▁흔들어	-5416
하겠느냐	-5417
하나님의	-5418
하나님이	-5419
▁가르침을	-5420
▁나에게는	-5421
▁남쪽으로	-5422
▁레바논의	-5423
▁만드시고	-5424
▁못하도록	-5425
▁바라보며	-5426
▁벗어나지	-5427
▁살펴보고	-5428
▁원수들의	-5429
▁이웃에게	-5430
▁잡으려고	-5431
▁찾아가서	-5432
▁하는구나	-5433
▁황무지가	-5434
▁기록하기를	-5435
▁않으십니다	-5436
▁우리에게서	-5437
▁죽었습니다	-5438
▁한가운데서	-5439
▁않으셨습니다	-5440
▁하나님이시다	-5441
▁곤	-5442
▁돼	-5443
▁몽	-5444
▁및	-5445
▁얽	-5446
▁잎	-5447
▁쪼	-5448
가로	-5449
값을	-5450
개가	-5451
당할	-5452
두리	-5453
령한	-5454
만과	-5455
무궁	-5456
불을	-5457
세메	-5458
신이	-5459
에돔	-5460
우며	-5461
위를	-5462
정에	-5463
중해	-5464
함과	-5465
▁가꾸	-5466
▁거리	-5467
▁거의	-5468
▁것들	-5469
▁경호	-5470
▁계산	-5471
▁굽어	-5472
▁깃발	-5473
▁꺾어	-5474
▁나다	-5475
▁늘어	-5476
▁대표	-5477
▁들의	-5478
▁라기	-5479
▁막대	-5480
▁므술	-5481
▁붉은	-5482
▁사슬	-5483
▁산다	-5484
▁살에	-5485
▁살육	-5486
▁삼켜	-5487
▁새로	-5488
▁성에	-5489
▁세월	-5490
▁수염	-5491
▁스루	-5492
▁신뢰	-5493
▁신의	-5494
▁암소	-5495
▁애써	-5496
▁애원	-5497
▁여우	-5498
▁올가	-5499
▁왕좌	-5500
▁위협	-5501
▁자도	-5502
▁찢어	-5503
▁타오	-5504
▁특히	-5505
▁팔로	-5506
▁팔아	-5507
▁형편	-5508
겠다는	-5509
당하게	-5510
비둘기	-5511
시키고	-5512
았으며	-5513
었지만	-5514
인에게	-5515
하려는	-5516
▁가슴받	-5517
▁것임을	-5518
▁그렇다	-5519
▁기구와	-5520
▁깨어나	-5521
▁나라와	-5522
▁나섰다	-5523
▁날부터	-5524
▁느밧의	-5525
▁다리를	-5526
▁다섯째	-5527
▁동쪽의	-5528
▁마땅한	-5529
▁마시오	-5530
▁많아서	-5531
▁많았다	-5532
▁망하고	-5533
▁문으로	-5534
▁방패를	-5535
▁비둘기	-5536
▁사형에	-5537
▁섬기게	-5538
▁섬기며	-5539
▁성벽이	-5540
▁세겔로	-5541
▁소식이	-5542
▁스룹바	-5543
▁시온을	-5544
▁신들이	-5545
▁신령한	-5546
▁아스돗	-5547
▁없었고	-5548
▁없으면	-5549
▁여기는	-5550
▁오라버	-5551
▁오시는	-5552
▁오신다	-5553
▁유다에	-5554
▁율법의	-5555
▁이세벨	-5556
▁있다면	-5557
▁자기들	-5558
▁자신이	-5559
▁잡아먹	-5560
▁족속이	-5561
▁지냈다	-5562
▁지중해	-5563
▁집안이	-5564
▁차지한	-5565
▁평화의	-5566
▁하늘이	-5567
▁흩어져	-5568
▁가르치는	-5569
▁곰팡이가	-5570
▁규례이다	-5571
▁그에게로	-5572
▁기뻐하는	-5573
▁끌어다가	-5574
▁내려와서	-5575
▁너에게서	-5576
▁따라갔다	-5577
▁때로부터	-5578
▁무서워서	-5579
▁밤낮으로	-5580
▁부끄럽게	-5581
▁부르심을	-5582
▁브엘세바	-5583
▁아내에게	-5584
▁아브넬이	-5585
▁여호야긴	-5586
▁영원무궁	-5587
▁이제까지	-5588
▁자들에게	-5589
▁하였으며	-5590
▁회당에서	-5591
▁거두어들이	-5592
▁그리스도로	-5593
▁기뻐하였다	-5594
▁에브라임의	-5595
▁여호아하스	-5596
▁예루살렘아	-5597
▁예언자들의	-5598
▁있었으므로	-5599
▁찬송하여라	-5600
▁화목제물로	-5601
▁났	-5602
▁딤	-5603
▁흑	-5604
겠지	-5605
고와	-5606
금과	-5607
끔히	-5608
내와	-5609
님이	-5610
다말	-5611
도의	-5612
드리	-5613
란을	-5614
림몬	-5615
바는	-5616
번에	-5617
선을	-5618
셨고	-5619
아멘	-5620
이라	-5621
임과	-5622
자고	-5623
줄을	-5624
▁가루	-5625
▁걷는	-5626
▁곳의	-5627
▁국경	-5628
▁그도	-5629
▁났다	-5630
▁내시	-5631
▁넓은	-5632
▁다녀	-5633
▁다닐	-5634
▁다루	-5635
▁다물	-5636
▁달고	-5637
▁대지	-5638
▁독한	-5639
▁동맹	-5640
▁듯이	-5641
▁막내	-5642
▁맹렬	-5643
▁모은	-5644
▁묻는	-5645
▁묻은	-5646
▁물에	-5647
▁믿게	-5648
▁바르	-5649
▁베레	-5650
▁뼈를	-5651
▁사사	-5652
▁사용	-5653
▁사절	-5654
▁서둘	-5655
▁선견	-5656
▁소송	-5657
▁슬로	-5658
▁실행	-5659
▁아다	-5660
▁아로	-5661
▁아벨	-5662
▁에그	-5663
▁왕자	-5664
▁욥이	-5665
▁울며	-5666
▁인간	-5667
▁잃을	-5668
▁입혀	-5669
▁자격	-5670
▁자로	-5671
▁잔인	-5672
▁잡수	-5673
▁죄는	-5674
▁죄와	-5675
▁지진	-5676
▁참고	-5677
▁참여	-5678
▁찼다	-5679
▁측량	-5680
▁폭력	-5681
▁풀이	-5682
▁피와	-5683
▁피조	-5684
▁향료	-5685
▁헐어	-5686
▁확인	-5687
▁훈련	-5688
려거든	-5689
▁강에서	-5690
▁계시다	-5691
▁관하여	-5692
▁권리를	-5693
▁까닭은	-5694
▁깨닫게	-5695
▁나무에	-5696
▁남기지	-5697
▁다니며	-5698
▁다리우	-5699
▁다스린	-5700
▁다하고	-5701
▁데려오	-5702
▁독수리	-5703
▁둘러보	-5704
▁드러나	-5705
▁말끔히	-5706
▁맞서서	-5707
▁묶어서	-5708
▁바쳐서	-5709
▁번제물	-5710
▁벌거벗	-5711
▁보내는	-5712
▁보였다	-5713
▁부리는	-5714
▁붙잡아	-5715
▁빛나는	-5716
▁뿌리가	-5717
▁생각은	-5718
▁성읍은	-5719
▁성전이	-5720
▁아느냐	-5721
▁악인을	-5722
▁앉았다	-5723
▁알리고	-5724
▁알아라	-5725
▁어두워	-5726
▁얼마를	-5727
▁없구나	-5728
▁올렸다	-5729
▁외쳐라	-5730
▁요압은	-5731
▁요한은	-5732
▁이들을	-5733
▁이새의	-5734
▁자녀를	-5735
▁자리잡	-5736
▁자손인	-5737
▁자식이	-5738
▁조상을	-5739
▁주었고	-5740
▁즐거운	-5741
▁증거궤	-5742
▁지나갈	-5743
▁지시를	-5744
▁지켰다	-5745
▁진실을	-5746
▁태어날	-5747
▁통하여	-5748
▁하시면	-5749
▁허리를	-5750
▁형제나	-5751
▁화살을	-5752
하셨으니	-5753
하십니까	-5754
▁가시나무	-5755
▁건너가서	-5756
▁경우에는	-5757
▁군사령관	-5758
▁군인들을	-5759
▁끊어지지	-5760
▁내려오는	-5761
▁너희보다	-5762
▁다음에야	-5763
▁돌아다니	-5764
▁말씀으로	-5765
▁부끄러운	-5766
▁북쪽으로	-5767
▁서쪽으로	-5768
▁성결하게	-5769
▁세우시고	-5770
▁소리쳤다	-5771
▁시온에서	-5772
▁아이들을	-5773
▁아침까지	-5774
▁어머니는	-5775
▁얻으려고	-5776
▁예언자를	-5777
▁요시야의	-5778
▁자식들을	-5779
▁장막으로	-5780
▁점령하고	-5781
▁지휘관은	-5782
▁튼튼하게	-5783
▁할렐루야	-5784
▁허락하여	-5785
▁가문에서는	-5786
▁그들에게는	-5787
▁그리스도와	-5788
▁기도하였다	-5789
▁돌아가거라	-5790
▁돌아오너라	-5791
▁만들었는데	-5792
▁버렸습니다	-5793
▁사랑하여라	-5794
▁어머니에게	-5795
▁예레미야는	-5796
▁희생제물로	-5797
▁희생제물을	-5798
▁히스기야는	-5799
▁하나님이십니다	-5800
▁둥	-5801
▁믹	-5802
▁씁	-5803
▁짧	-5804
괜찮	-5805
느웨	-5806
드니	-5807
만히	-5808
모가	-5809
발이	-5810
셔도	-5811
소에	-5812
스를	-5813
업을	-5814
예를	-5815
이게	-5816
해지	-5817
화된	-5818
▁각종	-5819
▁갇힌	-5820
▁게으	-5821
▁견디	-5822
▁계곡	-5823
▁그루	-5824
▁그물	-5825
▁꾸어	-5826
▁끝이	-5827
▁나봇	-5828
▁날카	-5829
▁내보	-5830
▁내신	-5831
▁놓을	-5832
▁다녔	-5833
▁다오	-5834
▁담긴	-5835
▁담을	-5836
▁되던	-5837
▁뒤집	-5838
▁들지	-5839
▁때의	-5840
▁뜯어	-5841
▁매복	-5842
▁무찌	-5843
▁미혹	-5844
▁믿을	-5845
▁바닥	-5846
▁반항	-5847
▁밤새	-5848
▁보상	-5849
▁불렀	-5850
▁불리	-5851
▁비천	-5852
▁사면	-5853
▁사서	-5854
▁산의	-5855
▁살과	-5856
▁살진	-5857
▁생겨	-5858
▁수산	-5859
▁시집	-5860
▁식탁	-5861
▁안디	-5862
▁앉게	-5863
▁억울	-5864
▁우러	-5865
▁이기	-5866
▁일삼	-5867
▁전사	-5868
▁젖과	-5869
▁총명	-5870
▁출발	-5871
▁출전	-5872
▁하룻	-5873
▁행군	-5874
▁혹시	-5875
그들은	-5876
기라도	-5877
들처럼	-5878
뜨렸다	-5879
소리를	-5880
으시오	-5881
으신다	-5882
이지만	-5883
정하다	-5884
▁가만히	-5885
▁각자가	-5886
▁같구나	-5887
▁거슬러	-5888
▁게하시	-5889
▁곁에서	-5890
▁기뻐할	-5891
▁끌려갈	-5892
▁놓고서	-5893
▁담았다	-5894
▁더욱이	-5895
▁도성이	-5896
▁따라가	-5897
▁마아세	-5898
▁며느리	-5899
▁모아서	-5900
▁못하면	-5901
▁민족들	-5902
▁밤에는	-5903
▁보면서	-5904
▁부대는	-5905
▁사이의	-5906
▁삼아서	-5907
▁새끼를	-5908
▁세우는	-5909
▁숫양을	-5910
▁시온의	-5911
▁아들들	-5912
▁악행을	-5913
▁알려라	-5914
▁어려운	-5915
▁요하난	-5916
▁입었다	-5917
▁있는가	-5918
▁자기네	-5919
▁자세히	-5920
▁전쟁과	-5921
▁족속을	-5922
▁종살이	-5923
▁주라고	-5924
▁지나지	-5925
▁질렀다	-5926
▁폐허로	-5927
▁포로가	-5928
▁하나씩	-5929
▁하다가	-5930
▁화려한	-5931
였습니다	-5932
▁나오너라	-5933
▁대답하여	-5934
▁들어가게	-5935
▁목소리를	-5936
▁못하느냐	-5937
▁무리에게	-5938
▁보내셨다	-5939
▁비롯하여	-5940
▁빌라도는	-5941
▁세우겠다	-5942
▁스루야의	-5943
▁아십니다	-5944
▁여호아스	-5945
▁예언자의	-5946
▁오라버니	-5947
▁오벳에돔	-5948
▁요나단은	-5949
▁요새화된	-5950
▁위에다가	-5951
▁이스마엘	-5952
▁족속에게	-5953
▁주시려고	-5954
▁지나가게	-5955
▁청하였다	-5956
▁통치자가	-5957
▁해주시고	-5958
▁회중에게	-5959
▁힘입어서	-5960
▁도망하였다	-5961
▁무엇이라고	-5962
▁사람이든지	-5963
▁아브라함을	-5964
▁이르시기를	-5965
▁전멸시켜서	-5966
▁제사장으로	-5967
▁지시하였다	-5968
▁지었습니다	-5969
▁낡	-5970
▁낭	-5971
▁벼	-5972
▁숯	-5973
▁싹	-5974
▁졸	-5975
▁짊	-5976
▁켜	-5977
▁탓	-5978
각이	-5979
갔고	-5980
권을	-5981
글론	-5982
내고	-5983
단이	-5984
댜와	-5985
도는	-5986
돌을	-5987
랏과	-5988
련다	-5989
무더	-5990
시킨	-5991
심에	-5992
아귀	-5993
여자	-5994
오백	-5995
으려	-5996
인다	-5997
쟁반	-5998
저히	-5999
▁가면	-6000
▁가볍	-6001
▁갈대	-6002
▁감옥	-6003
▁감추	-6004
▁고소	-6005
▁구주	-6006
▁굳세	-6007
▁규탄	-6008
▁그랬	-6009
▁금고	-6010
▁나답	-6011
▁낙심	-6012
▁낮추	-6013
▁낳아	-6014
▁냄새	-6015
▁다툼	-6016
▁당장	-6017
▁당황	-6018
▁대궐	-6019
▁도비	-6020
▁뚫고	-6021
▁뜻이	-6022
▁라못	-6023
▁마길	-6024
▁맛다	-6025
▁몰고	-6026
▁몽둥	-6027
▁무기	-6028
▁므라	-6029
▁밀어	-6030
▁병을	-6031
▁부서	-6032
▁북녘	-6033
▁불과	-6034
▁불릴	-6035
▁불평	-6036
▁사만	-6037
▁사신	-6038
▁생겼	-6039
▁셀라	-6040
▁수리	-6041
▁스승	-6042
▁신음	-6043
▁심부	-6044
▁아낙	-6045
▁얻고	-6046
▁없소	-6047
▁연결	-6048
▁영영	-6049
▁옛적	-6050
▁오기	-6051
▁오만	-6052
▁오바	-6053
▁온통	-6054
▁위를	-6055
▁의회	-6056
▁이유	-6057
▁적혀	-6058
▁주니	-6059
▁찢고	-6060
▁차례	-6061
▁착한	-6062
▁참되	-6063
▁총회	-6064
▁춤을	-6065
▁평원	-6066
▁표적	-6067
▁혀는	-6068
▁호세	-6069
▁호위	-6070
▁홍해	-6071
▁휘장	-6072
▁흑암	-6073
들여서	-6074
리시고	-6075
아에게	-6076
우리의	-6077
으려는	-6078
이것은	-6079
이시다	-6080
해져서	-6081
▁건너가	-6082
▁것들과	-6083
▁것이면	-6084
▁경우에	-6085
▁고기와	-6086
▁고통이	-6087
▁광야를	-6088
▁그뿐만	-6089
▁기근과	-6090
▁기울이	-6091
▁나무는	-6092
▁나아갈	-6093
▁날이다	-6094
▁넘치게	-6095
▁눈물을	-6096
▁니느웨	-6097
▁도성의	-6098
▁되어라	-6099
▁드리며	-6100
▁등불을	-6101
▁딸들을	-6102
▁마셨다	-6103
▁명령과	-6104
▁모두를	-6105
▁모양의	-6106
▁모임을	-6107
▁물고기	-6108
▁물으니	-6109
▁민족과	-6110
▁믿음과	-6111
▁바르게	-6112
▁바르고	-6113
▁백성도	-6114
▁벳세메	-6115
▁보시오	-6116
▁사라질	-6117
▁사람에	-6118
▁사방에	-6119
▁소출을	-6120
▁속죄판	-6121
▁손아귀	-6122
▁아론을	-6123
▁아비가	-6124
▁어른은	-6125
▁얼굴에	-6126
▁예복을	-6127
▁예후는	-6128
▁오늘에	-6129
▁왕들을	-6130
▁왕들의	-6131
▁왼쪽에	-6132
▁우리로	-6133
▁육신의	-6134
▁율법과	-6135
▁음성이	-6136
▁임무를	-6137
▁자손아	-6138
▁자유를	-6139
▁재난이	-6140
▁전부터	-6141
▁정성을	-6142
▁제물과	-6143
▁죄악이	-6144
▁주기로	-6145
▁주인은	-6146
▁지역을	-6147
▁지키며	-6148
▁직분을	-6149
▁쳐다보	-6150
▁하늘은	-6151
▁황폐한	-6152
▁휘장을	-6153
갔습니다	-6154
들에게로	-6155
의하였다	-6156
▁거역하는	-6157
▁계십니까	-6158
▁기다리는	-6159
▁기드온이	-6160
▁기름으로	-6161
▁기쁘시게	-6162
▁담대하게	-6163
▁더럽히지	-6164
▁돌아오지	-6165
▁들으려고	-6166
▁떨어져서	-6167
▁몰려와서	-6168
▁백성으로	-6169
▁보내겠다	-6170
▁부르짖는	-6171
▁부르짖을	-6172
▁시리아의	-6173
▁아침마다	-6174
▁압살롬이	-6175
▁여자들은	-6176
▁요압에게	-6177
▁있겠는가	-6178
▁장막에서	-6179
▁전리품을	-6180
▁제사장을	-6181
▁주님만이	-6182
▁지파에게	-6183
▁차지하고	-6184
▁하겠다고	-6185
▁흩어져서	-6186
▁그리스도가	-6187
▁대제사장이	-6188
▁맹세하였다	-6189
▁바빌론으로	-6190
▁받아들이지	-6191
▁않겠습니까	-6192
▁언제까지나	-6193
▁에브라임은	-6194
▁여호사밧은	-6195
▁우리에게는	-6196
▁일러주었다	-6197
▁제사장들을	-6198
▁도와주십시오	-6199
▁율법학자들과	-6200
▁제사장들에게	-6201
▁덩	-6202
▁솥	-6203
▁핍	-6204
감을	-6205
그대	-6206
꼭대	-6207
들에	-6208
림이	-6209
받지	-6210
사십	-6211
사울	-6212
석과	-6213
셀과	-6214
실로	-6215
에다	-6216
역을	-6217
육십	-6218
이사	-6219
정이	-6220
지요	-6221
칠백	-6222
헤립	-6223
▁가버	-6224
▁강도	-6225
▁거듭	-6226
▁것일	-6227
▁겪은	-6228
▁경비	-6229
▁괜찮	-6230
▁그나	-6231
▁금잔	-6232
▁기르	-6233
▁기병	-6234
▁끼어	-6235
▁나간	-6236
▁나실	-6237
▁나을	-6238
▁누릴	-6239
▁던지	-6240
▁데로	-6241
▁독수	-6242
▁랍사	-6243
▁립나	-6244
▁맺지	-6245
▁모른	-6246
▁문에	-6247
▁바뀌	-6248
▁바스	-6249
▁발라	-6250
▁배부	-6251
▁버티	-6252
▁병사	-6253
▁복수	-6254
▁부지	-6255
▁빠진	-6256
▁살을	-6257
▁삼만	-6258
▁선고	-6259
▁손님	-6260
▁수만	-6261
▁시킨	-6262
▁신부	-6263
▁신은	-6264
▁얹어	-6265
▁얻어	-6266
▁엄청	-6267
▁왕도	-6268
▁외에	-6269
▁욕을	-6270
▁유혹	-6271
▁자야	-6272
▁자원	-6273
▁장작	-6274
▁절기	-6275
▁지니	-6276
▁지켰	-6277
▁질러	-6278
▁집의	-6279
▁타서	-6280
▁파는	-6281
▁표징	-6282
▁핍박	-6283
▁함락	-6284
▁했다	-6285
▁행복	-6286
▁허무	-6287
▁휘두	-6288
닙니다	-6289
당신이	-6290
들까지	-6291
성으로	-6292
시는데	-6293
어나게	-6294
어졌다	-6295
으시며	-6296
집니다	-6297
하시다	-6298
함으로	-6299
▁가데스	-6300
▁가리지	-6301
▁건져내	-6302
▁걸치고	-6303
▁게으른	-6304
▁곁가지	-6305
▁곡식이	-6306
▁골라서	-6307
▁공포에	-6308
▁괴롭히	-6309
▁그릇에	-6310
▁그처럼	-6311
▁나더러	-6312
▁남편을	-6313
▁내게로	-6314
▁놀랐다	-6315
▁누리게	-6316
▁누리는	-6317
▁드려라	-6318
▁떨면서	-6319
▁떼어서	-6320
▁머리는	-6321
▁명성을	-6322
▁명하는	-6323
▁모였다	-6324
▁몸에서	-6325
▁무너져	-6326
▁믿음의	-6327
▁밑에서	-6328
▁보라고	-6329
▁부대의	-6330
▁부스러	-6331
▁사이를	-6332
▁산꼭대	-6333
▁산헤립	-6334
▁살갗에	-6335
▁살도록	-6336
▁성으로	-6337
▁소유가	-6338
▁숫양과	-6339
▁싸웠다	-6340
▁씁니다	-6341
▁않으냐	-6342
▁않으시	-6343
▁양식을	-6344
▁얼굴이	-6345
▁엘리야	-6346
▁여겼다	-6347
▁여드레	-6348
▁오늘은	-6349
▁옮기는	-6350
▁왔는데	-6351
▁요셉과	-6352
▁요압의	-6353
▁요한을	-6354
▁용감한	-6355
▁유산이	-6356
▁율례와	-6357
▁이다말	-6358
▁이레째	-6359
▁일어났	-6360
▁일이나	-6361
▁자리가	-6362
▁정신을	-6363
▁조용히	-6364
▁주민과	-6365
▁주시면	-6366
▁지식이	-6367
▁지팡이	-6368
▁쳐부수	-6369
▁포도를	-6370
▁폭력을	-6371
▁하거든	-6372
▁하듯이	-6373
▁함성을	-6374
▁행위를	-6375
▁회중을	-6376
임금님의	-6377
자들에게	-6378
▁것이지만	-6379
▁그러면서	-6380
▁그분께서	-6381
▁길이길이	-6382
▁꼭대기에	-6383
▁나타나서	-6384
▁내려가는	-6385
▁너무나도	-6386
▁너에게로	-6387
▁다니엘은	-6388
▁다니엘이	-6389
▁동안이나	-6390
▁두려움에	-6391
▁드리려고	-6392
▁땅에서는	-6393
▁때까지는	-6394
▁맞아들이	-6395
▁문안하여	-6396
▁받아다가	-6397
▁부끄러워	-6398
▁부하들이	-6399
▁불러모으	-6400
▁스물다섯	-6401
▁신하들을	-6402
▁에워싸고	-6403
▁엘리야를	-6404
▁영화롭게	-6405
▁예언하는	-6406
▁용서하지	-6407
▁주께서도	-6408
▁찬양하는	-6409
▁포도주가	-6410
▁하나같이	-6411
▁하닷에셀	-6412
▁것이라고는	-6413
▁나타나셔서	-6414
▁되겠습니까	-6415
▁두려워하며	-6416
▁모르드개는	-6417
▁사람에게나	-6418
▁선포하였다	-6419
▁심판하겠다	-6420
▁에브라임이	-6421
▁여호야다의	-6422
▁이제부터는	-6423
▁자들에게서	-6424
▁제사장들의	-6425
▁지도자들은	-6426
▁해주시기를	-6427
▁느부갓네살이	-6428
▁즐거워하여라	-6429
▁긴	-6430
▁낱	-6431
▁뒹	-6432
▁뜬	-6433
▁잣	-6434
▁짙	-6435
▁쳤	-6436
▁혐	-6437
건만	-6438
게도	-6439
난다	-6440
날이	-6441
낱이	-6442
대체	-6443
대할	-6444
도벨	-6445
렛과	-6446
련만	-6447
룩한	-6448
리니	-6449
리도	-6450
받게	-6451
사에	-6452
생이	-6453
세요	-6454
수는	-6455
요한	-6456
우지	-6457
일꾼	-6458
적인	-6459
지의	-6460
차게	-6461
힌다	-6462
▁가늘	-6463
▁값진	-6464
▁개울	-6465
▁겪는	-6466
▁궤가	-6467
▁기마	-6468
▁길어	-6469
▁꾸며	-6470
▁꿇고	-6471
▁꿰뚫	-6472
▁끝나	-6473
▁나고	-6474
▁나이	-6475
▁나일	-6476
▁나지	-6477
▁넓적	-6478
▁넣은	-6479
▁놓인	-6480
▁느다	-6481
▁데에	-6482
▁도끼	-6483
▁동굴	-6484
▁동원	-6485
▁동포	-6486
▁되신	-6487
▁들로	-6488
▁들린	-6489
▁디르	-6490
▁땅아	-6491
▁떠받	-6492
▁라합	-6493
▁말뚝	-6494
▁말만	-6495
▁맺고	-6496
▁모자	-6497
▁목상	-6498
▁문제	-6499
▁문짝	-6500
▁묻혀	-6501
▁밭과	-6502
▁번씩	-6503
▁보며	-6504
▁분부	-6505
▁불법	-6506
▁비추	-6507
▁빚을	-6508
▁섬긴	-6509
▁성공	-6510
▁세례	-6511
▁소금	-6512
▁속을	-6513
▁술에	-6514
▁쉬지	-6515
▁슬기	-6516
▁쓰지	-6517
▁쓸어	-6518
▁에덴	-6519
▁에베	-6520
▁여신	-6521
▁역사	-6522
▁열둘	-6523
▁엿새	-6524
▁예전	-6525
▁올리	-6526
▁외면	-6527
▁위선	-6528
▁위험	-6529
▁육천	-6530
▁의롭	-6531
▁잠을	-6532
▁잡는	-6533
▁재건	-6534
▁정착	-6535
▁정탐	-6536
▁정해	-6537
▁종과	-6538
▁주와	-6539
▁짓을	-6540
▁징조	-6541
▁추수	-6542
▁치지	-6543
▁친다	-6544
▁탐지	-6545
▁퍼져	-6546
▁혼란	-6547
▁화해	-6548
▁후궁	-6549
기에는	-6550
들였다	-6551
시려는	-6552
식으로	-6553
하시게	-6554
하였소	-6555
▁가문별	-6556
▁가지가	-6557
▁각자의	-6558
▁고개를	-6559
▁고레스	-6560
▁교회를	-6561
▁군인이	-6562
▁기간이	-6563
▁기도할	-6564
▁나가고	-6565
▁낱낱이	-6566
▁내리실	-6567
▁노리는	-6568
▁노아는	-6569
▁높이가	-6570
▁뇌물을	-6571
▁누워서	-6572
▁달았다	-6573
▁대답할	-6574
▁더러워	-6575
▁돌려보	-6576
▁돌무더	-6577
▁뒤집어	-6578
▁들어간	-6579
▁따르고	-6580
▁떠나게	-6581
▁떼처럼	-6582
▁뜻으로	-6583
▁라반은	-6584
▁맡겼다	-6585
▁머무르	-6586
▁명단에	-6587
▁모습이	-6588
▁못하여	-6589
▁무장을	-6590
▁미치지	-6591
▁바다와	-6592
▁백삼십	-6593
▁범하면	-6594
▁보살피	-6595
▁붙잡고	-6596
▁삼손은	-6597
▁성소에	-6598
▁세워라	-6599
▁속에는	-6600
▁숨어서	-6601
▁스올로	-6602
▁시중을	-6603
▁실수로	-6604
▁심부름	-6605
▁아나돗	-6606
▁아니오	-6607
▁아사헬	-6608
▁않았을	-6609
▁알지도	-6610
▁어두운	-6611
▁어디서	-6612
▁어른께	-6613
▁에봇을	-6614
▁엘리압	-6615
▁열여섯	-6616
▁온전한	-6617
▁욕되게	-6618
▁용서를	-6619
▁이렛날	-6620
▁재산이	-6621
▁전체를	-6622
▁족보에	-6623
▁종들은	-6624
▁주기를	-6625
▁죽이는	-6626
▁즐거이	-6627
▁지나간	-6628
▁진노의	-6629
▁찬송을	-6630
▁친구가	-6631
▁허물이	-6632
▁회중의	-6633
▁흙으로	-6634
예루살렘	-6635
▁가문별로	-6636
▁경계선을	-6637
▁그리하면	-6638
▁기도하는	-6639
▁나타났다	-6640
▁남편에게	-6641
▁다니면서	-6642
▁당신들이	-6643
▁당신에게	-6644
▁더럽히고	-6645
▁말하지만	-6646
▁명이었다	-6647
▁못합니까	-6648
▁무엇인지	-6649
▁바울에게	-6650
▁백성들을	-6651
▁불살라야	-6652
▁사람이고	-6653
▁살아가는	-6654
▁생각해서	-6655
▁손자이며	-6656
▁솔로몬을	-6657
▁아이들아	-6658
▁아히도벨	-6659
▁않으려고	-6660
▁여인들이	-6661
▁여쭈었다	-6662
▁왕궁으로	-6663
▁왕에게로	-6664
▁용사들이	-6665
▁이어지는	-6666
▁전하라고	-6667
▁제자들을	-6668
▁조상들이	-6669
▁하셨으니	-6670
▁하였지만	-6671
▁허락하지	-6672
▁먹을거리가	-6673
▁부르짖었다	-6674
▁여로보암이	-6675
▁예언자들은	-6676
▁장로들에게	-6677
▁젊은이들이	-6678
▁주님께서는	-6679
▁주님이시다	-6680
▁지도자들과	-6681
▁찬양합니다	-6682
▁사람들에게서	-6683
▁하나님에게서	-6684
▁끈	-6685
▁늦	-6686
▁맑	-6687
▁척	-6688
▁콩	-6689
군을	-6690
그것	-6691
내는	-6692
담아	-6693
더미	-6694
동을	-6695
디아	-6696
렸고	-6697
로가	-6698
롯과	-6699
삭과	-6700
수록	-6701
숙한	-6702
스럽	-6703
시의	-6704
시켰	-6705
아림	-6706
와도	-6707
육백	-6708
이백	-6709
임에	-6710
있는	-6711
자도	-6712
자인	-6713
졌고	-6714
죄를	-6715
책에	-6716
풍이	-6717
화를	-6718
▁"'	-6719
▁값은	-6720
▁개씩	-6721
▁거만	-6722
▁거센	-6723
▁결국	-6724
▁광채	-6725
▁궁전	-6726
▁기적	-6727
▁나홀	-6728
▁낳을	-6729
▁네겝	-6730
▁논쟁	-6731
▁다듬	-6732
▁데만	-6733
▁두드	-6734
▁든든	-6735
▁듣게	-6736
▁들녘	-6737
▁떠났	-6738
▁떨고	-6739
▁떼의	-6740
▁뜨는	-6741
▁로마	-6742
▁막을	-6743
▁목장	-6744
▁몸과	-6745
▁무사	-6746
▁문이	-6747
▁물도	-6748
▁미칠	-6749
▁뱃속	-6750
▁번영	-6751
▁붓고	-6752
▁뿔을	-6753
▁사정	-6754
▁산이	-6755
▁삼가	-6756
▁삼킬	-6757
▁소가	-6758
▁숙곳	-6759
▁십사	-6760
▁씨앗	-6761
▁앉을	-6762
▁어둡	-6763
▁연합	-6764
▁오므	-6765
▁올무	-6766
▁의견	-6767
▁이쪽	-6768
▁읽어	-6769
▁입지	-6770
▁접근	-6771
▁증손	-6772
▁지닌	-6773
▁참된	-6774
▁채를	-6775
▁천막	-6776
▁첫날	-6777
▁칠백	-6778
▁침상	-6779
▁탈취	-6780
▁편을	-6781
▁하란	-6782
▁호르	-6783
란하게	-6784
리야의	-6785
셨으나	-6786
소리가	-6787
시켜라	-6788
신다는	-6789
았으니	-6790
으셔서	-6791
▁가늘게	-6792
▁가라고	-6793
▁가라앉	-6794
▁가볍게	-6795
▁가슴을	-6796
▁감독관	-6797
▁강물을	-6798
▁강물이	-6799
▁거만한	-6800
▁경고를	-6801
▁교회에	-6802
▁교회의	-6803
▁귀담아	-6804
▁그치고	-6805
▁기름에	-6806
▁기억해	-6807
▁기회를	-6808
▁나이는	-6809
▁넓적다	-6810
▁놋쇠를	-6811
▁높임을	-6812
▁놓아라	-6813
▁돌려주	-6814
▁동맹을	-6815
▁되려고	-6816
▁뒤에는	-6817
▁들려주	-6818
▁들어왔	-6819
▁딸이다	-6820
▁똑바로	-6821
▁라반이	-6822
▁레위의	-6823
▁마르고	-6824
▁마을에	-6825
▁만들지	-6826
▁말씀과	-6827
▁망한다	-6828
▁맞으러	-6829
▁맞은편	-6830
▁먼지를	-6831
▁버리실	-6832
▁버림을	-6833
▁번이나	-6834
▁보물을	-6835
▁보아서	-6836
▁부수고	-6837
▁불결한	-6838
▁불러라	-6839
▁불타는	-6840
▁사라져	-6841
▁사자의	-6842
▁살아가	-6843
▁살아날	-6844
▁상관이	-6845
▁새롭게	-6846
▁새벽에	-6847
▁속하는	-6848
▁쇠사슬	-6849
▁수고를	-6850
▁스데반	-6851
▁신세가	-6852
▁신실한	-6853
▁아라바	-6854
▁아히감	-6855
▁어깨에	-6856
▁얻는다	-6857
▁없애고	-6858
▁에바를	-6859
▁왕위를	-6860
▁왕이다	-6861
▁외국인	-6862
▁우러러	-6863
▁육체를	-6864
▁율법은	-6865
▁일에서	-6866
▁입대할	-6867
▁있으랴	-6868
▁저절로	-6869
▁전갈을	-6870
▁죽으면	-6871
▁지파에	-6872
▁찍어서	-6873
▁창고에	-6874
▁페르시	-6875
▁평안을	-6876
▁하나냐	-6877
▁하룻밤	-6878
▁하였소	-6879
들까지도	-6880
뿐입니다	-6881
았으므로	-6882
일어나서	-6883
▁가족이다	-6884
▁거역하여	-6885
▁그리고는	-6886
▁기드온은	-6887
▁기름부어	-6888
▁기뻐하지	-6889
▁끌어내어	-6890
▁나아갔다	-6891
▁낳았는데	-6892
▁너희들이	-6893
▁넉넉하게	-6894
▁마련하여	-6895
▁마리아가	-6896
▁머물렀다	-6897
▁무덤으로	-6898
▁방언으로	-6899
▁부하들과	-6900
▁사람보다	-6901
▁사자처럼	-6902
▁선생님을	-6903
▁선생님의	-6904
▁시어머니	-6905
▁시험하여	-6906
▁쓰러져서	-6907
▁아브람은	-6908
▁아브람이	-6909
▁않았으면	-6910
▁어귀에서	-6911
▁여호야다	-6912
▁오른손을	-6913
▁올라가는	-6914
▁잠자리에	-6915
▁저질렀다	-6916
▁제자리에	-6917
▁주님만을	-6918
▁지키라고	-6919
▁진심으로	-6920
▁포위하고	-6921
▁형제들이	-6922
▁모르드개가	-6923
▁여호수아와	-6924
▁차지하였다	-6925
▁원수들에게서	-6926
▁[	-6927
▁겹	-6928
▁극	-6929
▁댁	-6930
▁땔	-6931
▁습	-6932
▁엔	-6933
겠네	-6934
고도	-6935
그라	-6936
그의	-6937
낸다	-6938
네의	-6939
단은	-6940
담을	-6941
두려	-6942
들만	-6943
란히	-6944
래와	-6945
련된	-6946
바알	-6947
시로	-6948
쓰고	-6949
얘야	-6950
으시	-6951
일을	-6952
장관	-6953
절에	-6954
주인	-6955
▁각기	-6956
▁곳과	-6957
▁귀중	-6958
▁길게	-6959
▁끊임	-6960
▁내며	-6961
▁내서	-6962
▁내세	-6963
▁냈다	-6964
▁단을	-6965
▁덕을	-6966
▁들릴	-6967
▁따른	-6968
▁라마	-6969
▁림몬	-6970
▁만다	-6971
▁맺을	-6972
▁먼지	-6973
▁문설	-6974
▁바쳤	-6975
▁배운	-6976
▁배치	-6977
▁벌레	-6978
▁벽에	-6979
▁불사	-6980
▁브다	-6981
▁빼어	-6982
▁사나	-6983
▁사해	-6984
▁살면	-6985
▁서게	-6986
▁섬겼	-6987
▁성과	-6988
▁소집	-6989
▁수컷	-6990
▁시기	-6991
▁시민	-6992
▁아담	-6993
▁아몬	-6994
▁아므	-6995
▁않소	-6996
▁애곡	-6997
▁에훗	-6998
▁여분	-6999
▁왼손	-7000
▁우는	-7001
▁울고	-7002
▁의의	-7003
▁이끄	-7004
▁이익	-7005
▁이틀	-7006
▁일반	-7007
▁저와	-7008
▁적게	-7009
▁전달	-7010
▁전한	-7011
▁죽었	-7012
▁중문	-7013
▁지지	-7014
▁짓눌	-7015
▁짙은	-7016
▁쪽을	-7017
▁창공	-7018
▁창문	-7019
▁초청	-7020
▁치실	-7021
▁토기	-7022
▁풀려	-7023
▁하오	-7024
▁합세	-7025
▁해와	-7026
▁헌신	-7027
▁헐뜯	-7028
▁헤매	-7029
▁호렙	-7030
▁훌륭	-7031
깁니다	-7032
는구나	-7033
보시오	-7034
봅니다	-7035
비보셋	-7036
야이고	-7037
여아림	-7038
으시다	-7039
인가를	-7040
인데도	-7041
제사를	-7042
▁가득히	-7043
▁가리고	-7044
▁가마솥	-7045
▁가면서	-7046
▁가문과	-7047
▁가문이	-7048
▁가버나	-7049
▁가이사	-7050
▁갈래의	-7051
▁거느린	-7052
▁거쳐서	-7053
▁걸려서	-7054
▁것같이	-7055
▁결혼한	-7056
▁경건한	-7057
▁계시니	-7058
▁공의로	-7059
▁과부가	-7060
▁권세와	-7061
▁그만두	-7062
▁기둥과	-7063
▁깨끗이	-7064
▁나타난	-7065
▁내었다	-7066
▁널빤지	-7067
▁노예로	-7068
▁눈에는	-7069
▁눈에서	-7070
▁다락방	-7071
▁달려가	-7072
▁대답을	-7073
▁더하여	-7074
▁돌기둥	-7075
▁드리게	-7076
▁들렸다	-7077
▁등잔대	-7078
▁랍사게	-7079
▁만물을	-7080
▁말고는	-7081
▁말대로	-7082
▁맡기고	-7083
▁먹으며	-7084
▁멈추어	-7085
▁목상을	-7086
▁무너진	-7087
▁무덤을	-7088
▁믿었다	-7089
▁바다가	-7090
▁바다로	-7091
▁바위를	-7092
▁받고서	-7093
▁받도록	-7094
▁받으며	-7095
▁발길을	-7096
▁방패와	-7097
▁보내지	-7098
▁보아야	-7099
▁부모는	-7100
▁비유로	-7101
▁뿌리고	-7102
▁새들이	-7103
▁소돔과	-7104
▁속이고	-7105
▁싸워서	-7106
▁아기를	-7107
▁아니며	-7108
▁어른이	-7109
▁얻었다	-7110
▁에서는	-7111
▁여섯째	-7112
▁연기가	-7113
▁올라오	-7114
▁왕궁의	-7115
▁육신을	-7116
▁은사를	-7117
▁의인을	-7118
▁이들과	-7119
▁이루신	-7120
▁인구를	-7121
▁임금의	-7122
▁자에게	-7123
▁잘못된	-7124
▁잘못이	-7125
▁적군이	-7126
▁전에도	-7127
▁전열을	-7128
▁조서를	-7129
▁죄에서	-7130
▁죽여라	-7131
▁지금도	-7132
▁지역과	-7133
▁지키게	-7134
▁진리의	-7135
▁진으로	-7136
▁집안을	-7137
▁찾아서	-7138
▁하루는	-7139
▁하만은	-7140
▁하지도	-7141
▁합시다	-7142
▁확실히	-7143
주께서는	-7144
하였느냐	-7145
▁걱정하지	-7146
▁그대들이	-7147
▁그렇다면	-7148
▁그렇지만	-7149
▁그제서야	-7150
▁기도하고	-7151
▁나라들이	-7152
▁달려가서	-7153
▁당신들은	-7154
▁대답하지	-7155
▁두려움이	-7156
▁마음에서	-7157
▁만들겠다	-7158
▁맹세하는	-7159
▁모두에게	-7160
▁모퉁이에	-7161
▁목자들이	-7162
▁밤새도록	-7163
▁벌하겠다	-7164
▁부하들은	-7165
▁사람이면	-7166
▁살았는데	-7167
▁성읍들이	-7168
▁슬퍼하며	-7169
▁신하들과	-7170
▁아들이요	-7171
▁아히멜렉	-7172
▁어머니와	-7173
▁없으므로	-7174
▁에스더가	-7175
▁엘리야는	-7176
▁예언자로	-7177
▁올라왔다	-7178
▁요나단과	-7179
▁요나단의	-7180
▁요아스의	-7181
▁이번에는	-7182
▁이집트와	-7183
▁있었으나	-7184
▁있었으며	-7185
▁제단에서	-7186
▁제물이다	-7187
▁조상들과	-7188
▁종류대로	-7189
▁주민에게	-7190
▁지방에서	-7191
▁쳐죽이고	-7192
▁큰소리를	-7193
▁해치려고	-7194
▁같았습니다	-7195
▁경배하였다	-7196
▁기럇여아림	-7197
▁되셨습니다	-7198
▁들으십시오	-7199
▁말씀하시니	-7200
▁못하였느냐	-7201
▁베드로에게	-7202
▁불러모으고	-7203
▁사람에게도	-7204
▁사마리아에	-7205
▁생각하느냐	-7206
▁생각하면서	-7207
▁선언하여야	-7208
▁손가락으로	-7209
▁신하들에게	-7210
▁않았습니까	-7211
▁엘리사에게	-7212
▁자기들에게	-7213
▁조심하여라	-7214
▁주셨으므로	-7215
▁통치자들이	-7216
▁꼼	-7217
▁뱉	-7218
▁쌍	-7219
▁웅	-7220
▁잿	-7221
▁최	-7222
▁탔	-7223
▁핫	-7224
▁효	-7225
각을	-7226
게와	-7227
경에	-7228
대접	-7229
던가	-7230
리온	-7231
물도	-7232
뱌와	-7233
붙여	-7234
사스	-7235
수의	-7236
시던	-7237
시온	-7238
아홉	-7239
에나	-7240
옥과	-7241
음에	-7242
이든	-7243
잔을	-7244
장한	-7245
정된	-7246
증을	-7247
▁가니	-7248
▁가릴	-7249
▁갔을	-7250
▁같게	-7251
▁거냐	-7252
▁게바	-7253
▁고생	-7254
▁곳간	-7255
▁그일	-7256
▁금은	-7257
▁금테	-7258
▁길과	-7259
▁깃들	-7260
▁꼼짝	-7261
▁나발	-7262
▁낭독	-7263
▁너그	-7264
▁넣고	-7265
▁년째	-7266
▁다르	-7267
▁단련	-7268
▁대를	-7269
▁더미	-7270
▁돈이	-7271
▁뒤엎	-7272
▁들보	-7273
▁따랐	-7274
▁땅도	-7275
▁뜰의	-7276
▁레갑	-7277
▁마셔	-7278
▁마신	-7279
▁맏배	-7280
▁맺는	-7281
▁먹여	-7282
▁몸종	-7283
▁무교	-7284
▁무지	-7285
▁문지	-7286
▁묻고	-7287
▁묻어	-7288
▁물은	-7289
▁밀고	-7290
▁법이	-7291
▁벳호	-7292
▁봉사	-7293
▁부근	-7294
▁부는	-7295
▁부리	-7296
▁불길	-7297
▁브에	-7298
▁브올	-7299
▁빈다	-7300
▁빵이	-7301
▁순식	-7302
▁숨기	-7303
▁쉬게	-7304
▁심은	-7305
▁십이	-7306
▁쌓은	-7307
▁썩지	-7308
▁씻고	-7309
▁아닥	-7310
▁알맞	-7311
▁암사	-7312
▁억누	-7313
▁얹고	-7314
▁엘라	-7315
▁여름	-7316
▁여히	-7317
▁열흘	-7318
▁오니	-7319
▁요담	-7320
▁용맹	-7321
▁운반	-7322
▁유명	-7323
▁육십	-7324
▁이로	-7325
▁인내	-7326
▁일의	-7327
▁자백	-7328
▁자취	-7329
▁저쪽	-7330
▁전하	-7331
▁좋지	-7332
▁주저	-7333
▁쥐고	-7334
▁지워	-7335
▁지하	-7336
▁진군	-7337
▁진동	-7338
▁칼과	-7339
▁콩팥	-7340
▁하만	-7341
▁하솔	-7342
▁한번	-7343
▁혐오	-7344
갔다가	-7345
겠으니	-7346
교하게	-7347
그렇게	-7348
냅니다	-7349
느라고	-7350
마아스	-7351
셨으며	-7352
졌으면	-7353
조차도	-7354
하기도	-7355
하시기	-7356
▁가르침	-7357
▁가지지	-7358
▁강제로	-7359
▁경계를	-7360
▁계명과	-7361
▁고름을	-7362
▁광야의	-7363
▁구름을	-7364
▁그분께	-7365
▁그치지	-7366
▁길가에	-7367
▁까닭이	-7368
▁꺼지지	-7369
▁나가지	-7370
▁나오미	-7371
▁나오지	-7372
▁나타났	-7373
▁남종과	-7374
▁너보다	-7375
▁놓아서	-7376
▁닥치는	-7377
▁대답해	-7378
▁더럽혔	-7379
▁데려다	-7380
▁도둑질	-7381
▁떠나가	-7382
▁라헬이	-7383
▁마리나	-7384
▁마치고	-7385
▁막일꾼	-7386
▁만나러	-7387
▁말씀해	-7388
▁말하게	-7389
▁망하는	-7390
▁머물고	-7391
▁모압이	-7392
▁문설주	-7393
▁미리암	-7394
▁바울의	-7395
▁버린다	-7396
▁번제로	-7397
▁벗기고	-7398
▁보겠다	-7399
▁불처럼	-7400
▁빠져서	-7401
▁빠지지	-7402
▁사람씩	-7403
▁상하게	-7404
▁선물로	-7405
▁성막의	-7406
▁세대가	-7407
▁소리도	-7408
▁소리에	-7409
▁시므이	-7410
▁심하게	-7411
▁싸우는	-7412
▁쌓았다	-7413
▁아달랴	-7414
▁아라비	-7415
▁알아듣	-7416
▁야베스	-7417
▁열다섯	-7418
▁영광의	-7419
▁올라갈	-7420
▁이름에	-7421
▁임금이	-7422
▁자네의	-7423
▁자라서	-7424
▁자랑할	-7425
▁정해진	-7426
▁조상은	-7427
▁주심을	-7428
▁주위의	-7429
▁지르고	-7430
▁지시한	-7431
▁지역은	-7432
▁지켜서	-7433
▁집안과	-7434
▁풍성한	-7435
▁하기를	-7436
▁하는지	-7437
▁하든지	-7438
▁행동을	-7439
▁형제의	-7440
▁휘장과	-7441
하였다는	-7442
▁가르치고	-7443
▁가이사랴	-7444
▁간음하는	-7445
▁것인지를	-7446
▁계시다는	-7447
▁규탄하여	-7448
▁그대들의	-7449
▁그러다가	-7450
▁남김없이	-7451
▁다가왔다	-7452
▁다스리고	-7453
▁다음으로	-7454
▁대항하여	-7455
▁데려왔다	-7456
▁되돌아가	-7457
▁되었으니	-7458
▁두십시오	-7459
▁두었다가	-7460
▁마리아는	-7461
▁마리아와	-7462
▁만들어야	-7463
▁명하셨다	-7464
▁모독하는	-7465
▁목초지를	-7466
▁물건들을	-7467
▁미디안의	-7468
▁민족들의	-7469
▁베푸시는	-7470
▁사랑하며	-7471
▁순식간에	-7472
▁스가랴와	-7473
▁스스로가	-7474
▁심부름꾼	-7475
▁않으시며	-7476
▁압살롬을	-7477
▁여자들과	-7478
▁예수아와	-7479
▁이루어진	-7480
▁이스보셋	-7481
▁일어나지	-7482
▁장로들은	-7483
▁장로들을	-7484
▁좋아한다	-7485
▁천사들이	-7486
▁할아버지	-7487
하겠습니까	-7488
▁노래하여라	-7489
▁대답하기를	-7490
▁사무엘에게	-7491
▁수치스러운	-7492
▁아비멜렉이	-7493
▁자손에게서	-7494
▁장사하였다	-7495
▁종살이하던	-7496
▁지도자들을	-7497
▁못하였으므로	-7498
▁바빌로니아를	-7499
▁사마리아에서	-7500
▁띄	-7501
▁맷	-7502
▁뭉	-7503
▁샅	-7504
▁색	-7505
▁횃	-7506
나도	-7507
나큰	-7508
도에	-7509
때에	-7510
라에	-7511
로의	-7512
르렁	-7513
르몬	-7514
리나	-7515
림과	-7516
모든	-7517
바네	-7518
샅이	-7519
세덱	-7520
심히	-7521
십이	-7522
얗게	-7523
어질	-7524
연히	-7525
위가	-7526
유대	-7527
이한	-7528
자락	-7529
정한	-7530
졌을	-7531
지휘	-7532
찍이	-7533
치며	-7534
친구	-7535
품과	-7536
피를	-7537
▁감시	-7538
▁강의	-7539
▁갖춘	-7540
▁같지	-7541
▁거친	-7542
▁건물	-7543
▁공급	-7544
▁군중	-7545
▁굴려	-7546
▁굶어	-7547
▁그술	-7548
▁금이	-7549
▁까마	-7550
▁꿈에	-7551
▁남게	-7552
▁낫을	-7553
▁널리	-7554
▁노루	-7555
▁노새	-7556
▁놓는	-7557
▁다름	-7558
▁다짐	-7559
▁달게	-7560
▁달라	-7561
▁답변	-7562
▁데나	-7563
▁도울	-7564
▁도착	-7565
▁동이	-7566
▁딤나	-7567
▁매여	-7568
▁매일	-7569
▁멜기	-7570
▁모셔	-7571
▁몸의	-7572
▁물통	-7573
▁미갈	-7574
▁밟고	-7575
▁번도	-7576
▁벌이	-7577
▁벗은	-7578
▁별을	-7579
▁병든	-7580
▁보금	-7581
▁보리	-7582
▁보물	-7583
▁봉헌	-7584
▁비참	-7585
▁빨고	-7586
▁빨아	-7587
▁뽑힌	-7588
▁뿌린	-7589
▁사래	-7590
▁살며	-7591
▁새가	-7592
▁생길	-7593
▁성이	-7594
▁소속	-7595
▁소식	-7596
▁속히	-7597
▁수천	-7598
▁슬프	-7599
▁싸워	-7600
▁씌워	-7601
▁아볼	-7602
▁아픔	-7603
▁악의	-7604
▁안의	-7605
▁암양	-7606
▁암컷	-7607
▁약혼	-7608
▁언니	-7609
▁얹은	-7610
▁엘람	-7611
▁연기	-7612
▁열의	-7613
▁영역	-7614
▁온유	-7615
▁완고	-7616
▁원한	-7617
▁유황	-7618
▁은돈	-7619
▁이혼	-7620
▁임의	-7621
▁자다	-7622
▁자란	-7623
▁자제	-7624
▁장가	-7625
▁장정	-7626
▁재를	-7627
▁저장	-7628
▁점을	-7629
▁정욕	-7630
▁제거	-7631
▁죄수	-7632
▁주둔	-7633
▁중풍	-7634
▁지킨	-7635
▁징계	-7636
▁책을	-7637
▁출동	-7638
▁치료	-7639
▁치우	-7640
▁퍼부	-7641
▁편히	-7642
▁품꾼	-7643
▁할지	-7644
▁항복	-7645
▁해의	-7646
▁형통	-7647
▁흘리	-7648
거리며	-7649
그대가	-7650
그리의	-7651
야이다	-7652
우리를	-7653
자들의	-7654
주님은	-7655
터에서	-7656
하련다	-7657
▁가겠다	-7658
▁가두어	-7659
▁가족을	-7660
▁가지게	-7661
▁값으로	-7662
▁거두고	-7663
▁겸손한	-7664
▁고아와	-7665
▁곳까지	-7666
▁그것도	-7667
▁그치게	-7668
▁기도와	-7669
▁기도해	-7670
▁깃발을	-7671
▁깨우쳐	-7672
▁꽃받침	-7673
▁꾸미고	-7674
▁끌어올	-7675
▁낮에는	-7676
▁내게는	-7677
▁내면서	-7678
▁내밀어	-7679
▁느다니	-7680
▁능력과	-7681
▁대낮에	-7682
▁대접을	-7683
▁된다고	-7684
▁두어서	-7685
▁떨어진	-7686
▁마셔라	-7687
▁마음의	-7688
▁말하며	-7689
▁맹렬한	-7690
▁먹어도	-7691
▁먹으면	-7692
▁멸망할	-7693
▁명령이	-7694
▁모압을	-7695
▁몸붙여	-7696
▁못하던	-7697
▁무리는	-7698
▁무성한	-7699
▁물러가	-7700
▁물리치	-7701
▁발람은	-7702
▁밧세바	-7703
▁백이십	-7704
▁법도와	-7705
▁북쪽에	-7706
▁분에게	-7707
▁빠지게	-7708
▁사나운	-7709
▁사탄이	-7710
▁살아서	-7711
▁샅샅이	-7712
▁서원한	-7713
▁서쪽에	-7714
▁성에서	-7715
▁수대로	-7716
▁시신을	-7717
▁심지어	-7718
▁심판할	-7719
▁아끼지	-7720
▁아마랴	-7721
▁아시아	-7722
▁아합이	-7723
▁앞서서	-7724
▁어귀로	-7725
▁언덕을	-7726
▁얼굴은	-7727
▁에돔의	-7728
▁여쭈어	-7729
▁열여덟	-7730
▁영으로	-7731
▁영화를	-7732
▁예수는	-7733
▁오바댜	-7734
▁옳다고	-7735
▁옵니다	-7736
▁요란한	-7737
▁으르렁	-7738
▁은대접	-7739
▁이적을	-7740
▁인사를	-7741
▁일마다	-7742
▁입술은	-7743
▁자들도	-7744
▁잔치에	-7745
▁잠드니	-7746
▁장로들	-7747
▁장사지	-7748
▁저녁에	-7749
▁정하신	-7750
▁제물이	-7751
▁조공을	-7752
▁족속아	-7753
▁죽음에	-7754
▁지혜의	-7755
▁처녀를	-7756
▁크나큰	-7757
▁태워서	-7758
▁하나와	-7759
▁하였을	-7760
▁한다면	-7761
▁할지를	-7762
▁허리띠	-7763
▁헤아릴	-7764
▁혼자서	-7765
▁화살이	-7766
▁확신을	-7767
▁회중은	-7768
▁희망이	-7769
그렇다면	-7770
들입니다	-7771
함으로써	-7772
▁갔습니다	-7773
▁거문고와	-7774
▁경건하지	-7775
▁고향으로	-7776
▁공정하게	-7777
▁구름기둥	-7778
▁규례대로	-7779
▁그대들은	-7780
▁꾸짖었다	-7781
▁나그네로	-7782
▁나라들을	-7783
▁내리셨다	-7784
▁다가가서	-7785
▁다리우스	-7786
▁다스리던	-7787
▁돌아가지	-7788
▁두려워할	-7789
▁둘레에는	-7790
▁들짐승이	-7791
▁떨어졌다	-7792
▁떨어지는	-7793
▁말입니다	-7794
▁머리카락	-7795
▁면류관을	-7796
▁모른다고	-7797
▁므비보셋	-7798
▁밀가루를	-7799
▁바다에서	-7800
▁바빌론의	-7801
▁바치려고	-7802
▁반역하는	-7803
▁받습니다	-7804
▁발람에게	-7805
▁방법으로	-7806
▁벌거벗은	-7807
▁사이에는	-7808
▁산당에서	-7809
▁생각하며	-7810
▁섬기려고	-7811
▁성읍들은	-7812
▁신상들을	-7813
▁아닥사스	-7814
▁아이들과	-7815
▁압살롬의	-7816
▁없습니까	-7817
▁오홀리바	-7818
▁요한에게	-7819
▁음행하는	-7820
▁이것들을	-7821
▁이루려고	-7822
▁저주하는	-7823
▁젊은이가	-7824
▁정교하게	-7825
▁주었으니	-7826
▁지방장관	-7827
▁짐승에게	-7828
▁찾아와서	-7829
▁천사들을	-7830
▁페르시아	-7831
▁화목제를	-7832
▁흔들어서	-7833
두려워하지	-7834
▁거기에다가	-7835
▁그렇습니다	-7836
▁그리스도께	-7837
▁기뻐하면서	-7838
▁너희에게는	-7839
▁느다니야의	-7840
▁말았습니다	-7841
▁모여들었다	-7842
▁무엇이기에	-7843
▁바라보면서	-7844
▁빌라도에게	-7845
▁사랑합니다	-7846
▁수송아지와	-7847
▁시드기야가	-7848
▁아버지께로	-7849
▁아비멜렉은	-7850
▁에브라임과	-7851
▁예루살렘은	-7852
▁예언자들과	-7853
▁일러주어라	-7854
▁점령하였다	-7855
▁죽였습니다	-7856
▁오늘날까지도	-7857
▁히스기야에게	-7858
▁껍	-7859
▁샀	-7860
▁월	-7861
▁좁	-7862
▁칙	-7863
▁훗	-7864
기게	-7865
나팔	-7866
내게	-7867
내려	-7868
노릇	-7869
데도	-7870
들게	-7871
로나	-7872
론을	-7873
말을	-7874
멜의	-7875
면에	-7876
모압	-7877
무엇	-7878
바다	-7879
벳느	-7880
빛이	-7881
사라	-7882
사백	-7883
성과	-7884
성은	-7885
실래	-7886
애를	-7887
엘을	-7888
우신	-7889
잡을	-7890
저는	-7891
쯤은	-7892
치니	-7893
하듯	-7894
했다	-7895
히게	-7896
▁가며	-7897
▁갈아	-7898
▁강에	-7899
▁강제	-7900
▁거래	-7901
▁거스	-7902
▁거요	-7903
▁건넜	-7904
▁검은	-7905
▁겁에	-7906
▁결과	-7907
▁경멸	-7908
▁고라	-7909
▁고센	-7910
▁고용	-7911
▁곧게	-7912
▁과자	-7913
▁관계	-7914
▁구멍	-7915
▁구석	-7916
▁구워	-7917
▁근거	-7918
▁기회	-7919
▁꾀어	-7920
▁나은	-7921
▁날려	-7922
▁낯선	-7923
▁낳지	-7924
▁놀려	-7925
▁달과	-7926
▁닿는	-7927
▁데는	-7928
▁돌고	-7929
▁돼지	-7930
▁되실	-7931
▁둘을	-7932
▁뒤흔	-7933
▁드렸	-7934
▁딸은	-7935
▁때나	-7936
▁때리	-7937
▁떠오	-7938
▁떨게	-7939
▁뜰에	-7940
▁막고	-7941
▁맞는	-7942
▁매를	-7943
▁며칠	-7944
▁명쯤	-7945
▁물품	-7946
▁미친	-7947
▁바싹	-7948
▁발걸	-7949
▁방탕	-7950
▁배로	-7951
▁법은	-7952
▁벗고	-7953
▁베어	-7954
▁베푼	-7955
▁벽을	-7956
▁복되	-7957
▁부추	-7958
▁부친	-7959
▁불로	-7960
▁비는	-7961
▁빌하	-7962
▁뿌려	-7963
▁사고	-7964
▁사두	-7965
▁사망	-7966
▁산은	-7967
▁삼을	-7968
▁새기	-7969
▁샘이	-7970
▁성취	-7971
▁속의	-7972
▁수군	-7973
▁수효	-7974
▁순간	-7975
▁스알	-7976
▁습격	-7977
▁시글	-7978
▁시달	-7979
▁시련	-7980
▁신들	-7981
▁싸여	-7982
▁썼다	-7983
▁쏘는	-7984
▁악마	-7985
▁악행	-7986
▁안고	-7987
▁않기	-7988
▁앞장	-7989
▁양식	-7990
▁억눌	-7991
▁여두	-7992
▁열네	-7993
▁열째	-7994
▁온몸	-7995
▁왔고	-7996
▁왔을	-7997
▁이길	-7998
▁이렇	-7999
▁이룰	-8000
▁입이	-8001
▁잡을	-8002
▁전할	-8003
▁젖먹	-8004
▁제일	-8005
▁존경	-8006
▁죄짓	-8007
▁증명	-8008
▁징벌	-8009
▁짜는	-8010
▁창과	-8011
▁처소	-8012
▁출입	-8013
▁취한	-8014
▁치니	-8015
▁치켜	-8016
▁탐욕	-8017
▁태를	-8018
▁태양	-8019
▁파고	-8020
▁펴고	-8021
▁피신	-8022
▁해는	-8023
▁행한	-8024
▁향기	-8025
▁헤벨	-8026
▁혀가	-8027
▁혼인	-8028
▁흘린	-8029
가에서	-8030
거리고	-8031
나에게	-8032
는다고	-8033
당하는	-8034
룹바알	-8035
만군의	-8036
수룩한	-8037
시기에	-8038
았으나	-8039
이시며	-8040
하셨기	-8041
▁견디어	-8042
▁계명은	-8043
▁계셔서	-8044
▁고리를	-8045
▁곳마다	-8046
▁관습을	-8047
▁군인을	-8048
▁군지휘	-8049
▁그대와	-8050
▁금고리	-8051
▁기둥을	-8052
▁기름이	-8053
▁기초가	-8054
▁나귀에	-8055
▁나답과	-8056
▁나란히	-8057
▁나온다	-8058
▁나중에	-8059
▁남아서	-8060
▁내려간	-8061
▁내려와	-8062
▁내린다	-8063
▁노래로	-8064
▁다말이	-8065
▁대답도	-8066
▁던져서	-8067
▁데려가	-8068
▁도대체	-8069
▁도장을	-8070
▁뒤에도	-8071
▁들리는	-8072
▁들리지	-8073
▁들어온	-8074
▁땅이다	-8075
▁마리도	-8076
▁마리의	-8077
▁말인가	-8078
▁맡아서	-8079
▁매달아	-8080
▁먹도록	-8081
▁먹지도	-8082
▁멸망을	-8083
▁묻기를	-8084
▁물러나	-8085
▁미가의	-8086
▁미움을	-8087
▁바깥에	-8088
▁바산의	-8089
▁바친다	-8090
▁밖에서	-8091
▁받침대	-8092
▁발락은	-8093
▁발바닥	-8094
▁보금자	-8095
▁보셨다	-8096
▁보시기	-8097
▁보아도	-8098
▁보이고	-8099
▁부족한	-8100
▁뿌렸다	-8101
▁사독과	-8102
▁사반의	-8103
▁산들이	-8104
▁산산이	-8105
▁살아라	-8106
▁살아야	-8107
▁새로운	-8108
▁생명에	-8109
▁손바닥	-8110
▁솟아오	-8111
▁숨기지	-8112
▁스바댜	-8113
▁슬픔에	-8114
▁시온에	-8115
▁시체가	-8116
▁시키는	-8117
▁신들의	-8118
▁신상을	-8119
▁쓸모가	-8120
▁아니한	-8121
▁아니할	-8122
▁아들도	-8123
▁아벳느	-8124
▁아스다	-8125
▁아시는	-8126
▁아이와	-8127
▁아합은	-8128
▁언덕에	-8129
▁언약은	-8130
▁에브론	-8131
▁열심히	-8132
▁영광에	-8133
▁영혼아	-8134
▁예언한	-8135
▁올라온	-8136
▁왕궁에	-8137
▁왕좌에	-8138
▁울어라	-8139
▁유산은	-8140
▁은쟁반	-8141
▁은혜의	-8142
▁이방인	-8143
▁이익을	-8144
▁일들은	-8145
▁있거라	-8146
▁있었던	-8147
▁저녁이	-8148
▁전쟁의	-8149
▁전하게	-8150
▁정결한	-8151
▁제단과	-8152
▁제물의	-8153
▁제사음	-8154
▁존경을	-8155
▁종들의	-8156
▁주변의	-8157
▁지내고	-8158
▁지방을	-8159
▁지진이	-8160
▁지파는	-8161
▁진실한	-8162
▁짐승도	-8163
▁집안간	-8164
▁쫓아낼	-8165
▁찾아보	-8166
▁책망을	-8167
▁천사는	-8168
▁택하여	-8169
▁튼튼히	-8170
▁표적과	-8171
▁하나로	-8172
▁하얗게	-8173
▁홍수가	-8174
▁회당에	-8175
▁희년이	-8176
▁힐기야	-8177
여러분은	-8178
웠습니다	-8179
▁거리에서	-8180
▁거문고를	-8181
▁것으로서	-8182
▁것이라는	-8183
▁경외하며	-8184
▁골짜기의	-8185
▁공격하여	-8186
▁군대에게	-8187
▁그렇다고	-8188
▁기도하여	-8189
▁끊임없이	-8190
▁나머지는	-8191
▁남자들이	-8192
▁너그럽게	-8193
▁넘어지지	-8194
▁느부사라	-8195
▁대신들과	-8196
▁더럽혔다	-8197
▁드러나게	-8198
▁들어오는	-8199
▁따라가서	-8200
▁떨어지지	-8201
▁맏아들은	-8202
▁명령하신	-8203
▁모양으로	-8204
▁모태에서	-8205
▁믿습니다	-8206
▁바나바와	-8207
▁받으려고	-8208
▁받으면서	-8209
▁백성이다	-8210
▁번성하게	-8211
▁보내면서	-8212
▁불러들이	-8213
▁사람이니	-8214
▁성도들의	-8215
▁스마야와	-8216
▁아들들인	-8217
▁아이에게	-8218
▁아히감의	-8219
▁앞세우고	-8220
▁없어지고	-8221
▁엎드렸다	-8222
▁여룹바알	-8223
▁여분네의	-8224
▁여자들을	-8225
▁예언자는	-8226
▁예언자와	-8227
▁올라가지	-8228
▁완전하게	-8229
▁왼쪽으로	-8230
▁요구하는	-8231
▁원수들은	-8232
▁의지하고	-8233
▁이것으로	-8234
▁이루어지	-8235
▁일어나는	-8236
▁일으켜서	-8237
▁임신하여	-8238
▁있는지를	-8239
▁자리잡고	-8240
▁저지르는	-8241
▁증언하는	-8242
▁지도자가	-8243
▁지방으로	-8244
▁지으려고	-8245
▁집짐승을	-8246
▁채찍으로	-8247
▁처음으로	-8248
▁초하루에	-8249
▁통치자로	-8250
▁피부병에	-8251
▁한결같이	-8252
▁거기에서도	-8253
▁거두어들일	-8254
▁계속하였다	-8255
▁군인들에게	-8256
▁그러면서도	-8257
▁그리스도는	-8258
▁놓았습니다	-8259
▁대제사장의	-8260
▁맹세합니다	-8261
▁무엇인지를	-8262
▁무엇입니까	-8263
▁보냈습니다	-8264
▁불러모았다	-8265
▁사람에게로	-8266
▁사로잡혀서	-8267
▁아하시야가	-8268
▁아히마아스	-8269
▁어디에서나	-8270
▁원수들에게	-8271
▁이스마엘이	-8272
▁헤브론에서	-8273
▁사람들에게도	-8274
▁사람들에게로	-8275
▁찬양하렵니다	-8276
▁낚	-8277
▁넬	-8278
▁녀	-8279
▁덜	-8280
▁멘	-8281
▁쉽	-8282
▁트	-8283
▁협	-8284
가슴	-8285
개와	-8286
개파	-8287
거늘	-8288
구니	-8289
그런	-8290
남자	-8291
내서	-8292
답게	-8293
대한	-8294
드릴	-8295
들지	-8296
뜨려	-8297
라지	-8298
레먀	-8299
마자	-8300
먹을	-8301
발과	-8302
밭에	-8303
볼의	-8304
브핫	-8305
사살	-8306
산과	-8307
상이	-8308
서에	-8309
선이	-8310
수께	-8311
쉬는	-8312
야요	-8313
엽게	-8314
운다	-8315
인은	-8316
자요	-8317
제와	-8318
지역	-8319
키는	-8320
포도	-8321
할과	-8322
형제	-8323
▁가레	-8324
▁가엾	-8325
▁가자	-8326
▁가졌	-8327
▁각하	-8328
▁갚을	-8329
▁개구	-8330
▁거저	-8331
▁건질	-8332
▁걸세	-8333
▁결박	-8334
▁결심	-8335
▁곳곳	-8336
▁관을	-8337
▁구백	-8338
▁구출	-8339
▁구할	-8340
▁굽이	-8341
▁글로	-8342
▁꾸민	-8343
▁꿀을	-8344
▁끄는	-8345
▁나로	-8346
▁나손	-8347
▁나중	-8348
▁내렸	-8349
▁넘칠	-8350
▁녀석	-8351
▁노랫	-8352
▁다다	-8353
▁더디	-8354
▁덮을	-8355
▁돌과	-8356
▁동기	-8357
▁동여	-8358
▁되자	-8359
▁두께	-8360
▁드고	-8361
▁드빌	-8362
▁따뜻	-8363
▁땔감	-8364
▁뜨게	-8365
▁뜰로	-8366
▁띠고	-8367
▁마흘	-8368
▁많다	-8369
▁맞설	-8370
▁메어	-8371
▁명은	-8372
▁명절	-8373
▁무섭	-8374
▁물웅	-8375
▁바락	-8376
▁배나	-8377
▁배우	-8378
▁배척	-8379
▁벌려	-8380
▁베스	-8381
▁보응	-8382
▁복무	-8383
▁사귀	-8384
▁상이	-8385
▁새를	-8386
▁세력	-8387
▁셋을	-8388
▁셋이	-8389
▁소바	-8390
▁순수	-8391
▁슬픈	-8392
▁신중	-8393
▁싹이	-8394
▁아람	-8395
▁아픈	-8396
▁어렵	-8397
▁어머	-8398
▁어미	-8399
▁엄한	-8400
▁없음	-8401
▁없지	-8402
▁여행	-8403
▁옳다	-8404
▁우뚝	-8405
▁우쭐	-8406
▁웃음	-8407
▁위임	-8408
▁유죄	-8409
▁이득	-8410
▁이맘	-8411
▁인구	-8412
▁임이	-8413
▁잔칫	-8414
▁적도	-8415
▁적용	-8416
▁제비	-8417
▁좋다	-8418
▁죄로	-8419
▁지는	-8420
▁지르	-8421
▁진리	-8422
▁참을	-8423
▁천의	-8424
▁체포	-8425
▁춤추	-8426
▁침을	-8427
▁타일	-8428
▁털이	-8429
▁토막	-8430
▁편에	-8431
▁품은	-8432
▁품지	-8433
▁풍속	-8434
▁피에	-8435
▁하몰	-8436
▁하살	-8437
▁한때	-8438
▁할까	-8439
▁항아	-8440
▁헐벗	-8441
▁환히	-8442
▁흙을	-8443
▁힌을	-8444
▁힘써	-8445
군가가	-8446
그들의	-8447
그리스	-8448
놓았다	-8449
느냐고	-8450
드락과	-8451
디엘의	-8452
부장이	-8453
스에서	-8454
시키는	-8455
엘이다	-8456
으로도	-8457
자들아	-8458
하였던	-8459
▁갖가지	-8460
▁거리를	-8461
▁것만을	-8462
▁경고의	-8463
▁경비병	-8464
▁고기는	-8465
▁고집이	-8466
▁고침을	-8467
▁구원이	-8468
▁구원할	-8469
▁굳세게	-8470
▁굶주린	-8471
▁권능과	-8472
▁그룹의	-8473
▁금그릇	-8474
▁금식을	-8475
▁긍휼히	-8476
▁기간에	-8477
▁기다렸	-8478
▁기도에	-8479
▁기이한	-8480
▁길짐승	-8481
▁까마귀	-8482
▁깨닫는	-8483
▁깨뜨려	-8484
▁나귀가	-8485
▁남편은	-8486
▁내시고	-8487
▁노리고	-8488
▁놀라게	-8489
▁놓으면	-8490
▁느다넬	-8491
▁다녔다	-8492
▁다니지	-8493
▁도성은	-8494
▁도시를	-8495
▁돌려라	-8496
▁돌리지	-8497
▁돌아보	-8498
▁동안을	-8499
▁뒤에서	-8500
▁들나귀	-8501
▁딸에게	-8502
▁땅바닥	-8503
▁때리고	-8504
▁때문이	-8505
▁떠돌아	-8506
▁떼에게	-8507
▁마디도	-8508
▁마하나	-8509
▁만나지	-8510
▁만났다	-8511
▁많으면	-8512
▁말들이	-8513
▁맞아서	-8514
▁머리가	-8515
▁메삭과	-8516
▁멸망의	-8517
▁명철한	-8518
▁모시는	-8519
▁모시로	-8520
▁믿음에	-8521
▁바치게	-8522
▁받아라	-8523
▁발락이	-8524
▁벌하지	-8525
▁벽기둥	-8526
▁보았고	-8527
▁본래의	-8528
▁분노와	-8529
▁불쌍한	-8530
▁불어서	-8531
▁불의를	-8532
▁불태워	-8533
▁뽑았다	-8534
▁사랑의	-8535
▁사사로	-8536
▁산당을	-8537
▁상전의	-8538
▁생활을	-8539
▁섬기던	-8540
▁세바와	-8541
▁소리는	-8542
▁소원을	-8543
▁소유를	-8544
▁속전을	-8545
▁송사를	-8546
▁수염을	-8547
▁술잔을	-8548
▁숫양의	-8549
▁슬픔을	-8550
▁시몬의	-8551
▁시온아	-8552
▁시험을	-8553
▁쓰러진	-8554
▁아가씨	-8555
▁아기가	-8556
▁아니요	-8557
▁아우를	-8558
▁아히둡	-8559
▁안장을	-8560
▁야곱아	-8561
▁약탈을	-8562
▁어기고	-8563
▁어른을	-8564
▁엄청난	-8565
▁없느냐	-8566
▁에그론	-8567
▁에글론	-8568
▁엘리바	-8569
▁여두둔	-8570
▁여인과	-8571
▁여자나	-8572
▁여종의	-8573
▁열어서	-8574
▁영토를	-8575
▁올려라	-8576
▁올리고	-8577
▁왕후가	-8578
▁외치고	-8579
▁우상과	-8580
▁우상이	-8581
▁위엄을	-8582
▁위에다	-8583
▁이들의	-8584
▁이마에	-8585
▁인자는	-8586
▁임신을	-8587
▁임신한	-8588
▁입술로	-8589
▁입어야	-8590
▁있겠다	-8591
▁자기도	-8592
▁자네가	-8593
▁재산은	-8594
▁좋겠소	-8595
▁주셨기	-8596
▁주었기	-8597
▁죽음이	-8598
▁줍니다	-8599
▁증거가	-8600
▁지니고	-8601
▁쳐올라	-8602
▁침대에	-8603
▁캄캄한	-8604
▁타면서	-8605
▁탐욕을	-8606
▁품삯을	-8607
▁하나인	-8608
▁하루에	-8609
▁하셨기	-8610
▁행하고	-8611
▁허물고	-8612
▁헤롯이	-8613
▁형제가	-8614
▁혼란에	-8615
▁흩어진	-8616
만이라도	-8617
심으로써	-8618
▁가레아의	-8619
▁강물처럼	-8620
▁거두어서	-8621
▁거룩하고	-8622
▁것들이다	-8623
▁교회에서	-8624
▁구원하실	-8625
▁그것들의	-8626
▁그분에게	-8627
▁나가거라	-8628
▁나그네를	-8629
▁나누어서	-8630
▁내려다보	-8631
▁데나리온	-8632
▁돌아가고	-8633
▁되었구나	-8634
▁들어오지	-8635
▁들어왔다	-8636
▁들으시오	-8637
▁떨어지니	-8638
▁마당에서	-8639
▁마리에는	-8640
▁말하겠다	-8641
▁멜기세덱	-8642
▁모욕하는	-8643
▁바닷가에	-8644
▁바라보니	-8645
▁바룩에게	-8646
▁바르실래	-8647
▁버리셨다	-8648
▁보내어라	-8649
▁보아스가	-8650
▁부르셨다	-8651
▁붙잡아서	-8652
▁브나야와	-8653
▁사두개파	-8654
▁사라졌다	-8655
▁사라지게	-8656
▁사람인데	-8657
▁선생님이	-8658
▁선포하고	-8659
▁성실하게	-8660
▁성읍마다	-8661
▁스룹바벨	-8662
▁아내들과	-8663
▁아들로서	-8664
▁아들이나	-8665
▁아이들이	-8666
▁앞으로도	-8667
▁억압하는	-8668
▁없어지지	-8669
▁에스더는	-8670
▁엘리아십	-8671
▁엘리에셀	-8672
▁여자들이	-8673
▁요새들을	-8674
▁원수에게	-8675
▁유다에서	-8676
▁이르셨다	-8677
▁일으키고	-8678
▁일이라고	-8679
▁있어서는	-8680
▁있었지만	-8681
▁자랑하는	-8682
▁전쟁에서	-8683
▁좋습니다	-8684
▁지시하신	-8685
▁지체하지	-8686
▁지키려고	-8687
▁집짐승과	-8688
▁택하심을	-8689
▁포도주는	-8690
▁하나님인	-8691
▁하나이다	-8692
▁하였는지	-8693
▁헤브론과	-8694
▁회막에서	-8695
▁가겠습니다	-8696
▁거두어들인	-8697
▁곡식제물로	-8698
▁기어다니는	-8699
▁돌려보냈다	-8700
▁돌아가면서	-8701
▁따라오너라	-8702
▁때문이었다	-8703
▁르호보암이	-8704
▁마지막으로	-8705
▁부하들에게	-8706
▁사랑하시는	-8707
▁사마리아로	-8708
▁수송아지를	-8709
▁아닥사스다	-8710
▁아브람에게	-8711
▁아비멜렉을	-8712
▁엘리야에게	-8713
▁여호야김이	-8714
▁예언하여라	-8715
▁오른쪽으로	-8716
▁일어나셔서	-8717
▁자손에게는	-8718
▁좋겠습니까	-8719
▁찬양하였다	-8720
▁통곡하여라	-8721
▁헤브론으로	-8722
▁다마스쿠스로	-8723
▁다마스쿠스에	-8724
▁여호사밧에게	-8725
▁예언자들에게	-8726
▁집안간으로서	-8727
▁-	-8728
▁겐	-8729
▁냈	-8730
▁댄	-8731
▁덤	-8732
▁맙	-8733
▁뭍	-8734
▁뺨	-8735
▁섰	-8736
▁앙	-8737
▁잉	-8738
▁즉	-8739
▁짚	-8740
▁찰	-8741
▁촌	-8742
▁팠	-8743
▁핥	-8744
▁훨	-8745
고는	-8746
놓아	-8747
달라	-8748
도바	-8749
들였	-8750
뜨릴	-8751
리기	-8752
리꽃	-8753
매어	-8754
방의	-8755
벌즈	-8756
비록	-8757
사닥	-8758
살을	-8759
색이	-8760
성의	-8761
셨소	-8762
소리	-8763
식에	-8764
아무	-8765
아에	-8766
암과	-8767
았기	-8768
여겨	-8769
염된	-8770
용이	-8771
움에	-8772
움은	-8773
음은	-8774
정과	-8775
제의	-8776
판을	-8777
패를	-8778
풀이	-8779
하라	-8780
하오	-8781
핫과	-8782
향과	-8783
▁갔던	-8784
▁건지	-8785
▁것만	-8786
▁게셀	-8787
▁격분	-8788
▁곳도	-8789
▁구덩	-8790
▁구속	-8791
▁굳건	-8792
▁귀로	-8793
▁그로	-8794
▁그발	-8795
▁금붙	-8796
▁기른	-8797
▁기릴	-8798
▁꼴을	-8799
▁꽃이	-8800
▁나게	-8801
▁나병	-8802
▁나선	-8803
▁나섰	-8804
▁날과	-8805
▁낡은	-8806
▁내미	-8807
▁내실	-8808
▁놓지	-8809
▁느고	-8810
▁느보	-8811
▁다곤	-8812
▁더듬	-8813
▁동행	-8814
▁두는	-8815
▁뒹굴	-8816
▁딸의	-8817
▁떼는	-8818
▁뜻에	-8819
▁롯이	-8820
▁룻이	-8821
▁르말	-8822
▁마할	-8823
▁만세	-8824
▁만져	-8825
▁말았	-8826
▁맛보	-8827
▁맞고	-8828
▁맡고	-8829
▁맷돌	-8830
▁멸절	-8831
▁명씩	-8832
▁목말	-8833
▁몰약	-8834
▁묶어	-8835
▁물과	-8836
▁발은	-8837
▁밝아	-8838
▁뱀이	-8839
▁벌판	-8840
▁보러	-8841
▁보잘	-8842
▁보존	-8843
▁본토	-8844
▁불은	-8845
▁불행	-8846
▁비둘	-8847
▁빚은	-8848
▁뼈가	-8849
▁뼈와	-8850
▁사슴	-8851
▁산성	-8852
▁섞여	-8853
▁설득	-8854
▁세금	-8855
▁속지	-8856
▁승리	-8857
▁시대	-8858
▁실어	-8859
▁십팔	-8860
▁싸웠	-8861
▁쌓는	-8862
▁씨가	-8863
▁씨는	-8864
▁씻지	-8865
▁아그	-8866
▁아첨	-8867
▁아파	-8868
▁야아	-8869
▁양은	-8870
▁에녹	-8871
▁에벨	-8872
▁여다	-8873
▁여든	-8874
▁여리	-8875
▁여사	-8876
▁오빌	-8877
▁요야	-8878
▁우묵	-8879
▁움켜	-8880
▁의심	-8881
▁이빨	-8882
▁인장	-8883
▁일할	-8884
▁잃는	-8885
▁임을	-8886
▁입게	-8887
▁입히	-8888
▁있어	-8889
▁잉태	-8890
▁잎이	-8891
▁잠깐	-8892
▁잠언	-8893
▁정신	-8894
▁져야	-8895
▁존중	-8896
▁종일	-8897
▁주던	-8898
▁죽기	-8899
▁지불	-8900
▁지옥	-8901
▁진에	-8902
▁진정	-8903
▁집도	-8904
▁찔레	-8905
▁착취	-8906
▁참지	-8907
▁키가	-8908
▁타조	-8909
▁터져	-8910
▁틈을	-8911
▁파기	-8912
▁팔이	-8913
▁퍼붓	-8914
▁피워	-8915
▁한낮	-8916
▁한데	-8917
▁한편	-8918
▁항해	-8919
▁해변	-8920
▁해안	-8921
▁햇빛	-8922
▁헌금	-8923
▁혀로	-8924
▁활동	-8925
▁회오	-8926
▁훨씬	-8927
께서도	-8928
납니다	-8929
높으신	-8930
다윗의	-8931
라고도	-8932
수께끼	-8933
었다가	-8934
올라가	-8935
으셨고	-8936
으시는	-8937
으시면	-8938
이시니	-8939
이시요	-8940
이집트	-8941
자처럼	-8942
정에서	-8943
참으로	-8944
하기에	-8945
한다는	-8946
▁가득한	-8947
▁가든지	-8948
▁가련한	-8949
▁가로다	-8950
▁	-8951
이	-8952
다	-8953
,	-8954
.	-8955
하	-8956
에	-8957
을	-8958
그	-8959
는	-8960
가	-8961
서	-8962
들	-8963
의	-8964
고	-8965
나	-8966
아	-8967
게	-8968
지	-8969
사	-8970
은	-8971
로	-8972
를	-8973
주	-8974
리	-8975
라	-8976
니	-8977
어	-8978
것	-8979
기	-8980
도	-8981
시	-8982
자	-8983
여	-8984
람	-8985
으	-8986
내	-8987
"	-8988
한	-8989
말	-8990
과	-8991
너	-8992
께	-8993
러	-8994
님	-8995
있	-8996
모	-8997
와	-8998
스	-8999
였	-9000
보	-9001
수	-9002
오	-9003
성	-9004
대	-9005
일	-9006
제	-9007
희	-9008
신	-9009
우	-9010
바	-9011
마	-9012
려	-9013
었	-9014
만	-9015
야	-9016
데	-9017
습	-9018
두	-9019
거	-9020
때	-9021
면	-9022
무	-9023
세	-9024
예	-9025
않	-9026
물	-9027
엘	-9028
살	-9029
부	-9030
인	-9031
든	-9032
분	-9033
셨	-9034
르	-9035
음	-9036
손	-9037
며	-9038
되	-9039
왕	-9040
십	-9041
안	-9042
없	-9043
까	-9044
장	-9045
해	-9046
소	-9047
?	-9048
전	-9049
겠	-9050
'	-9051
운	-9052
입	-9053
구	-9054
땅	-9055
할	-9056
백	-9057
요	-9058
았	-9059
치	-9060
네	-9061
드	-9062
문	-9063
받	-9064
씀	-9065
위	-9066
상	-9067
죽	-9068
명	-9069
히	-9070
버	-9071
집	-9072
유	-9073
실	-9074
함	-9075
금	-9076
온	-9077
날	-9078
못	-9079
돌	-9080
비	-9081
렇	-9082
느	-9083
더	-9084
속	-9085
저	-9086
불	-9087
같	-9088
므	-9089
원	-9090
냐	-9091
정	-9092
생	-9093
름	-9094
임	-9095
루	-9096
알	-9097
언	-9098
른	-9099
진	-9100
누	-9101
래	-9102
앞	-9103
산	-9104
미	-9105
동	-9106
레	-9107
길	-9108
처	-9109
또	-9110
울	-9111
식	-9112
남	-9113
워	-9114
영	-9115
런	-9116
계	-9117
올	-9118
죄	-9119
종	-9120
양	-9121
곳	-9122
단	-9123
달	-9124
각	-9125
록	-9126
당	-9127
늘	-9128
족	-9129
브	-9130
조	-9131
먹	-9132
군	-9133
심	-9134
머	-9135
져	-9136
된	-9137
난	-9138
방	-9139
윗	-9140
악	-9141
쪽	-9142
합	-9143
노	-9144
갈	-9145
던	-9146
따	-9147
쳐	-9148
겨	-9149
베	-9150
터	-9151
호	-9152
새	-9153
피	-9154
곧	-9155
선	-9156
간	-9157
열	-9158
목	-9159
복	-9160
파	-9161
럼	-9162
망	-9163
천	-9164
민	-9165
귀	-9166
뒤	-9167
갔	-9168
경	-9169
막	-9170
포	-9171
놓	-9172
답	-9173
떠	-9174
삼	-9175
잡	-9176
린	-9177
재	-9178
키	-9179
행	-9180
관	-9181
발	-9182
령	-9183
많	-9184
번	-9185
디	-9186
적	-9187
반	-9188
건	-9189
랑	-9190
약	-9191
트	-9192
타	-9193
개	-9194
화	-9195
렘	-9196
될	-9197
회	-9198
셔	-9199
배	-9200
론	-9201
친	-9202
렸	-9203
광	-9204
매	-9205
형	-9206
읍	-9207
룩	-9208
강	-9209
줄	-9210
왔	-9211
켜	-9212
곱	-9213
듣	-9214
판	-9215
침	-9216
!	-9217
절	-9218
직	-9219
법	-9220
몸	-9221
질	-9222
빌	-9223
압	-9224
감	-9225
큰	-9226
병	-9227
눈	-9228
혜	-9229
역	-9230
차	-9231
좋	-9232
통	-9233
암	-9234
딸	-9235
용	-9236
잘	-9237
믿	-9238
째	-9239
릴	-9240
짓	-9241
공	-9242
승	-9243
넘	-9244
결	-9245
몬	-9246
짐	-9247
찾	-9248
깨	-9249
끌	-9250
둘	-9251
벌	-9252
얼	-9253
섬	-9254
옷	-9255
찬	-9256
혀	-9257
중	-9258
앗	-9259
례	-9260
찌	-9261
외	-9262
칠	-9263
평	-9264
맞	-9265
멸	-9266
태	-9267
곡	-9268
향	-9269
높	-9270
쳤	-9271
움	-9272
낳	-9273
편	-9274
율	-9275
엇	-9276
떤	-9277
숨	-9278
녀	-9279
굴	-9280
팔	-9281
슬	-9282
떼	-9283
허	-9284
걸	-9285
싸	-9286
준	-9287
석	-9288
렀	-9289
작	-9290
셋	-9291
증	-9292
칼	-9293
본	-9294
풀	-9295
힘	-9296
별	-9297
년	-9298
락	-9299
앉	-9300
교	-9301
쓰	-9302
추	-9303
권	-9304
혼	-9305
났	-9306
력	-9307
밀	-9308
담	-9309
참	-9310
억	-9311
술	-9312
창	-9313
떨	-9314
졌	-9315
맹	-9316
헤	-9317
독	-9318
애	-9319
듯	-9320
섯	-9321
끝	-9322
란	-9323
맡	-9324
쫓	-9325
능	-9326
솔	-9327
순	-9328
채	-9329
밤	-9330
얻	-9331
밖	-9332
뿐	-9333
벽	-9334
송	-9335
셉	-9336
잔	-9337
먼	-9338
끼	-9339
육	-9340
붙	-9341
초	-9342
품	-9343
꾸	-9344
체	-9345
숫	-9346
웃	-9347
블	-9348
셀	-9349
짖	-9350
메	-9351
크	-9352
궁	-9353
떻	-9354
랍	-9355
갖	-9356
림	-9357
욕	-9358
청	-9359
등	-9360
잠	-9361
련	-9362
격	-9363
후	-9364
뜨	-9365
쟁	-9366
닥	-9367
득	-9368
롭	-9369
둥	-9370
뜻	-9371
접	-9372
환	-9373
황	-9374
밭	-9375
변	-9376
흘	-9377
염	-9378
빛	-9379
책	-9380
낫	-9381
근	-9382
박	-9383
덮	-9384
뻐	-9385
앙	-9386
골	-9387
놀	-9388
벗	-9389
슨	-9390
돈	-9391
빵	-9392
빠	-9393
연	-9394
휘	-9395
빼	-9396
몰	-9397
흔	-9398
럽	-9399
삭	-9400
점	-9401
축	-9402
써	-9403
웠	-9404
국	-9405
즐	-9406
펴	-9407
긴	-9408
볼	-9409
뿌	-9410
냈	-9411
묻	-9412
규	-9413
궤	-9414
벨	-9415
랴	-9416
립	-9417
토	-9418
뽑	-9419
꾼	-9420
겼	-9421
(	-9422
)	-9423
탄	-9424
넣	-9425
곁	-9426
쇠	-9427
밧	-9428
찍	-9429
갓	-9430
했	-9431
괴	-9432
맺	-9433
풍	-9434
멜	-9435
롯	-9436
릇	-9437
옥	-9438
낮	-9439
렵	-9440
퍼	-9441
견	-9442
벳	-9443
멀	-9444
활	-9445
젊	-9446
낸	-9447
총	-9448
북	-9449
렉	-9450
쓸	-9451
출	-9452
짜	-9453
표	-9454
논	-9455
돔	-9456
틀	-9457
몫	-9458
패	-9459
엎	-9460
택	-9461
푸	-9462
끄	-9463
랐	-9464
탈	-9465
색	-9466
씩	-9467
잃	-9468
끗	-9469
쌓	-9470
글	-9471
깊	-9472
좌	-9473
덕	-9474
덤	-9475
폐	-9476
폭	-9477
둔	-9478
첫	-9479
뭇	-9480
항	-9481
힌	-9482
갑	-9483
갚	-9484
씨	-9485
값	-9486
낼	-9487
꺼	-9488
학	-9489
똑	-9490
닷	-9491
몇	-9492
놋	-9493
밑	-9494
흩	-9495
닙	-9496
취	-9497
깥	-9498
닫	-9499
설	-9500
털	-9501
겔	-9502
맛	-9503
투	-9504
끊	-9505
월	-9506
뢰	-9507
혔	-9508
확	-9509
엄	-9510
밝	-9511
김	-9512
슴	-9513
켰	-9514
쁨	-9515
쏟	-9516
완	-9517
뜰	-9518
덩	-9519
벤	-9520
낙	-9521
옳	-9522
큼	-9523
험	-9524
범	-9525
욱	-9526
홀	-9527
훈	-9528
필	-9529
굳	-9530
겁	-9531
렛	-9532
쁘	-9533
왜	-9534
룹	-9535
헛	-9536
흠	-9537
검	-9538
맏	-9539
밟	-9540
옮	-9541
녁	-9542
빈	-9543
빨	-9544
쉬	-9545
꼭	-9546
충	-9547
잊	-9548
젖	-9549
홍	-9550
섰	-9551
철	-9552
꽃	-9553
뿔	-9554
싶	-9555
쌍	-9556
옛	-9557
테	-9558
튼	-9559
헬	-9560
꿈	-9561
넉	-9562
닌	-9563
씻	-9564
흙	-9565
델	-9566
량	-9567
핫	-9568
업	-9569
류	-9570
징	-9571
흐	-9572
둠	-9573
롬	-9574
료	-9575
찔	-9576
찢	-9577
티	-9578
깃	-9579
존	-9580
넬	-9581
쁜	-9582
잇	-9583
굽	-9584
납	-9585
곤	-9586
욥	-9587
뛰	-9588
빕	-9589
킬	-9590
뼈	-9591
응	-9592
략	-9593
익	-9594
팡	-9595
닿	-9596
프	-9597
얹	-9598
짝	-9599
척	-9600
봇	-9601
샘	-9602
탐	-9603
센	-9604
좀	-9605
냥	-9606
멍	-9607
꺾	-9608
널	-9609
솟	-9610
겪	-9611
됩	-9612
카	-9613
획	-9614
녹	-9615
옆	-9616
겉	-9617
급	-9618
현	-9619
힐	-9620
헐	-9621
혹	-9622
묵	-9623
봉	-9624
띠	-9625
착	-9626
겜	-9627
닭	-9628
롱	-9629
삽	-9630
넓	-9631
숙	-9632
룻	-9633
몹	-9634
굶	-9635
농	-9636
맨	-9637
코	-9638
렙	-9639
쯤	-9640
킨	-9641
탁	-9642
꿀	-9643
걷	-9644
돋	-9645
돕	-9646
썩	-9647
둑	-9648
뜯	-9649
묶	-9650
뻗	-9651
삶	-9652
읽	-9653
픔	-9654
넷	-9655
랏	-9656
헌	-9657
멘	-9658
셈	-9659
꾀	-9660
쉰	-9661
특	-9662
랄	-9663
싫	-9664
껏	-9665
빚	-9666
갇	-9667
덟	-9668
흉	-9669
빗	-9670
렐	-9671
왼	-9672
퀴	-9673
햇	-9674
릎	-9675
몽	-9676
헴	-9677
헷	-9678
홉	-9679
걱	-9680
뚫	-9681
밥	-9682
쿠	-9683
훌	-9684
곰	-9685
쓴	-9686
씌	-9687
궐	-9688
랫	-9689
뱀	-9690
댜	-9691
빤	-9692
뉘	-9693
늙	-9694
뚜	-9695
릅	-9696
샤	-9697
캄	-9698
퉁	-9699
깎	-9700
녘	-9701
섞	-9702
숲	-9703
칭	-9704
훗	-9705
측	-9706
겸	-9707
깔	-9708
꿇	-9709
숭	-9710
층	-9711
낱	-9712
눌	-9713
닐	-9714
멈	-9715
쏘	-9716
렁	-9717
삯	-9718
춤	-9719
튿	-9720
틈	-9721
핍	-9722
돗	-9723
렬	-9724
쥐	-9725
꼬	-9726
컷	-9727
갗	-9728
딤	-9729
뚝	-9730
붓	-9731
짠	-9732
훔	-9733
묘	-9734
럴	-9735
벼	-9736
싹	-9737
잎	-9738
촌	-9739
효	-9740
굵	-9741
눕	-9742
붉	-9743
엿	-9744
쩌	-9745
찮	-9746
찼	-9747
긍	-9748
끔	-9749
둡	-9750
듬	-9751
솥	-9752
옵	-9753
쭈	-9754
페	-9755
협	-9756
휼	-9757
냇	-9758
릿	-9759
썼	-9760
탕	-9761
휩	-9762
붕	-9763
꿰	-9764
쉴	-9765
쩍	-9766
흰	-9767
끈	-9768
찰	-9769
첩	-9770
혈	-9771
녔	-9772
럇	-9773
엉	-9774
케	-9775
흥	-9776
깁	-9777
뱌	-9778
웅	-9779
픈	-9780
냄	-9781
줍	-9782
꼴	-9783
뇌	-9784
룸	-9785
뵙	-9786
뻔	-9787
샅	-9788
덧	-9789
싣	-9790
칩	-9791
턱	-9792
꼰	-9793
닦	-9794
덫	-9795
듭	-9796
커	-9797
겹	-9798
삿	-9799
흑	-9800
극	-9801
낯	-9802
뜸	-9803
룰	-9804
봅	-9805
앓	-9806
덴	-9807
돼	-9808
뱃	-9809
뵈	-9810
섭	-9811
즈	-9812
쪼	-9813
칙	-9814
툼	-9815
-	-9816
빔	-9817
펼	-9818
및	-9819
씁	-9820
얽	-9821
욧	-9822
웨	-9823
춘	-9824
]	-9825
괜	-9826
낭	-9827
딜	-9828
랬	-9829
뭉	-9830
잣	-9831
짧	-9832
믹	-9833
웬	-9834
촉	-9835
겝	-9836
낡	-9837
놈	-9838
뒹	-9839
볍	-9840
숯	-9841
엔	-9842
졸	-9843
짊	-9844
탓	-9845
팥	-9846
푼	-9847
뀌	-9848
념	-9849
늦	-9850
뜬	-9851
뿜	-9852
댁	-9853
맷	-9854
봐	-9855
숩	-9856
얘	-9857
짙	-9858
혐	-9859
갸	-9860
껴	-9861
랜	-9862
맑	-9863
맘	-9864
먀	-9865
씬	-9866
얄	-9867
좁	-9868
콩	-9869
탔	-9870
흡	-9871
[	-9872
냅	-9873
덜	-9874
땔	-9875
륭	-9876
맥	-9877
뱉	-9878
섹	-9879
액	-9880
꼼	-9881
댄	-9882
덱	-9883
딴	-9884
맙	-9885
얗	-9886
엽	-9887
잿	-9888
최	-9889
껍	-9890
떳	-9891
띄	-9892
릭	-9893
싼	-9894
횃	-9895
넜	-9896
녕	-9897
딘	-9898
똥	-9899
룬	-9900
샀	-9901
쉽	-9902
쌌	-9903
쭐	-9904
칫	-9905
팠	-9906
핀	-9907
겐	-9908
낚	-9909
늬	-9910
멕	-9911
멧	-9912
밈	-9913
싯	-9914
엾	-9915
짚	-9916
첨	-9917
깐	-9918
끓	-9919
낌	-9920
떡	-9921
뭍	-9922
밋	-9923
벙	-9924
벡	-9925
뺨	-9926
잉	-9927
즉	-9928
챙	-9929
킵	-9930
톱	-9931
핥	-9932
훨	-9933
귓	-9934
긁	-9935
넴	-9936
뒷	-9937
뚤	-9938
슷	-9939
웁	-9940
윌	-9941
좇	-9942
컬	-9943
큽	-9944
퇴	-9945
폈	-9946
흗	-9947
	-9948
객	-9949
갯	-9950
곽	-9951
긋	-9952
깜	-9953
깝	-9954
꽂	-9955
닢	-9956
댔	-9957
딪	-9958
룟	-9959
멋	-9960
봄	-9961
뽕	-9962
솜	-9963
쏠	-9964
앨	-9965
옹	-9966
즙	-9967
칸	-9968
캐	-9969
텅	-9970
괘	-9971
뗄	-9972
룁	-9973
밉	-9974
볶	-9975
빙	-9976
뻑	-9977
뼉	-9978
슭	-9979
쑥	-9980
젓	-9981
촛	-9982
콤	-9983
튀	-9984
넋	-9985
뚱	-9986
뭐	-9987
믈	-9988
뵐	-9989
삐	-9990
샛	-9991
얍	-9992
